#version: 0.2 - Trained by `huggingface/tokenizers`
d e
Ġ e
Ġ de
Ġ l
o s
Ġ p
Ġ a
Ġ c
e r
e n
Ġ s
a r
o n
a s
e s
a n
c i
o r
u e
Ã ³
Ġ m
a d
Ġl a
u n
Ġe n
r e
i n
q ue
Ã Ń
a l
Ġ t
Ġ y
s t
Ġe l
Ġ que
en t
Ġ h
Ġ un
d o
d i
a b
Ġc on
Ã³ n
Ġ n
ĉ ĉ
o m
Ã ¡
r a
r o
t i
Ġs e
Ġ f
Ġ v
r i
Ã ©
a m
Ġs u
Ġl os
ÃŃ a
a ci
â Ģ
Ġe s
i c
t e
l e
ad o
Ġ o
Ġde l
t o
Ġ re
Ġe st
Ġ in
Ġp ar
Ġa l
o l
t a
Ġc om
âĢ Ķ
Ġp or
r es
ent e
Ġl as
Ġ b
i d
Ġ C
ĉĉ ĉĉ
Ġun a
e c
i s
Ġ di
Ġ g
Ġn o
Ã ±
l o
l a
aci Ã³n
Ġ d
m p
q u
Ġ E
c u
i l
Ġ S
t u
Ġc u
Ġpar a
c h
Ġ A
Ġs i
ad a
Ġ 1
ab a
Ġ P
i r
Ġp ro
Ġ M
t er
g u
Ã¡ s
Ġl o
Ġp er
Ġde s
r an
i o
on es
Ġm e
d a
Ã º
i er
ci Ã³n
e l
t r
g o
i t
i a
Ġh ab
c a
Ġ L
i st
an do
s e
i en
Ġ (
b re
m a
i e
Ġcom o
a c
Ġm u
ci a
i ent
c o
Ġ D
Ġ i
j o
u s
Ġe x
Ġl e
Ġt o
i z
ad os
m o
i Ã³n
Ġm Ã¡s
Ġ 2
Ġa c
al es
ti v
i ci
Ġ Â
Ġ B
t os
Ã¡ n
Ġ T
Ġp o
id ad
b i
Ġ R
Ġs o
r u
t es
Ġa n
r as
er o
u l
de n
ĉĉĉĉ ĉĉĉĉ
p e
t or
er a
u es
Ġ N
Ġsu s
Ġ j
t ra
d ad
E l
c e
i g
Ġ qu
Ġa p
i m
t ro
e m
Ġs er
Ġ âĢĶ
i v
d os
Ġ "
am ente
a y
Ã© n
Ġ res
Ġ G
id a
e z
t en
or m
ic a
p a
t ar
Ġ I
Ġ1 9
u er
d u
de s
g un
Ġa s
E n
Ġ F
Ġa r
i b
p er
an te
i do
Ġc a
t re
Ġ H
Ġt en
0 0
m ente
Ġhab ÃŃa
u m
i os
l os
L a
Ġp re
p o
c on
Ġ J
de r
Ġm an
Ġp r
u r
Ã© s
ri m
l ar
ient o
ent o
Ġt e
ic o
Ġf ue
g ar
Ġso bre
j e
ÃŃ an
Ġper o
b l
Ġs in
en s
Ġ r
Ġp ue
Ãº n
or a
m b
Ġc as
Ġp a
ar a
Ġi mp
t as
or es
Ġcom p
Ġ Ã©
am bi
c es
U n
ad as
aci ones
Ġa b
v er
Ġ V
Ġh a
en cia
Ġa Ã±
Ġm is
Ġe ra
l an
l as
z a
m e
Ġl le
Ġen tre
v o
Ġ or
Ġo b
Ġh ac
u st
Ġm o
Ġv er
Ġc ar
l es
Ġp as
Ġin ter
on al
tr os
g a
an a
in a
Ġs on
Ġcon s
d as
l am
Ġc o
ĠÂ ¿
ab an
Ġp res
or t
Ġt r
Ġt ra
ec h
Â »
ambi Ã©n
Ġdi s
Ġm a
in o
f er
Ġm i
Ġme di
Ġs ol
t Ã³
Ġ O
Ġt an
p ar
Ġs al
Ġc am
ch o
f ic
i Ã³
Â ¿
an o
Ġp rim
ab le
t al
en do
Ġe mp
ar on
e g
ci ones
. .
as ta
ĠE st
m in
Ġa m
p u
Ġde b
r os
Ġf in
Ġm ar
Ġl u
Ġc re
am os
p on
ĠC om
c l
Ġes c
Ġd os
n o
m os
ent a
Ġest e
Ġc or
Ġto do
c ciÃ³n
Ġcu ando
ĠÂ «
Ġp os
Ġ Un
ÃŃ n
ent es
f ici
Ġt ambiÃ©n
u b
Ġ Y
v e
ar io
ÃŃ s
Ġd u
ec es
ĠÃ© l
al mente
Ġes p
on a
Ġt ien
Ġh asta
č Ċ
v a
Ġper s
c ar
en ci
c as
Ġb a
o y
ĠE l
Ġp e
Ġest a
Ġin f
ci p
Ġh om
pa Ã±
t ado
j os
Ġpro p
E st
0 1
Ġy a
ist a
j a
ĠC on
N o
ÃŃ as
c os
d r
Ġpar ti
Ġg ran
ĠL a
o ci
Ġn ue
Ġest Ã¡
e d
ad or
ar se
Ġ do
u di
m as
Ġ 3
Ġc ab
Ġv ez
ri b
Ġmu y
i as
Ġn i
Ġest aba
m an
al iz
Ã± o
u ro
an tes
v en
Ġt er
j er
t on
ĉĉĉĉĉĉĉĉ ĉĉ
ch a
Ġde ci
) .
un to
r en
tu ra
is iÃ³n
ie mp
es ti
tiv o
l ic
ĠaÃ± os
i tu
) ,
âĢ ¦
Ġf uer
n a
ti l
Ġc os
Ġtr aba
Ġre g
v i
g ra
ĠI n
ĠE s
Ġex p
e ci
Ġpar te
z o
Ġm ay
ran te
Ġd on
c er
en a
Ġel la
que l
Ġ K
Ġh aci
Ġn os
ue l
Ġt u
Ġt iemp
Ġc ol
pu Ã©s
âĢĶ .
Ġp ol
Ġse gu
b a
ti ca
Ġs ab
Ġdes de
g r
Ġc al
âĢĶ Â¿
Ġm un
ĠN o
g an
Ġ2 00
Ġpro du
ĠS e
Ġv ol
Ġc er
m i
i ones
p os
Ġcu al
s o
Ġc an
t in
Ġhac er
Ġf u
Ġa d
Ġs ent
tiv a
L os
u d
o b
Ġc i
it ar
Ġ ra
ĠA l
Ġtiemp o
S e
Ġm en
Q u
Ġa u
ĠE n
Ġpue de
ida des
Ġ W
id os
us o
Ġa quel
Ġ ro
or ma
Ġto dos
ier a
Ġ2 01
Ġal gun
c an
Ġb ien
en er
Ġcon tra
Ġdon de
a v
re c
e b
em os
ÃŃ o
qu i
f ec
ĠM ar
pe ci
Ġn ues
Ġt ran
in g
i or
Ġas ÃŃ
Ġmis mo
Ġqu Ã©
ech o
Ġm ir
tr as
l ti
er os
tu r
Ġp u
ent os
Ġc h
Ġme j
Ġin cl
Ġh ay
st ru
Ġhaci a
p or
Ġn eces
il l
Ġ Ã¡
Ġsi g
Ġ âĢ
ri s
Ġl lam
ÃŃ cu
ci on
ad re
Ġpr in
Ġh er
v an
Ġf orm
e a
cu r
b le
Ã³ lo
Ġes peci
ar ios
i den
P or
Ġf un
Ġv ida
ĠC h
Ġun o
ient ras
Ġca p
Ġde j
Ġci u
E s
ue go
di Ã³
ĠR e
" ,
Ġtien e
Ġap ar
Ġlu gar
ar go
Ġh i
m Ã¡s
am iento
Ġse Ã±
aci onal
Ġprin cip
Ġa h
Ġy o
Ġre p
ch e
Ġdes puÃ©s
d ÃŃa
e mp
g os
Ġdi st
ci as
Ġn om
o c
Ġ -
Ġdu rante
s iÃ³n
Ġcon f
Ã± a
Ġmay or
Ġh an
Ġin v
Ġre l
ez a
Ġsi do
er v
Ġv e
gu a
a t
Ġ .
Ġ19 9
an os
ar ro
ĠS an
ib le
g en
i ciÃ³n
Â ¡
Ġlle v
2 0
Ġpa ÃŃs
Ġcom un
or d
Ġan tes
ic os
Ġe mb
m iento
ĠE uro
Ġ Ãº
ad ores
i f
e t
Ġen con
cu l
Ġp ens
Ġm om
ĠA n
Ġb u
Ġm on
Ġ 4
Ġtran s
st itu
Ġes e
Ġb as
Ġ u
Ġten ÃŃa
Ġimp ort
ĠaÃ± o
Ġde n
Ġl ib
Ġo tros
Ġp al
Ġal go
p ues
ch os
Ã© r
un que
Ġmu jer
Ġciu dad
ien do
Ġf orma
di do
Ġpor que
Ġo tro
Ġt i
1 9
Ġto da
Ġm ie
er on
Ġc ada
p ec
Ġg ener
Ġcons i
c tor
Ġ1 8
Ġinf orm
ic as
st e
Ġp es
Ġd ÃŃa
Ġencon tr
on as
u y
i on
Ġa y
Ġp ues
ti r
ar d
Ġt om
Ġso ci
Ġre c
Ġre ci
e o
i to
Ġf r
Ġpol ÃŃ
Ġm ientras
ĠÃº lti
ĠÂ ¡
o g
al idad
Ã³ mo
Ġes o
Ġ 5
Ġp lan
ti co
Ġsi gu
Ġa cu
A l
i ta
Ġtan to
ĠP ar
l lo
l or
am il
z ar
Ġo tra
Ġmej or
er s
Ġ U
Ġpar ec
i ente
Ġen cu
ton ces
Ġ ri
b r
qu ier
Ġpro f
Ã± os
en o
Ãº bl
Ġre f
Ġv en
Ġv iv
Ġest ado
Ġcas a
Ġque d
Ġhom bre
D e
Ġj u
er ÃŃa
Ġmom ento
Ġn ada
Ġs Ã³lo
b res
Ġf i
al l
ient os
ĠCom isiÃ³n
Ġt ras
Ġc ent
Ġp la
ĠD e
ĠA r
ĠM e
n os
Ġmun do
Ġpo co
qu ÃŃ
Ġt res
ĉ čĊ
ĉĉĉĉĉĉĉĉĉĉ ĉčĊ
an d
Ġin di
ar ÃŃa
dos e
Ġm al
Ġel los
ri st
ri Ã³
c en
an cia
Ġg ru
Ġmen os
ci o
ol u
Ġh echo
i fic
mp l
Ġo p
os o
h e
L as
Ġencu ent
Ġser v
p re
Ġp i
ĉĉĉĉĉĉĉĉ ĉĉĉĉĉĉĉĉ
ĉĉĉĉĉĉĉĉĉĉ čĊ
ĉĉĉĉĉĉĉĉĉĉĉĉĉĉĉĉ ĉĉĉĉĉĉĉĉĉĉčĊ
Ġd a
" .
Ġdeci r
Ġf amil
tiv os
.. .
Ġmu cho
Ġo f
Ġn a
Â Ń
l ÃŃ
ri g
Ġprim era
Ġen tr
Ġdes arro
Ġsu per
di jo
t amente
Ġv o
Ġa de
il la
Ġt ar
om o
Ġest udi
c re
C on
Ġprim er
ier on
âĢ Ŀ
Ġl i
Ġmie mb
ra ciÃ³n
Ġmu er
ĠP ero
Ġqu ien
Ġh um
il idad
Ġm es
Ġac tu
Ġpe que
is mo
Ġp uer
Ġh ist
Ġl es
Ġpo dr
Ġ ir
os a
t ri
a p
ti Ã³
Ġlle g
Ġg u
Ġn e
Ġah ora
ĠEst ados
Ġnue vo
Ġun os
Â» .
Ã³ m
Ġsu b
Ġo jos
Ġs ÃŃ
er do
Ġres ul
Ġre aliz
Ġse gun
Ġe ran
Ġpre gun
Ġm in
Ġ Ã
c ado
iz o
Ġtraba jo
Ġhab er
p i
Ġhab ÃŃan
Ġde re
Ġde f
Ġa le
Ġm il
ĠL e
Ġm er
Ġ 6
Ġ ust
Ġde st
Ġsi emp
Ġsiemp re
ĠC ar
z Ã³
ar Ã¡
Ġv al
ter i
Ġes a
Ġb o
se jo
ver s
Ġnom bre
z as
Ġ19 8
Ġcon oci
g Ãºn
Ġe v
til iz
Ġre v
ĠS u
Ġcu enta
di a
l l
Ġp on
in e
Ġa unque
y ec
Ãº s
se gu
Ġto das
ist as
Ġh e
Ġsol o
Ġest Ã¡n
t aba
Qu Ã©
Ġin s
Ġdi jo
en e
Ġg ra
Ġsi tu
Ġpers onas
Ġcon tin
Ġ Ãºn
or ia
Ġa g
Ġcomp le
Ġdi rec
it al
Ã© c
ier no
Ġdi fer
Ġc l
Ġb ar
Ġes per
Ġt al
Ġest o
ent ar
Ġ ru
Ġcu l
Ġman o
l u
n e
Ġemb argo
a g
Ġu tiliz
C u
z Ã³n
D es
p en
Ã¡n do
Ġob je
Ġcab eza
ce p
Ġ 7
te l
Ġ 9
Ġte mp
Ġa quÃŃ
Ġde c
Ġqu ier
Ġc ier
Ġf al
Ġex ist
Ġp el
Ġcu er
Ġhac e
Ġtraba j
S u
Ġa f
Ġpo der
Ġor gan
t h
em bre
er g
Ġpal ab
ĠCon sejo
d or
Ġm ÃŃ
Ġmedi o
ĠEuro pe
Ġre la
Ġ us
ri ca
Ġba jo
ĠL os
Ġan ti
Ġan te
j as
Ġfuer on
un ca
Ġ z
Ġo tras
t ÃŃcu
id as
Ġpo bl
t ad
Ãº m
Ġv i
Ġv ar
er n
Ġhab it
Ġ 8
aci on
s a
Ġen tonces
or te
c tu
ch as
Ġlo c
Ġpro gra
iv ers
Ġemp res
Ġs ue
t ados
ĠâĢ ľ
Ġ k
im iento
Ġp ie
Ġg ob
Ġust ed
Ġcas o
e p
da des
Ġap ro
Ġe qui
r ÃŃa
Ġ X
st a
g e
Ġcon v
P ero
ic h
ĠP or
de ra
Ġl ado
ĠF ran
ĠA s
v iÃ³
Ġp unto
ci l
Ġest ar
Ġpo dÃŃa
t aciÃ³n
Ġv is
y a
Ġh izo
ti do
Ġfu era
Ã¡ c
ici o
Ġ os
Ġs an
Ġten er
Ġpue den
Ġe fec
ec u
t am
a tro
Ġin t
te g
Ġac er
Ġsin o
lam ento
Ġh or
Ġh ub
Ġhom bres
Ġau tor
t an
e x
Ġprodu c
Ġest able
Ã¡ l
Ġl uego
paÃ± a
ol a
Ġman era
Ġe di
S i
z os
om e
âĢĶ Â¡
Ġb us
r al
Ġp adre
Ġi de
tur al
u ra
Ġb an
Ġc in
Ġrep res
tiv as
bi do
Ġe con
ĠM a
Ġdi rig
C E
Ġest os
ÃŃ st
Ġesc ri
Ġd ÃŃas
c el
in as
g as
al a
Ġcom er
an za
ir m
Ġc Ã³mo
Ġpro ble
Ġd ar
cu p
ti cas
ier ra
Ġal lÃŃ
Ġcon stru
ces o
uer ra
v ÃŃa
Ġpro yec
enci as
Ġno che
Ġg an
Ġin st
Ġmis ma
un tos
bl ic
ens a
u da
i mo
ri l
i ma
Ġj unto
i re
Ã¡n dose
Ġre con
Ġfamil ia
ĠL o
Ġmiemb ros
i p
Ġt or
Ġp Ãºbl
Ġres pon
Ġv eces
ar ia
iz aciÃ³n
ten er
Ġcos as
Ġv uel
Ġap lic
ĠL u
Ġin g
Ġc e
c Ã³
Ġto tal
ient es
Ġe je
r ado
Ġlle gar
Ġcas i
iden te
Ġp ri
Ġc r
Ġor den
ri dad
Ġtra v
Ġpers ona
om b
i ado
Ġa gua
Ġ Z
on o
Ġalgun os
r ar
M e
Ġest u
cu lar
Ġgener al
Ġor ig
Ġper mi
Ġo fici
Ġs ac
di o
Ġden tro
Â» ,
Ġcual quier
Ã³ g
ri a
Ġcontin u
ĠS i
Ġnue v
Ġn Ãºm
Ġpres ent
Ġse a
Ġprof es
ter ior
Ġ 0
ĠD ios
un d
Ġn unca
Ġel ec
I I
Ġpuer ta
c om
ĠC o
Ġex per
di da
du c
b io
un idad
Ġv a
Ġ1 5
Ġ1 0
Ġtrav Ã©s
ĠP ro
Ġac tiv
ĠseÃ± or
Ġgru po
b ol
ĠpaÃŃs es
ab les
Ġvo z
Ã¡ r
ti cos
Ġeje mp
Ġfin al
is o
av or
i cia
Ġmo do
Ġob s
Ġti po
Ġh o
Ġcon tro
esti g
un ci
i Ã©n
ter a
v in
ĠT o
Ġap oy
b o
Ġa Ãºn
om a
Ġcuer po
ĠC u
es e
Ã¡ g
t ando
Ġg ust
Ġex tra
Ġc lar
Ġs a
ist o
Ġp l
Ġc las
ar es
c ri
ti s
Ġtar de
aci o
Ġcom en
Ġf ran
Ġa mb
Ġman os
ar an
Ġt em
Ġ19 7
Ġdeb e
Â ł
ste ma
Ġc ambi
am a
P ara
ici os
Ġsi stema
iv el
ol og
tor io
Ġcu an
g n
Ġemp le
Ġpre ci
Ġm adre
Ġdes a
Ġpos ible
Ġm Ã©
Ġinform aciÃ³n
Ġdi ci
Ġpue b
Ġf avor
qu es
tÃŃcu lo
Ġpobl aciÃ³n
ĠpolÃŃ tica
00 0
Ġn eg
Ġi gu
Ġen f
res pon
ĠP a
Ġencuent ra
le g
el l
âĢ ĵ
Ġe j
Ã¡ p
Ġmu chos
Ġconsi der
Ġ jo
Ġsu r
Ġ1 7
Ġest as
rib u
an ci
E S
b er
r Ã³
Ġre cu
ri r
Ġn ivel
Ġest aban
bi Ã³
Ġdesarro llo
Ġemp ez
m ent
ĠA m
in os
as e
pec to
tor es
min ist
v il
ci do
y o
Ġpr on
t ante
j es
Ġb lan
ĠnÃºm ero
v es
Ġpu blic
Ġfr ente
Ġtien en
Ġal can
Ġhist oria
ÃŃ tu
Ġcu atro
Ġdist in
Ġm or
e f
m ana
ue la
e ta
Ġm ill
ici p
Ġle van
Ġnos o
Ġno v
C A
ten ciÃ³n
Ġpa p
Ġl an
Ġacu erdo
p ul
L o
t ada
Ġdi o
Ġdi cho
v id
v is
tu d
ĠUn idos
Ġimport ante
ĠD es
Ġsig n
Ġdes cu
i go
Ġl argo
Ġter min
I n
Ġg ri
ad ie
Ġcom paÃ±
en as
Ġes paÃ±
ar lo
Ġca us
Ġes cu
Ġinter n
di r
ĠJ u
Ġb ra
Ġmuer te
en os
Ġj un
i onal
m on
den te
ci al
p as
Ġgran des
Ġ1 2
m bre
Ġi ma
Ġnoso tros
tr Ã¡s
Ġinv estig
er as
S in
A s
Ġmujer es
Ġexp res
z ado
s os
Ġv ia
in gun
Ġg ol
Un a
Ġ1 6
Ã± as
Ġpro ce
re g
Ġg ente
Ġnues tro
Ġlib er
Ġmo v
ĠC a
Ġnues tra
ĠG u
ter n
Ġm as
Ġcon di
c k
ter min
Ġle g
Ġecon Ã³m
f orm
Ġcon o
Ġ is
se Ã±
Ġfun d
pues to
Ġel lo
Ġs Ã©
Ġsi endo
j ar
er ic
Ġo cur
Ġc ru
Ġs il
ec e
Ġparti cip
Ġejemp lo
il lo
ĠA le
r Ã¡
Ġde mas
Ġa tra
m it
Ã³ r
f ico
Ġay ud
c al
ĠEs paÃ±a
ĠD i
s on
Ġhab lar
Ġsig lo
Ġhi jo
f ica
Ġcer ca
Ġ ,
it os
ĠB ar
ĠC as
1 0
Ġg uerra
t Ã³n
ti fic
Ġpodr ÃŃa
Ġincl uso
u al
du st
t ran
im os
t Ã©
Ġpalab ras
co g
Ġle y
un a
ĠâĢ ĵ
p ti
Ġmill ones
Ġe uro
Ġsigu iente
Ġo bl
Ġade mÃ¡s
ig a
Ġnue va
i al
Est e
r on
Cu ando
ĠR o
ul io
Ġequi po
Ġver dad
Ġmun icip
g les
Ġof re
den cia
Ġl ÃŃn
Ġsoci al
Ġqu er
Ġest re
re de
c or
in ar
Ġc ir
qu il
_ _
an as
Ġi ba
eci Ã³
Ġaquel la
Ġdi f
Ġac ab
Ġtr ad
Ġobs erv
Ġt ierra
t t
Ġtu vo
olu ciÃ³n
ĠEst ado
Ġm os
ĠJ o
Ġa gu
Ġgob ierno
Ġv arios
Ġreci b
Ġan im
in aciÃ³n
Ġpas ado
Ġrepres ent
Ġj ust
a jo
ab or
ti o
Ġa do
Ġs or
Ġ2 0
Ġa mpl
Ġesp ec
e v
Ġincl uy
Ġn ingun
Ġhab l
Ġre un
iv o
e dad
Ġcom pe
ÃŃ r
Ġigu al
ol o
u la
Est a
Ġna tural
Ġlu z
Ġprogra ma
ien cia
ĠM on
per aciÃ³n
u g
i ar
t Ã¡n
Ġun as
u rante
ĠP o
Ġsab er
Ġhub iera
ĠÃºlti mo
Ġre fer
Ã¡ b
1 2
ĠP res
ÃŃ do
Ġv ista
Ġam or
Ġse gÃºn
Ġinter es
ad amente
Ġa ta
Ġse ctor
h a
Ġp an
Ġser ie
T o
20 20
k e
de mÃ¡s
Ġalgun a
Ġ1 4
Ġpap el
esti Ã³n
Ġl ÃŃ
m ento
Ġcon t
Ġde termin
Ġjo ven
Ġcent ro
C I
i le
Ġcu ar
T ambiÃ©n
i de
Ġdes p
Ġde mÃ¡s
Ġpueb lo
le c
Ġh u
Â °
ci miento
Ġcam ino
Ġr Ã¡p
Ġc ara
Ġju g
Ġorgan iz
Ġser ÃŃa
Ġs os
pues ta
ol Ã³g
ĠL as
Ġsegun do
ÃŃtu lo
ci r
ÃŃ amos
ĠC or
Ã¡ m
S ÃŃ
mp le
Ġo l
ris a
Ġt ri
er io
re a
w w
E R
Ġper man
Ġsitu aciÃ³n
ĠI s
ien e
Ġalgun as
Ġc ora
Ġreg res
ĠS al
Ġl l
F ue
Ġay uda
Ã ¼
Ġn acional
Ġar tÃŃculo
acion ales
ĠEuro pa
Ġcomp ar
Ġdemas iado
gu ien
1 8
g re
19 9
ivers idad
ig n
Ġmayor ÃŃa
Ġn adie
g el
qu iera
Ġeuro pe
Ġd in
Ġ1 3
Ġvol ver
olog ÃŃa
Ġcos a
h o
ci onal
Ġfin anci
ĠÃºn ico
Ġac ep
Ġp udi
Ġt Ãº
Ġcon ver
Ġtemp or
Ġdes e
ri o
ĠC am
Ġin ici
Ġproduc tos
Ġde r
Ġcuan to
Ġn orm
Ġr om
ch ar
Ġdici embre
Ġ19 6
un di
Ġdi ce
Ġg r
Ġdescu b
Ġv isto
Ġpues to
ici ones
Ã± ana
ĠR eg
Ġpes ar
Ġm Ãºs
Ġpas o
Ġr os
ti c
Ġ ub
Ã© is
Ġcontro l
Ġte le
n as
Ġrel aciÃ³n
Ġre y
u t
Ġpers onal
Ġmu chas
ĠM an
Ġtoda vÃŃa
Ġparec e
Ġvol viÃ³
Ġcomp r
Ġhac ÃŃa
r ero
Ġcu b
Ġcam bio
ech a
Ġcon stitu
Ġal rede
Ġsegu ridad
ĠCom unidad
u do
Ġlo gr
Ġ Qu
ist e
Ġpos ib
Ġsab ÃŃa
ri c
es t
Ġmu cha
Ġen fer
Ġpre par
Ġob ra
ier to
Ġpro b
Ġser Ã¡
Ġdis pon
ti dad
in ado
Ġparti r
ci to
ĠB a
Ġin dust
m il
Ġcin co
g ado
Ġal gÃºn
Ġo cas
Ã©c n
Ġ1 1
g res
Ġz ona
E N
Ġa um
Ġh oy
Ġas es
Ġmir ada
ĠY o
Ġparec ÃŃa
ĠEurope a
i an
gles ia
Ġprincip al
Â «
ing Ãºn
gra f
A n
v isiÃ³n
Ġf il
ec er
Ġmer cado
m Ã¡
Ġjun io
Ġdef in
l ica
Ġm Ã¡
h ora
ĠÃ ģ
Ġv ie
Ġce le
Ġl en
âĢĶ ,
Ġn orte
Ġg as
Ġsent ido
de ro
Ġserv icios
Ġre alidad
on do
en d
ĠC ol
ĠespaÃ± ol
Ġpr Ã¡c
i te
CE E
ab ÃŃa
Ġide a
or n
Ġa t
Ġten dr
Ġt ro
ir se
Ġdec lar
i ra
Ġmin u
iv a
2 00
Ġcon te
Ġin te
Ġinter ior
tu vo
Ġhor as
Ġj ulio
Ġpre o
Ġfuer za
Ġh ora
ĠJ os
Ġdere cho
u c
Ġub ic
Ġr ad
Ġqu erÃŃa
if ica
Ġparti cular
ac ter
Ġdifer entes
Ġma Ã±ana
Q ue
Ġcomun ic
ī l
di co
i lo
Ġbas e
ĠUn iÃ³n
i gu
r y
Ġin de
es te
Ġos cu
Ġobl ig
1 1
Ġa ire
Ġsu f
ctu bre
Ġal guien
Ġdi vers
p ir
m ar
re cciÃ³n
Ġcor respon
Ãºbl ica
Ã³ s
Ġre du
ab ilidad
qu Ã©
ĠM o
Ġsor p
r or
Ġes f
ri d
Ġper ten
Ġp in
Ġmay o
ĠD E
Ġf o
m entos
Ã© rica
x im
Ġre cur
Ġn ingÃºn
Ġpel ÃŃcu
Ġab s
Ġex ten
Ġpre v
Ġdej ar
Ġcon tr
Ġorig in
Ġv ent
Ġde bido
Ġsue lo
Ġen car
j Ã³
ĠP er
Ġne go
Ġencontr ar
Ġb ri
Ġproble mas
0 7
t om
ci Ã³
di ente
O S
ig os
tu ras
tor ia
pre gun
ĠRe p
Ġcom Ãºn
Ġcu r
Ġado p
ĠseÃ± al
Ġcab o
Ġcol or
Ġest ru
ue va
Ġprop ues
Ġcora zÃ³n
di endo
b or
Ġ uso
us iÃ³n
Ġb or
Ġra zÃ³n
ri tu
Ġpro ceso
Ġf ra
ĠV al
Ġalrede dor
Ġvar ias
Ġcomp ren
Ġproyec to
it as
ri do
Ġel eg
Ġde di
ĠN acional
Ġmar zo
Ġpro te
Ġl ar
Ġni Ã±os
ĠJu an
Ġin stitu
on g
Ã³n de
ĠE ra
Ġo ctubre
Ġen erg
t Ã¡
Ġpron to
Ġespeci al
Ġr en
pti embre
Ġmos tr
Ġmes es
C omo
Ġcon j
im ent
m ano
ĠS o
Ġningun a
Ġmir Ã³
Ġad minist
m ientos
Ġhab rÃŃa
Ġab and
Ġ19 4
ĠO r
Ġen ero
Ġint ent
Ġr ÃŃo
Ġan d
Ġsegun da
r era
ie mbre
Ġen ci
Ġcon segu
fici o
Ġt Ã©cn
Ġes os
ens o
Ġa van
A R
Ġprodu cciÃ³n
Ġpas a
k a
Ġt ec
Ġpas ar
Ġnues tros
Ġcal le
g ent
Ġd ado
Ġprop io
Ġpon er
Ġexp lic
ic amente
i ano
ĠG ran
Ġespeci e
ci s
Ġreg iÃ³n
Ġcier to
Ġsil enci
ĠM Ã©
able mente
ĠP e
Ġbu ena
Ġter ri
te c
tiv amente
al e
Ġval or
al o
es ta
Ġmil itar
L e
Ġin m
por te
cu lo
Ġdeb er
x to
ĠC an
Ġcar acter
v ar
ĠS a
ĠM ad
ÃŃ c
b as
Ġten go
Ġ3 0
Ġre al
Ġsegu ir
Ġdo min
b ra
s iones
Ġn aci
Ġcondi ciones
Ġse ptiembre
fici ente
ĠCu ando
Ġv io
is a
ĠB u
Ġanti gu
Ġda tos
Ġprop ia
ĠÃºlti ma
ĠT en
Ġmo de
Ġrec ord
Ġpro vin
O N
Ġ [
a te
Ġ2 5
Ġest oy
b ar
ter o
Ġfun cion
Ġpr ue
ĠÃ© po
Ġl im
Ġen ten
Ġac om
Ġnov iembre
Ġa gr
Ġk m
Ġel las
Ġserv icio
Ġdere chos
ĠlÃŃn ea
Ġ il
Ġal to
ĠS in
Ġdo cu
ĠB o
ĠC ent
Ġres pecto
Ġab ril
Ġli bre
re o
t s
ĠT ra
Ġ19 3
Ġfuer te
or ÃŃa
Ġinvestig aciÃ³n
Ġt Ã©r
c ent
Ġmedi ante
1 5
Ġdis pos
d on
Ġpres ente
ĠÃ¡ r
Ġprincip io
Ġf or
Ġcon ten
Ġempres as
b u
h er
Ġdin ero
iv il
Ġsal ud
de mos
tar on
Ġo cup
Ġcap ital
Ġmu s
ĠM i
ie dad
Ġhi jos
Ġse cre
Ã©r cito
ad ora
Ġa tenciÃ³n
Ġlib ro
ĠUn iversidad
Ġa z
Ġe t
A demÃ¡s
Ġpeque Ã±o
Ġlleg Ã³
Ġincl u
Ġrespon s
Ġa fec
Ġempres a
ci n
Ġs ens
A S
ĠPar lamento
l la
p ro
Ġvi ol
Ġe r
Ġcap aci
ĠT e
st as
st ante
Ġ19 5
Ġcam po
v ieron
ta c
Ġsu ce
di fic
Ġparti do
Ġtra ta
Ġen vi
Ġbu en
Ġpue do
Ġpalab ra
Ġf e
D urante
c am
ĠÃ© x
Ġprim ero
Ġc rist
ar la
Ġap ren
C Ã³mo
Ġmedi das
Ġhabit antes
A N
eg Ãºn
es a
tar io
on ia
d ado
ĠSe Ã±
Ġa segu
ÃŃ os
x ico
eb rero
ti on
ar me
Ġj ue
ĠC al
Ġdesa par
h n
Ġin stru
ci na
Ġsign ifica
ent al
Ġsu p
Ġh as
Ġ w
Des de
Ġar ti
f o
Ġcu ales
m en
Ġv ig
f i
Ġpel ig
Ġaquel los
Ġdi recciÃ³n
ÃŃ fic
Ġma teri
ie lo
Ġcu mpl
ch es
Ġform aciÃ³n
ĠÃ©po ca
Ġe jer
Ġpeque Ã±a
Ġin me
gos to
Ġcons ecu
Ġprop or
Ġcu id
Ġma ter
0 6
Ġhabit aciÃ³n
Ġal ma
Ġmunicip io
âĢ Ļ
Ġacom paÃ±
tam ento
ier ta
Ġb ol
Ġper fec
Ġp Ã¡g
Ġten ido
h i
Ġv ac
Ġbo ca
duc aciÃ³n
Ġop ort
Ġesc rib
Ġfi gu
ech os
a u
Y o
Ġbas tante
Ġaband on
Ġrecon oci
Ġ201 0
Ġaplic aciÃ³n
Des puÃ©s
ĠRep Ãºblica
1 6
Ġh ici
Ġmu es
Ġgran de
Ġproble ma
Ġpo d
1 7
Ġe m
on d
Ġver da
Ġe dad
Ġros tro
ti en
Ġd orm
orm ente
em as
tal la
Ġlen gua
Ġpar tes
Ġca pa
Ġf Ã¡
Ġin ten
Ġdes con
Ġf ebrero
p ara
Ã© l
pregun tÃ³
Ġpres idente
Ġmiemb ro
ĠpÃºbl ico
ĠD O
Ġt a
Ġhaci endo
Ġh emos
ier e
ri co
Ġsal ir
orm e
Ġp uso
Ġsi mple
d ÃŃ
Ġminu tos
Ġgol pe
iz a
Ġher mano
ist ro
Ġa v
Ġsegu ro
A r
Ġper io
e as
Ġj uego
ue lo
Ġtom ar
Ġamb os
Ġsi r
es to
Ġcon du
Ġinst al
.. ..
Ġp en
Ġima g
Ġse par
Ġenci ma
r in
l b
Ġpens ar
ĠM in
Ġc ri
Ġenf r
ten cia
2 01
Ġtec n
Ġi den
ci os
z ada
Ġf re
Ġconoci do
Ġmes a
de z
Ġdif ÃŃ
es iÃ³n
Ġ ur
Ġt am
ĠEurope o
Ġqued Ã³
1 4
Ġap re
ri endo
Est o
Ġes as
Ġal ta
Ġel em
Ġh on
Ġsi tio
Ġquier o
gr Ã¡
Ġf el
b ur
Ġa gosto
1 3
m Ã¡n
Ġrel ig
it Ã©
tar se
Ġfal ta
Ġsan gre
Ġcon ci
ĠM u
Ġpos iciÃ³n
Ġintern acional
Ġinter pre
Ġactiv idades
Ġpreo cup
Ġllam ado
Ġcal idad
k o
Ġefec to
ti ene
Ġobje tivo
Ġdest ac
Ġdej Ã³
Ġllev ar
ĠUn a
v iera
Ġcomen zÃ³
un iden
tu ro
b an
Ġconv ir
Ġas ist
Ġej ecu
Ġen seÃ±
ĠE x
ĠN a
ific aciÃ³n
teri ormente
bi os
ĠFran cia
g on
As ÃŃ
ch Ã³
om in
gu lar
Ġse is
Ġb al
Ġclas e
Ġsigu ientes
Ġse x
/ /
Ġc la
Ġgra cias
Ġan terior
Ġam igo
C om
Ġf a
Ġimp res
Ġhay a
f a
ĠIn tern
Ġneces ario
Ġcab al
ic e
Ġj ef
ĠfÃ¡ cil
ĠMÃ© xico
di miento
Ġres to
or o
Ġmov imiento
Ġau to
g Ã³
Ġb ene
Ġdo lor
i ana
Ġneces it
Ġas oci
Ġsoci edad
ĠR a
Ġestudi o
Ġprim eros
Ġv ir
k i
Ġob ras
Ġsol ici
B u
t ÃŃn
er va
Ġpu do
Ġref le
Ġ2 4
s i
lb um
l Ã¡
Ġindi vid
ĠmÃºs ica
Ġclar o
Ġhi ja
ĠG ob
ar ias
Ġcre o
Ġmedi da
Ġsilenci o
Y a
po co
Ġo per
ĠP ol
S egÃºn
Ġgu ar
e te
Ġcon ce
g er
om ÃŃa
ĠS oci
Ġte ma
Ġten ÃŃan
Ġman ten
Â ²
Ġv as
t amiento
tt p
ad res
ĠH o
Ġmedi os
ĠÃ¡ lbum
Ġmedi a
Ġcom ien
ĠpelÃŃcu la
Ġestado uniden
Ġes ca
aliz aciÃ³n
Ġm ol
: //
Ġtempor ada
ĠG ener
Ġgru pos
rib un
or k
ĠN ueva
Ġ2 2
l Ã©s
Ġesf uer
Ġam bi
Ġpas Ã³
Ġnuev os
ĠÃºn ica
Ġper ÃŃo
v ia
Ġres puesta
Ġsu ficiente
d al
Ġt el
Ġsuper ior
Ġar ro
3 0
Ġex tre
ti endo
ib les
ĠJos Ã©
t bol
d ra
Ġapoy o
Ġnuev as
de o
Ġb eb
ci den
y Ã³
Ġsuper fici
fer encia
Ġp untos
Ġcas os
eci do
d an
Ġn um
Ġcu ad
r ada
Ġdeb ÃŃa
c ÃŃa
Ġac ciÃ³n
Ġp ier
ter na
Ġg aran
Ġhom b
Ġpr Ã³
Ġso y
Ġpri v
Ġme tros
Ġprincip ales
ĠÃ©x ito
ar le
Ġsab e
ĠPres idente
Ġev itar
Ġfre cu
Ġco o
Ġesp acio
man ia
iz Ã¡
Ġmo der
Ġpol ic
teri ores
Ġcam a
ri to
T e
tro du
al u
aci l
ĠN e
Ġquier e
it ario
ĠT h
an cias
O M
Ġa trÃ¡s
man as
ier an
Ġ Ã³r
ĠJ es
Ġinter Ã©s
Ġimport antes
Ġactu al
ĠMad rid
Ġenerg ÃŃa
Ġfuer zas
Ġacer ca
Ġv esti
Ġrel acion
Ġt re
. ,
Ġman tener
Ġcaus a
Ġt ir
Ġsi quiera
Ġdeb en
o d
ran do
Ġconstru cciÃ³n
am e
z quier
Ġcr ÃŃ
A L
es o
ĠF e
Ġc ivil
D O
tur ales
Ġdel ante
Ġestudi os
Ġestru c
bl es
id amente
j ado
Ġl ig
Ġespeci almente
Ġcon cl
am eric
Ġcon tac
Ġdi ez
Ġing res
t adas
Ġ %
Ġqu iÃ©n
Ġg en
Ġt ur
ĠC E
Ġ( "
ente mente
it ado
ĠDi rec
pul ar
ci dad
ec ÃŃa
b al
am ientos
ĠY a
il las
Ġinde pen
Ġbra zos
ĠMar ÃŃa
Ġcar go
Ġpres encia
Ġco che
Ġhacer lo
de l
ĠA d
Ġdu da
rim on
e des
Ġs enci
ic al
Ġsorp ren
P ro
Ġman if
le cciÃ³n
Ġresul tado
Ġdeci siÃ³n
Ġcam p
c ando
p h
Ġcom b
ĠÃºlti mos
Ġh os
c ra
cu los
Ġcon ven
Ġf ac
Ġpro vo
Ġban da
Ã©n dose
Ġ2 3
f ac
Ġimport ancia
un ta
Ġconsi gu
Ġv an
em en
Ġah ÃŃ
âĢĿ .
Ġloc al
i res
Ġpos e
2 5
im ientos
Ġcar rera
Ġar ch
Ġam igos
ĠdifÃŃ cil
ĠÃ© ste
Ġde stru
Ġar m
Ġsu pon
ĠI I
ĠS h
c lam
Ġapro xim
Ġen ter
Ġm enci
ay a
P o
Ġhum anos
Ġrec or
Ġfu turo
Ġvuel ta
ven es
b e
Ã ĥ
Ġest ra
Ġm ente
T en
ci ales
Ġing lÃ©s
Ġse mana
l er
Ã©n do
ÃŃ fico
Ġde pen
ĠP re
y e
Ġorig en
Ġb el
Ġop in
Ġres pe
Ġneces idad
Ġde mos
Ã³ venes
0 5
Ġson risa
i amente
Ġd Ã©
Ġv ic
Ġde tal
Ġni Ã±o
Ġesc al
Ġcons erv
Ġi zquier
ar e
ĠGener al
Ġc ient
Ġre tir
cep ciÃ³n
Ġfr on
itu d
Ġactiv idad
Ġcapaci dad
ri os
En tre
Ġf irm
Ġv enta
p l
cri p
Ġen em
Ġt he
Ġg Ã©n
un do
ti tud
Ġor ient
Ġ <
Ġin trodu
Ġe vi
Ġmen or
itar ia
p ol
Ġpi el
Ġsi st
di entes
Ġentr ada
Â º
Ġf ondo
Ġet c
ĠperÃŃo do
Ġri es
Ġinform e
Ġsol u
ĠP ara
Ġprofes ional
Ġprovin cia
âĢ ľ
Ġfund am
ÃŃ ritu
Ġro de
Ã³ vil
Ġt ÃŃtulo
Ġo c
Ġconj unto
Ġcele br
Ġesp al
Ġexper iencia
Ġsol a
ac k
on e
u ales
Ġj Ã³venes
Ġve in
Ġam ena
di eron
gent ina
g ue
Ġde trÃ¡s
il es
Ġapro b
Ġmie do
Ġac ceso
le y
Ġvia je
Ġf ÃŃs
Ġquien es
c ciones
Ġf ru
ues to
ĠSan ta
le o
Ġin cor
Ġprote cciÃ³n
Ġd Ã©c
Ġmon ta
T ras
Ġp adres
Ġcan tidad
Ġten emos
f f
ues tra
uer to
Ġsent ÃŃa
Ġabs olu
Ġ2 8
it Ã³
r Ã¡n
Ġmo dific
Ġrela tiva
Ã³ l
Ġal lÃ¡
Ġcono cer
t rimon
m or
Ġambi ente
rib a
Ġvol un
Ġa di
H ay
Ġentr ar
Ġel ev
O R
j ero
Ġs om
l ado
on te
lar es
Ġdirec tor
it or
el as
Ġcre aciÃ³n
Ġestu vo
ra m
Ġdesarro ll
Ġcol abor
c aba
B A
Ġcons ul
Ġis la
Ã© tica
ul s
Ġgr ab
x imo
Ġsa tis
Ġpr ome
ÃŃst icas
Ġcap it
Ġ2 1
ti da
t ÃŃa
c Ã©s
r aba
v as
Ġenfer me
Ġrecur sos
ĠH a
Ġder ro
Ġpro teg
Ġpo demos
Ġofici al
Ġex ig
p lic
Ġpe lo
Ġdis f
v ol
2 2
Ġ2 7
Ġe ducaciÃ³n
Ġmater ia
Ġe qu
ac e
Ġn av
Ġprogra mas
Ġbus car
Ġviv ir
Ġan unci
Ġima gen
Ġmar co
E x
Ġcu estiÃ³n
Ġobje to
l las
c ados
Ġorgan izaciÃ³n
jer os
Ġpa z
ĠC rist
ier o
Ġprincip ios
ci ente
Ġap enas
ab e
Ġcom ba
n es
Ġp ien
Ġn ar
Ġl ec
I N
l in
Ġre ac
Ġlu cha
ĠSeÃ± or
ru p
p ort
ĠcompaÃ± ÃŃa
ribun al
Ġ2 6
Ġpue da
Ġla bios
Ġcapa z
cep to
ion ales
Ġest ilo
Ã¡c ter
l i
m ul
Ġej Ã©rcito
Ġblan co
om as
Ġle jos
âĢĿ ,
t ales
ad u
Ġinf lu
Ġf ab
me tros
ĠÃ¡r bol
ci da
Ġl ista
Ġresul tados
an g
qu is
ĠAle mania
Ġ201 1
Ġproyec tos
ĠGob ierno
ĠR ec
Ġrec om
ĠM undi
Ġrel aciones
Ġve lo
c ol
Ġsi mil
l io
Ġ200 0
Ġmu lti
Ġnum eros
2 3
Ġlleg ado
i ro
l y
lan d
2 4
Ġ2 9
Ġb os
in Ã³
Ġ ras
Ġedi ficio
Ġfue go
Ġpolic ÃŃa
Ġdist ancia
ĠH e
il idades
Ġol vid
Ġcar Ã¡cter
Ġar te
iv os
ĠseÃ± ora
R e
Ġexpres iÃ³n
ĠP rim
Ġpregun ta
z aba
Ġjef e
Ġter cer
Ġindust ri
Ġsoci ales
ÃŃst ica
ar Ã¡n
d ados
ww w
Ġsuperfici e
l ante
ĠA ires
Ġllev aba
z an
Ġleg is
ĠT er
ent as
ĠJo hn
ven ciÃ³n
Ġcan ciÃ³n
Ġqu in
Ġgob ern
tal ia
ĠS r
t ina
i la
Ġno ti
fici os
Ġpi es
Ġestadouniden se
ĠG ar
Ġex cl
r Ã©
c rib
ic k
Ġtam poco
Ġnues tras
Ġ< <
2 6
r ados
Ġv oy
ĠH ar
z ando
ĠP al
Ġin cre
S us
Ġm ensa
Ġm it
im en
ios o
am Ã¡s
ĠB er
P ar
" )
Ã ĵ
Ġam ar
Ġd Ã³nde
Ġempez Ã³
ĠY ork
ĠMundi al
__ __
i u
Ġt itu
Ġex ac
i el
f e
Ġ on
Ġre d
y os
Ġfran ces
Ġcon vers
Ġn acionales
Ġdo ctor
Ġ :
di os
re as
Ġesp osa
Ġliber tad
i anza
ar ca
Ġg o
Ġpregun tÃ³
Ġc ielo
Ġllam ada
Est Ã¡
ĠaÃ± ad
ĠH er
Ġfo to
ĠRe ino
Ġimp os
Ġre par
Ġver siÃ³n
Ġca teg
El la
d ar
Ġba ja
Ġt us
Ġdis par
ĠpolÃŃ tico
Ġo cul
Ġbra zo
ĠH abÃŃa
Ġhist Ã³
Ġres ist
Ġcl ub
ĠM or
Ġnom br
Ġfin ales
gen es
Ġnatural eza
ĠP la
ĠA b
t ino
is is
gu st
Ġb re
ĠpolÃŃ ticas
es tr
ĠT he
Ġsu je
l ad
ĠCar los
Ġmenci on
Ġdi c
Ġor o
Ġre almente
Ġllev Ã³
ĠA u
v os
bi to
er an
Ġdes emp
di ca
M ar
Ġv ino
Ġpermi te
Ġex am
Ġre cog
Ġf ir
ĠÃ¡ rea
H a
Ġsig ue
tr Ã³n
ti a
Ã¡ tico
Ġterri torio
E L
Ġ201 2
Ã¡ndo le
Ġal im
ri ente
graf ÃŃa
ab lo
Ġcon cent
Ġen s
Ġli mp
j ust
Ġsu st
Ġf er
Ġve h
er te
Ġne ga
Ġar reg
ib er
ĠB ol
T he
Ġmun di
tr Ã³
ĠG uerra
5 0
Ġconsegu ir
ĠAm Ã©rica
re z
P ue
Ġposib ilidad
ĠS us
Ġcu ya
ĠD er
Ġf echa
ar do
Ġpropues ta
Ġn ie
Ġcu yo
Ġcuar to
t aban
Ġde mo
Ġcon oc
2 8
ÃŃ m
En tonces
Ġt ales
n er
ĠtÃ©r m
Ġmit ad
Ġ200 8
Ġ ital
ar Ã©
Ġf an
Ġpudi era
ĠV er
tic amente
Ġpo cos
par tamento
Ġg al
c era
Ġade cu
Ġsign ific
Ġra z
Ġencuent ran
z aron
Ġp aci
Ġtrabaj ar
Ġmis mos
da p
in es
gres o
Ġdes per
Ġme z
ĠÃ īl
Ã į
Ġab ajo
ed ro
Ġf acil
Ġi glesia
ĠmÃ© to
2 7
m io
Ġar riba
Ġ200 9
u ri
ĠR os
Ġ Que
ĠCom itÃ©
Ãº tbol
ĠCom un
ĠS ol
Ġe p
Ġcent ral
ent Ã³
Ġb ur
Ġpr omo
Ġsal a
r er
Ġcar re
Ġz onas
Ġdist ribu
Ġlevan tÃ³
aci a
Ġaz ul
v iv
Ġt on
Ġdis cu
ĠR ob
I S
Ġar mas
Ġsu puesto
ĠFran cis
Ġmuer to
Ġreg ist
Ã© f
0 4
ĠgÃ©n ero
Ġfin almente
Ġtrabaj adores
Ġtrans form
Ġsent ir
Ġf ort
ios a
trimon io
Ġper der
Ġdec ÃŃa
Ġas pecto
Ġsegu ra
Ġcir c
Ġpo bre
Ġform as
Ġtrans porte
Ġas unto
til lo
Ġparti ci
Ġsal iÃ³
Ġh al
Ġd aba
s idad
Ġcontr ario
Ġe mo
c ada
ĠI glesia
Ġcomunic aciÃ³n
Ġexist e
ra g
ĠReg lamento
ĠC l
Ġpre ten
Ġ200 7
r Ã³n
pe ona
Ġcoo peraciÃ³n
Ġneg ro
Ġc el
v al
ĠTra tado
Ġlle va
Ġa dap
Ġcom e
A unque
l aciÃ³n
Ġsist emas
Ġin icia
ĠM al
l ores
e or
i es
g ada
Ġlib ros
Ġvie jo
2 1
em ente
Ġparticip aciÃ³n
2 9
ĠX V
ĠD eci
h am
Ġab riÃ³
ĠD an
Ġin fer
ĠB an
Ġdis co
Ġconver tir
i k
Ġmej ores
ĠmÃ© dico
Ã¡l isis
as a
Ġest amos
iz ar
Ġm ec
Ġrealiz ar
ur os
. )
ter ÃŃa
Ġdeb erÃŃa
Ġ201 3
in s
r us
Ġun ivers
Ġ201 4
Ġhu bi
Ġpro ces
tu s
Ġade lante
ist erio
Ġ Ã¡n
ĠLu is
Ġen can
Ġel im
Ġdes eo
ĠeconÃ³m ica
Ġp ec
Ġfran cÃ©s
Ġcon tar
ĠA hora
Ġmen udo
Ġemple o
ĠAn ton
Ġla bor
19 8
Ġhac en
Ġest Ã¡s
Ġex tran
de m
ra c
Ġesc uela
Ġ /
Ġob tener
Ġgaran ti
Ġtien es
âĢ ¢
Ġse c
Ġcar ta
il ar
Ġbri tÃ¡n
Ġinte gr
di cos
Ġpo pular
Ġdi se
0 3
Ġob stante
M i
ien cias
Ġindust ria
Ġespeci es
Ġanim ales
Ġprue ba
Ġapar tado
j ada
Ġpres u
Ġcontac to
ac to
Ġelem entos
Ġac ciones
ĠCom o
dr ÃŃa
Ġtele visiÃ³n
Ġdere cha
Ġpermi tir
D A
Ġma dera
ĠN orte
Ġayud ar
Ġma es
M u
Ġloc alidad
Ġres ta
Ġdej ado
Ġvar i
Ġfun ciÃ³n
Ã īl
ti m
Ġcon tes
Ãº a
en n
on ales
tel ig
Ġsu m
Al gun
ve la
Ġcomun idad
ec en
Ġel abor
t able
ĠI talia
di dos
Ġdisf ru
Ġc ay
Ġrecu per
ren o
Ã© g
Ġmode lo
ĠAr gentina
iden cia
Ġcomple to
Ġest im
b el
Ġrecib ir
Ġveh ÃŃcu
Ġ1 00
ĠS er
Ġimp or
Ġconvir tiÃ³
us a
Ġ Ã³
tar ÃŃa
Ġpla ta
st ico
Ġoport unidad
an e
p le
E so
Ġtom Ã³
Ġm ent
er dos
C h
y as
Ġpropor cion
Ġ Q
Ġmar cha
Ġt ono
Ã© m
Ġencontr aba
Ġp ris
Ġj ur
Ġher mana
mi go
Ġdeb ajo
Ġe res
Ġco g
ĠA ust
Ġefec tos
Ġa st
p res
di das
f Ã©
A hora
Ġba talla
ici dad
Ġdifer encia
Ġcre ar
Ġg lo
Ġhist or
Ġsi ete
T A
in ta
Ġc ort
Ġiden tific
Ġinst ante
Ġdirec tamente
Ġcons um
Ġc uel
Ġg estiÃ³n
Ġp ul
E ra
Ġau t
Ġ200 6
ĠV en
Ġtel Ã©f
Ġautor idades
Ġmues tra
Ġofre ce
Ġconoci miento
Ġres pec
Ġin ver
ĠPar ÃŃs
f t
Ġcomple tamente
Ġque da
Ġho tel
di ce
Ġdi g
Ġizquier da
Ġcol oc
Ġlugar es
Ġv in
man os
tiv idad
ec re
Ġ3 1
Ġk il
c la
ĠJes Ãºs
Ġ201 5
am b
cel ona
ĠtÃ©rm ino
ti go
Ġca er
ĠF ern
Ãĵ N
Ġciu dades
Ġrecon o
Ġproduc to
Ġg ir
ĠIn g
fic ul
u das
ĠpÃºbl ica
Ġantigu o
Ġcon cre
Ġ ÃŃn
ens iÃ³n
Ġincor por
M ientras
Ġdi ficul
Ġmateri al
ĠprÃ¡c tica
ĠO fici
Ġt ama
Ġgu ard
b il
Ġus u
Ġpeque Ã±os
Ġtrad ici
ĠS ur
Ġsu erte
R E
m ur
lo g
Ġv eci
Ġtem as
ĠM er
os iciÃ³n
Ġt ab
ond res
Ġal tura
Ġest aciÃ³n
Ġi do
Ġpreci os
Ġejer ci
Ġab rir
Ġde man
Ġre cha
Ġopin iÃ³n
Ġ5 0
Ġdeci diÃ³
ĠG re
Ġllam a
ĠrÃ¡p idamente
se o
R O
Ġo cu
Ġdesarro l
Ġespal da
ra mos
Ġorigin al
Ġescri to
Ġo cho
Ġsol dados
Ġmo tivo
ĠP edro
x ima
Ġaf irm
ci dos
v aciÃ³n
Ġjust o
v ech
Ġmon e
h u
Ġa gra
Ġcirc un
i ados
Ġexist encia
ad Ã¡
Ġrela tivo
T E
ĠEl la
i tivo
ĠEs p
Ġlar ga
Ġbu eno
cu s
qui tec
Ġac os
h an
Ġequi pos
cur so
Ġ '
Ġhon or
ĠT ribunal
di ciÃ³n
ĠB el
Ġc ine
D el
Ġocas iÃ³n
un o
Ġev alu
ĠG o
g ri
Ġo ÃŃdo
Ġsin tiÃ³
ti les
Ġpie dra
Ã©g imen
Ġdi cha
rib uy
Ġescu ch
Ġher mos
ul ar
h t
Ġcre cimiento
Ġd an
Ġcon migo
Ġpr om
Ġte xto
la ter
Ġnorm as
ĠIntern acional
Ġde dos
Ġreg iones
Ġparti dos
Ġj amÃ¡s
Ġreci biÃ³
qu ina
Ã¡ tica
Ġj ard
Ġh ier
tor ios
Ġalcan zar
ĠdÃ©c ada
Ġf ues
II I
aliz ar
v ent
ĠFrancis co
ĠT or
R eg
Ġse manas
pos iciÃ³n
ĠJ ust
ru mp
oso tros
Ġmundi al
Ġg esto
Ġti pos
Ġsegu ÃŃa
i anos
Ġdes pe
Ġn erv
ĠAs ÃŃ
Ġm ÃŃn
ĠDirec tiva
f rica
ĠIn stitu
tÃŃcu los
en es
ĠT a
Ġenten der
r ad
Ġpens Ã³
ib ilidad
Ġper iÃ³
Ġequ iv
ar o
ĠDes puÃ©s
e ja
ĠL ondres
Ġex terior
Ġcul tura
tu mb
Ġp echo
Ġb es
Ġloc ales
den tes
ĠU E
Ġenfr ent
Ġcono ce
ti z
Ġcar ne
Ġprincip almente
Ġj untos
Ġries go
m er
Ġt um
ĠÃ© sta
is mos
Ġrad io
Ġinme dia
ĠT ierra
ĠV ic
Ġsi ento
Ġagu as
ci dente
Ġest ad
Ġpla zo
ĠCh ile
Ġhum ano
Ġcab all
Ġcon den
ra cias
h ttp
ĠD av
emen ino
um en
mi te
Ġpes o
Ġconf orm
ĠUn ido
ĠA c
Ġrefer encia
. "
Ġpl ante
m bito
ol as
t y
Ġestruc tura
t antes
Ġpelig ros
ĠEst a
Ġf amos
Ġper dido
p ital
Ġco cina
Ġsu ces
ran tes
Ġt ier
Ġde por
Ġpo dido
ĠI mp
ĠP as
le x
Ġg a
ci endo
Ġin gen
Ġau tom
ĠE con
Ġ200 5
di to
w s
Ġcor rec
Ġtiemp os
Ġse an
Ġtra tar
Ġocas iones
Ġvelo cidad
el lo
Ġin con
Ġcapit Ã¡n
Ġesp ÃŃritu
Ġin telig
L A
is e
Ġacu s
Ġdemos tr
s u
iv er
Ġma tar
peona to
x ic
Ġubic ado
Ġest Ã©
Ġmom entos
Ġse lec
Ġconsi dera
Ġtraba jos
Ġcuel lo
Ġcambi os
ĠBar celona
ĠEst aba
Ġan Ã¡lisis
Ã¡m ara
ĠÃ¡ mbito
Ġfigu ra
Ġhomb ros
Ġhub o
Ġa udi
iz ado
Ġd Ã³
Ġpod ÃŃan
Ġsimple mente
R A
Ġpas os
Ġc ris
Ġmar ido
ĠtelÃ©f ono
Ġesper ar
im e
Ġaquel lo
ra el
Ġpr os
t aciones
p era
tri z
le v
tar ia
) ;
Ġe ch
Ġfi j
Ġper mit
in ada
ĠDeci siÃ³n
ĠEst e
Ġg uer
ti dos
T I
Ġen orme
Ġpreci s
ri eron
M Ã¡s
Ġtama Ã±o
y n
de raciÃ³n
Ġcont ribu
C ar
Ġsos ten
ctor es
Ġdivers os
Ġobje tivos
Ġsol amente
en da
Ġnego ci
Ġcomer cio
Ġcompe tencia
Ã³s ito
Ġindivid u
Ġmir ando
Ġcre er
Ġde ri
Ġr Ã©gimen
Ġes con
Ġj a
Ġrev el
ĠPar tido
Ġre co
Ġqu izÃ¡
ĠP ue
Ġcom ida
cul tura
Ġdest ino
Ġro pa
Ġdis pu
ĠT u
en der
Ġve ÃŃa
Ġcu esti
Ġentr en
ĠT om
k er
ĠF in
iu dad
Ġs uel
ĠJ a
Ġt esti
w n
Ġcos ta
ĠG al
Ġencuent ro
Ġconv enci
Ġplan ta
ar te
Ġab ra
Ġb Ã¡s
di c
Ġob ten
ĠR oma
ĠE j
Ġtra tamiento
ĠSe gu
Ġcontinu aciÃ³n
Ġad qui
Ġpue des
Ġf is
m ir
im ismo
Ġp un
am ento
Ġmay ores
ĠS te
Ġprop ios
Ġho gar
0 8
me j
Ġdi vi
ĠR us
rib le
Ġconsecu encia
Ġcam paÃ±a
ta gon
Ġl lor
di go
olu cion
Ġref iere
g al
Ġpre cio
id ores
ĠR es
Ġedi ciÃ³n
Ġ $
Ġanti gua
ist er
ĠD a
Ġecon omÃŃa
j u
ter as
Ġvent ana
Ġa un
Ġactu almente
ĠL uego
Ġlim it
p Ã³
tor no
Ġentr Ã³
la z
Ġcom ent
Ġde ten
Ġcier ta
ĠO l
Ġdi v
Ġinv it
Ġar quitec
Ġh all
ĠD u
til la
Ġsatis fac
Ġpodr Ã¡
Ġproce dimiento
Ġo ÃŃr
g Ã¼
Ġsens aciÃ³n
Ġdi je
C O
ador as
Ġson riÃ³
Ġprop iedad
Ġata que
Ġcan dida
Ġrep ro
tar ios
ir Ã¡
Ġt es
Ġprimer as
Ġdes can
ĠX I
L uego
Ġcompe ti
Ã ī
ĠCent ro
Ġ201 6
de res
Ġelec ciones
ĠN i
Ġcomp ro
Ġni Ã±a
Ġver ano
Ġs omb
Ġpeque Ã±as
Ġadminist ra
es per
4 0
ĠAnton io
Ġal iment
Ġal um
Ġsu stitu
Ġconten ido
Ġch ica
or den
Â ´
re mos
Ġprofes or
Ġson ido
D eb
] .
Ġimpos ible
Ġprop ie
Ġreun iÃ³n
ĠSoci al
Ġ *
Ġfab ric
di s
Ã ¶
Ġe ta
Ġtrad u
Ġtotal mente
an da
ri que
d Ã³
ul as
Ġinstitu ciones
Ã© tico
id or
Ġju gar
Ġp Ã©r
ta des
Ġma trimonio
Ġ200 4
Ġsue Ã±o
l los
Ġemp u
Ġf lu
Ġapro vech
er se
Ġb ru
Ġdi seÃ±
Ġhici eron
Ġj ud
Ġbus ca
Ġm ara
CA BA
ul l
in ados
Ġkil Ã³
k y
Ġconf lic
Ġcur so
ciden tal
Ġf lo
ĠrÃ¡p ido
Ġincluy endo
Ġm ue
Ġenferme dad
Ġcuid ado
res a
w a
ÃŃc ti
Ġide as
ues tro
Ġpregun tas
it y
am Ã¡
crip ciÃ³n
Ġconoci da
P ues
ĠH ab
Ġpartici par
ÃŃ fica
Ġ199 0
Ġg ar
s as
Est os
Ã³n ica
later ra
ĠB en
Ġdesemp e
Ġdes car
p an
Ġd ul
Ġma gn
Ġencontr Ã³
ac es
Ġcr Ã©
tin u
S on
Ġtras lad
Ġsos p
i ores
Ġdo c
i am
Ġpelig ro
Ġher manos
Ġagr ÃŃc
Ġplan tas
Ġ200 1
Ġcol o
Ġte x
Ġencontr ado
Ġb on
Ġesfuer zo
Ġar tÃŃculos
Ġdivers as
9 0
ĠA t
P er
Ġsigu iÃ³
Ã¡b amos
Ġale mÃ¡n
Ġdirig iÃ³
at amente
ÃŃst ico
Ġutiliz ar
u se
ĠeconÃ³m ico
e tas
as h
Ġvolun tad
ĠD o
ich a
Ġtom a
Ġ199 9
ĠE d
Ġesp era
Ġdi ver
Ġprue bas
Ġpa gar
Ġverda dera
cul ino
Ġintern acionales
di atamente
bur go
Ġsitu ado
Ġgust a
Ġo este
Ġdise Ã±o
Ġgra ve
Ġhum ana
ĠJ e
Ġincluy e
Ġv ÃŃcti
Ġrepres enta
Ġparec er
ÃŃfic os
st ed
Ġust edes
ĠD iv
Ġar ras
gr ÃŃa
Ġdef ensa
lo go
9 4
aliz ado
Ġmir ar
i aciÃ³n
H ab
Ġconte mp
Ġc Ã³
Ġcomer cial
Ġdifer ente
Ġs ome
Ġsal ida
R es
Ġar re
Ġaquel las
Ġesper aba
Ġcor te
Ġf Ãºtbol
b ia
Ġcompr om
Ġpo ten
olÃ³g ico
Ġv iento
Ġco lec
Ġtier ras
ĠpÃ¡g ina
Ġcris is
Ġhab itu
Ġpar ed
Ġcal or
Ġexp lo
Ġimp er
Ġcabal lo
Ġ ran
Ġneces idades
i ales
ent amente
Ġdes cri
s h
Ġdi os
Ġi gn
ĠP at
ru po
Ġhubi ese
ĠIng laterra
Ġmis iÃ³n
f irm
Ġacer cÃ³
d ores
Ġf ras
ĠX X
D E
Ġdes cen
Ġpar eciÃ³
ĠS ch
Ġw eb
Qu iÃ©n
Ġter cera
Ġme m
Ġorganiz aciones
er to
Ã¡ ticos
Ġdi bu
Ġmor ir
clam Ã³
c omo
Ġesp i
P re
i x
ĠpolÃŃ ticos
ÃŃ p
ĠC os
ien da
Ġf as
Ġapar ece
cion ales
ib lio
Ġv iene
ras il
Ġd ando
Ġ4 0
Ġpres enta
Ġcambi ar
Ġdo ble
Ġv amos
ed or
ĠRe al
ec a
i tiva
Ġdispos iciones
Ġfues e
min os
Ġdistin tos
f on
ÃŃ da
Ã©c tri
Ġ199 2
Ġpueb los
ac o
ci ona
ĠespaÃ± ola
Ġn u
Ġelec trÃ³n
Ġmem oria
Ġcateg orÃŃa
leg io
ĠR am
Ġeurope a
Ġprob ablemente
respon diÃ³
der al
ĠC iudad
o k
Ġresul ta
Ġbien es
Ġquier es
Ġl ic
Ġsur g
Ġra to
os os
ĠO b
3 5
Ġcomp on
gu as
Ġpublic ado
ĠlÃŃn eas
ĠCh ina
Ġcarre tera
Ġh echos
Ġconf irm
Ġen v
Ġpro pon
ab il
ero p
To dos
Ġf on
f ÃŃa
Ġamb as
Ġ199 4
Ġes enci
Ã¡ndo me
ig uel
ĠTen ÃŃa
ent ales
Ġestra teg
Ġpe or
pec tos
Ġestudi antes
Ġ200 2
Ġp s
Ġden sidad
f il
Ġcircun st
c rÃ¡
h ib
Ġfr ÃŃo
Ġcas as
Ġcomer ci
Ġdist rito
Ġhum an
8 8
Ġre pe
ĠF er
d ÃŃan
Ġ200 3
Ã© st
Ġba j
Ġpier nas
Ġpuer tas
ĠMar tÃŃn
Ġhab la
ĠV ir
ues tos
Ġtecn ologÃŃa
in tiÃ³
Ġin tenciÃ³n
qu ÃŃa
0 2
Ġestable cer
ĠB al
Ġconci encia
Ġvis ita
ie go
ĠBu enos
Ġt ard
Ġse de
ĠM il
ti g
ĠTo do
Ġd ur
Ġca den
D i
p al
ĠW ill
Ġciudad anos
Ġal ar
l en
un da
ab el
Ġtro pas
ĠG eor
tar a
Ġqu is
iv amente
M a
Ġdesarrol lar
Ġc Ã¡l
Ġestu viera
Ġtra taba
p es
Ġfu ente
Ġmensa je
Ġdes ign
ĠRe y
.... ....
ĠDav id
Ġexper iment
Ġsegun dos
Ġcor re
Ġaum ento
am ble
Ġpro tagon
or ado
ci pe
Ġde m
Ã¡ndo la
Ġm ÃŃo
Ġun idad
lo que
Ġa us
ĠdÃ³ lares
le ta
Ġescrib ir
Ġcaracter ÃŃsticas
ĠB e
Ġac to
Ġ199 5
ĠM ay
Ġmar ch
Ġpre fer
r ales
ĠN av
Ġcon qu
7 7
Ġcon dado
Ġ199 6
H e
g ip
9 3
Ã¡ndo lo
Ġa ver
To do
Ġdes crib
Ġde p
Ġcon stante
Ġpe dir
er t
Ġm ando
Ġle er
ĠA unque
Ġmejor ar
d Ã³n
k m
Ġter ror
ĠR u
Ġsab es
Ġo tor
Ã± ado
Ġsac erdo
ĠtÃ©r minos
Ġad j
Ġsolu ciÃ³n
Ġesper anza
u mo
O h
Ġfamil ias
Ġinfer ior
Ġg rado
Ġaproxim adamente
iemp re
ru z
ĠD el
in t
Ġapar eciÃ³
Ġvol v
Ġexist en
man es
ti eron
Ġh ue
quil ib
Ġres erv
s an
Ġca fÃ©
Ġi di
Ã¡ is
ĠPrim era
9 5
ĠC ap
ĠkilÃ³ metros
mÃ¡ genes
3 6
Ġse mej
? ?
Ġan o
Ġdici endo
s en
Ġdes n
Ġvein te
m entar
Ġdis min
Ġd ue
Ġlo g
itar ios
Ġlle ga
ĠP an
Ġtendr ÃŃa
Ġc ic
te ca
Ġ199 8
u de
Ġden om
cu erdo
den es
ĠM ag
ĠF a
Ġofici ales
Ġpodr ÃŃan
Ġsenci llo
ĠEs o
Ġre pu
Ġpuer to
ue las
Ġcan ciones
f in
Ġcor on
v ado
gu ay
ĠLe y
Ġten ga
Ġag ri
Ġv isiÃ³n
Ġa ten
Ġtor n
ĠEn tonces
ctu ras
Ġlleg ada
des car
Ġs es
Ġ199 3
ap Ã³n
mi tir
Ġexcl us
Ġre gular
Ġad ul
Ġll en
Ġnivel es
ĠT al
ech as
P E
Ġdi Ã¡
Ġm ad
Ġvis it
f re
Ġhabl ando
r arse
Ġc rim
tia go
iz ada
Ġlan z
Ġac onte
ĠÃ¡rbol es
Est as
Ġas um
Ġinflu encia
j an
Ġex cel
Ġter reno
g encia
9 2
Ġperten eci
Ġevi dente
Ġrev ista
Ġas pectos
Ġi ban
ĠS on
ĠCh ar
ĠCl ub
A h
Ġ" "
ter rÃ¡n
an ce
Ġconf ianza
Ġfamil iar
Ġp ena
Ġbri ll
il los
Ġp is
descar tado
Ġcompren der
Ġvesti do
am p
Ġconvers aciÃ³n
ÃŃn cipe
Ġmar ca
Ġus ar
r ue
Ġser Ã¡n
Ġ199 7
Ġex pe
Ġcl ientes
Ġesc la
9 6
Ġllam ar
Ġextre mo
car se
. -
Ġescu char
Ġil um
or e
de ras
Ġcal les
ie za
Ġinme diatamente
ĠM at
S o
Ġa just
T iene
Ġf ase
os as
ĠSe gun
Ġi mÃ¡genes
Ġtemp era
g ica
Ġingres os
3 3
ĠB rasil
8 0
Ġconte mpl
ol ver
r ÃŃan
Ġrecu erdo
ab as
Ġpron unci
is p
Ġver de
Ġactu alidad
Ġde ja
Ġdeci siones
Ġoper aciones
ĠN ic
Ġco ord
Ġab og
Ġf lores
Ġp iso
Ġdi m
Ġvic toria
Ġl ong
ri cas
iz Ã¡s
Ġfel iz
ÃŃs imo
Ġer ror
ĠM as
s es
S E
ĠCrist o
Ġvig il
Ġmu riÃ³
is po
Ġfrecu encia
Ġb omb
ĠO s
ĠtÃ©cn ica
Ġh ar
r ÃŃ
g ia
jer on
R I
Ġcre a
ĠPor tu
ent ado
CI ÃĵN
Ġmilitar es
Ġ za
Ġviv o
qu ia
Ġpla za
Ġ Î
l ada
ca p
olÃ³g ica
ĠI r
tor ial
pi raciÃ³n
Ġperio do
Ġpens amiento
Ġcu Ã¡n
Ġa gar
ĠI II
ing ton
Ġl Ã¡g
Ġdistin tas
il le
6 0
es tiv
8 7
Ġperio di
ĠM iguel
ĠE E
c Ã³n
Ġllev ado
Ġpens aba
b y
Ġarch ivo
Ġalgun o
Ġpas e
Ġpla cer
R ec
G racias
Ġsector es
tis mo
ĠH ol
Ġfun ciones
ran s
c Ã³mo
Ġdis puesto
Ġadminist raciÃ³n
Ġvuel to
Ġanim al
Ġaut Ã©n
Ġru ido
Ġcer eb
Ġs illa
Ġres oluciÃ³n
Bu eno
ab es
Ġfort al
an to
Ġcon cepto
m ina
Ġreci bido
Ġesp aci
ĠC lar
ti dades
Ġraz ones
Ġtre inta
ĠÃ¡ reas
Ġar gu
Ġmo tor
Ġs ÃŃn
ĠT ur
Ġlan zÃ³
Ġen cen
Ġref ug
Ġcon duc
Ġeleg ido
f orma
9 7
ues ta
ĠB ro
ĠJ ul
Ġdar le
Ġescri tor
ci mientos
Ġfin es
Ġclas es
Ġde tuvo
Ġpri ma
ĠInstitu to
Ġcol on
Ġl lu
Ġin no
L O
Ġgan Ã³
Ġno vela
F in
d y
ĠD eb
Ġcar ga
el es
l ia
Ġneces ita
r om
ĠS am
Ġ &
Ġlogr Ã³
Ġsimil ar
Ġpos teriormente
Ġcomp ort
ti sta
Ġtr Ã¡
Ġrecom end
am es
Ġf res
Ġur b
Ġinteres es
Ġcon ec
Ġeurope o
Ġas untos
ĠMan uel
Ġal quil
Ġ â
Ġa tre
or ÃŃas
Ġpue dan
Ġdocu mentos
Ġl ad
t ador
ĠmÃ¡ ximo
tes tÃ³
8 9
ĠEcon Ã³m
Ġcl Ã¡s
3 4
Ġr on
Ġverda dero
Ġcer c
Ġh el
Ġac ar
Ġselec cion
ram ient
ĠCa tal
Ġjust icia
er ador
ÃŃ ti
Ġases ina
Ġesc ena
Ġpresent Ã³
Ġe du
amble a
Ġofre cer
Ġbar rio
qu er
el os
Ġc iencia
Ġnom bres
Ġrealiz Ã³
3 1
ier tos
rim as
ĠK a
Ġgener ales
c ero
ĠB ri
T U
un g
Ġv ÃŃa
ĠRus ia
Ġagra de
Ġde partamento
z co
Ġab ierto
Ġbos que
ĠH an
ĠH ay
Ġbar co
Ġqued ado
Ġmal a
Ġco p
Ġespi ritu
ĠS ecre
Ġpersona je
Ġley es
Ġco le
Ġpr ensa
Ġenem igo
ĠH u
Ġan teriores
Ġep iso
9 1
Ġel Ã©ctri
Ġrespons abilidad
ue gos
Ġejerci cio
Ġm ic
ĠC la
Ġpres iÃ³n
T O
Ġatra ves
c aciÃ³n
Ġnorm al
Ġpro gres
Ġsu av
Ġir re
Ġmin istro
Ġentre v
Ã¡ st
Ġinter rump
Ġmanif es
Ġescri biÃ³
ĠÃ ī
Ġinf ra
Ġam eric
Ġsecre to
Ġprop ias
Ġs en
Ġcre e
is s
Ġra ÃŃ
f emenino
8 5
iÃ©n dose
Ġ199 1
ĠG rupo
Ġesfuer zos
ĠG ra
Ġtor no
gu es
Ġro jo
Ġdef ens
Ġar t
Ġden omin
Ġdescon oci
a ve
iv e
3 7
Ġmateri ales
ĠM c
Reg lamento
Ġsec und
ĠJ apÃ³n
Ġautor idad
ĠO c
der os
e go
grÃ¡ fica
Ġdistin gu
Ġcondi ciÃ³n
ĠC ab
Ġna ve
Ġvuel ve
Ġesper ando
Ġal terna
ĠCent ral
Ġbre ve
Ġemple a
an zas
8 6
Ġpres entar
P os
ĠCo pa
Ġli ter
Ġse cu
Ġviol encia
Ġdi go
Ġd ro
ĠJust icia
Ġbor de
Ġpri or
Ġdes en
Ġdi entes
Ġan ci
Ġmer can
Ġsitu ada
Ġagr ad
Ġconver tido
ĠA demÃ¡s
ĠM ac
Ġcomun itario
Ġcol um
gra ma
Ġc Ã¡n
ĠI V
Ġsal vo
ien es
b erg
Ġte orÃŃa
Ġlong itud
as o
Ġform ar
ĠcompaÃ± eros
Ġac ce
ĠÃ³r denes
) :
Ġdeb ate
Ġnega tivo
Ġen ga
Ġb en
Ġt ÃŃo
Ġextra Ã±o
Ġrealiz ado
t ente
Ġoscu ridad
ĠS Ã³lo
Ġha ga
is iones
ĠL in
ĠL A
f as
di as
Ġf lor
ĠB ur
Ġdi pu
ran o
Ġ198 9
Ġte atro
erop uerto
ĠOfici na
Ġnombr ado
Ġjur ÃŃ
Ġprecis amente
con tinu
L E
Ġfi esta
Ġhos pital
Ġcontra to
Ġcual quiera
Ġfal le
Ġindepen diente
Ġprop Ã³sito
qu ie
Ġpu bl
a j
Ġnego cios
Ġimpor ta
Ġher ramient
Ġf ar
Ã± Ã³
ĠSan tiago
ĠV ol
Ġvi deo
Ġcor riente
Ġo fer
Ġtendr Ã¡
A ctu
Ã± ar
4 5
z ados
Ġacep tar
aliz ada
ĠJ er
Ġob tuvo
Ġtradici onal
M A
Ġval ores
Ġcumpl ir
Ãºs que
Ġexac tamente
an ÃŃa
tu des
Ġrep ente
Ġar ran
el i
Ġab ierta
. Â»
Ġpers pec
Ġllam Ã³
Ġinmedia to
p ens
ĠÃģ n
g ados
Ġlogr ar
ÃŃtu los
in i
U N
omb ia
itar ias
Ġplan es
Ġser io
Ġampl ia
Ġpens ando
Ġh id
ĠM ir
ĠPa ÃŃs
Ġpas ando
Ġmis mas
i ada
Ġcomun itaria
Ġven ido
Ġc en
Ġmus ical
f es
ĠlÃ¡g rimas
v ador
0 9
C re
ier te
ĠIn ter
Ġfir me
Ġsu minist
Ġquer ido
Ġmuer tos
ĠA y
Ġcent ros
ĠpÃ¡g inas
L u
ĠR om
Ġllegar on
Ġmov imientos
cas o
P a
me tro
ĠE mp
Ġdej ando
Ġcre ado
n i
Ġse lecciÃ³n
gr ado
Ġfrances a
Ġve o
u re
Ġqued aba
Ġign or
Ġay udas
Ġincluy en
I A
Ġgas tos
Ġpropues tas
Ġdes l
Ġten iendo
ĠC re
rim iento
Ġtri un
Ã ¨
Ġfron tera
Ġba Ã±o
ci das
ĠEs c
ĠAle x
Ġsorp resa
Ġca tÃ³
S an
ĠRe v
ca dem
Ġme xic
Ġh ttp
Ġsal va
Ġjard ÃŃn
mas culino
Ġcomple ta
Ġcar b
Ġrecono cer
in al
Ġdes pa
ven ida
Ġpro tes
Ġre bel
w ard
Ġqu ÃŃm
ĠG a
ĠCon greso
ĠT ambiÃ©n
Ġr eno
ĠF o
Ġno ta
Ġelec ciÃ³n
Ġcons ist
Ġcon st
Ġcul tural
Ġdistribu ciÃ³n
âĢ ķ
cl uso
ĠNe w
Ġesc ala
Ġor gu
Ġho jas
Ġl la
Ġnue ve
l Ã³
ĠH um
ĠF u
ĠC OM
Ġdu ra
S al
Ġper ci
ĠPer Ãº
Ġcla ve
j aba
ĠSu per
Ġg ris
Ġhab rÃ¡
ĠD on
cra cia
Ġre quier
p s
Ġblan ca
Ġsobre viv
ub a
Ġmir aba
ar as
Ġcol ores
Ġblan cos
ĠDer echo
Ġobje tos
ĠÃºn icamente
Ġnaci Ã³
a ca
n y
t ÃŃ
Ġconsigu iÃ³
Ġcom and
3 2
uc le
Ġpon e
Ġju icio
Ġesca par
Ġrecord ar
Ġinf an
Ġint entar
Ġtar ea
Ġing les
Ġubic ada
c ab
ĠCon s
ĠÃģ frica
Ġtran qui
u lo
Ġnoti cias
Ġf en
Ġen tra
Ġca u
Ġac titud
tam en
Ġgan ar
Ġhomb ro
Ġv oc
Ġdetal les
Ġnumeros os
Ġofici na
Ġdi ario
Ġconoc ÃŃa
Ġcons umo
Ġda Ã±o
ig ue
t ones
Ġsent ado
ĠIs rael
Ġutiliz a
iz Ã³
in ter
Ġpersona jes
Ġsal Ã³n
ĠL i
Ġas c
Ġrespon der
Ġreg ional
Ġad ver
Ġav ent
ĠC er
Ġfon dos
Ġjue gos
Ġco ches
ier nos
ri cos
Ġpar eja
p ero
Ġman e
w are
Ġesc en
Ġtr en
C ap
Ġ201 7
Ġpo cas
v era
Ġin vers
Ġpi lo
st er
' s
Ġpe le
tien en
Ġfer ro
Ġcon vo
Ġocur re
Ġe quilib
Ġrespons able
Ġb Ãºsque
Ġsom os
h esiÃ³n
am bre
Ġeurope os
Ġredu cir
Ġcay Ã³
ĠP lan
Ġcuesti ones
Algun os
9 8
ir ÃŃa
Ġch ico
Ġ198 8
Ġse cciÃ³n
le za
Ġcam pos
Ġre ino
Ġar ma
Ġeta pa
in aba
Ar tÃŃculo
dr Ã¡
ĠH ist
iv as
Ġgust arÃŃa
ĠG er
Ġmo ver
Ġcircunst ancias
Ġtu vieron
Ġlu ch
di mientos
Ġcan al
Ġen am
Ġcomba te
Ġbus cando
ĠSan to
ir ma
Ġins pec
Ġmec an
Ġconsider ado
Ġdocu ment
e de
ic ales
ris mo
Ġas intiÃ³
ĠSegun da
as te
ĠEj Ã©rcito
ĠP u
Ç ģ
Ġexp ort
Ġoscu ro
ific ar
Ġfu entes
Ġas cen
Ġd ra
Ġins ist
Ġjug ador
Ġso f
Ġpresu puesto
Ġtermin Ã³
cul aciÃ³n
ien en
us iones
Ã© ase
Ġcomp uesto
ter io
Ġefec tu
Ġdi visiÃ³n
Ġmil es
ĠpÃ©r dida
i ares
di tos
Ġm Ã³vil
ĠMe di
ĠP ablo
Ġp rac
Ġrefle x
Ġl ech
Ġo peraciÃ³n
Ġb io
Ġmucha cha
Ġpos terior
Ġesc ol
t z
pir Ã³
Ġas ign
ĠFern ando
Ġsi mp
que te
Ġbu enas
Ġimp lic
Ġre des
Ġna turales
Ġac ord
Ġro di
Ġdis c
m es
Ġnuev amente
7 5
Ġcomer ciales
ĠCol ombia
Ġof rec
am o
o od
all er
l Ã¡n
C ada
ent ro
ien das
Ġ6 0
ĠF il
Ġca ja
Ġdorm ir
Ġll ena
Ġrespe to
Ġven ir
Ġpregun tar
Ġes pe
C U
pues tas
Ġser es
Ġam ist
ĠDiv isiÃ³n
Ġa ter
Ġdo ce
Ġnecesit aba
Ġejecu ciÃ³n
Ġll eno
et h
pues tos
l ie
Ġro b
J o
Ġimpres iÃ³n
Ġcolabor aciÃ³n
Ã ģ
Ġtem bl
Pue de
Ġcomp rar
Ġcon tiene
Ġre ina
Ġint ento
lan o
Ġmara vil
gra ciÃ³n
ĠS il
ĠJ ack
ĠmÃ©to do
Ġres tos
o p
Ġprofes ionales
k s
Ġmas a
Bu enos
Ġdocu mento
Ġgaranti zar
ĠG on
Ġre mo
Ġas ust
Ġe chÃ³
mit es
om bre
Ġin quie
tin g
Ġre gu
Ġcon ex
in ario
au gu
Ġcon tigo
Ġocur rido
Ġde v
Ġprof undi
Ġform ul
ĠDes de
Ġc iento
por tes
Ġde tec
Ġsegu ido
Ġci f
Ġ3 5
t res
Ġdescub rir
Ġresist encia
Ġcor rer
ĠS ÃŃ
Ġac e
ec ÃŃan
Ġ198 7
if orn
cu enta
Ġpens amientos
ex clamÃ³
com un
Ġdo m
Ġ198 6
Ġreconoci miento
Ġtan ta
7 0
Ġestable ce
y en
ĠÃºlti mas
ac er
Ġempez ar
ĠespaÃ±ol es
Ġar tes
Ġapre ci
Ġproteg er
Ġdispos iciÃ³n
Ġpar que
te les
Ġtermin ar
Ġh ues
Ġalim entos
Ġun idades
ĠCon stitu
Ġprodu ce
ĠpelÃŃcu las
Ġn ub
g ro
ĠbÃºsque da
Ġcul pa
Ġhacer se
Ġposib ilidades
Ġap un
ne y
Ġsig los
s us
Ġto car
plic Ã³
Ġmaes tro
ĠAl ber
am Ã©rica
Ġreci Ã©n
4 4
Ġam iga
Ġningun o
ĠIn dia
ad io
ĠB re
Ġfan tas
ĠprÃ¡c ticas
Ġe c
Ġprodu cir
ĠtÃ©cn icas
Ġcabal los
Ġocu par
ti os
Ġbol s
Ġn orma
Ġin augu
an ia
estiv al
Ġinter venciÃ³n
Ġexp an
Ġconstitu ye
Ġpar edes
" ),
Ġb iblio
7 6
Ġrec lam
j era
Ġcas tillo
ĠF lor
i di
Ġregres o
ĠIntern et
Ġju z
ĠAn d
Ġapren der
Ġre emp
ĠB lan
ida e
or ro
Ġtom ado
Ġbene fici
Ġev oluciÃ³n
Ġedi ficios
Ġap ara
Ġglo bal
Ġco in
Ġexp lor
in d
Ġindustri al
Ġpla ya
Ġag entes
Ġa pe
arro llo
Ġg eo
Ġv ÃŃ
ÃŃ tica
ĠP h
Ġestre llas
Actu almente
Ã¡n ico
ĠPortu gal
tor ias
Ġ198 0
ri da
ĠR ich
te dr
âĢ¦ ,
y s
Ġe mi
Ġcomien za
ar ra
Ġl entamente
ĠÃģn gel
Ġrespon diÃ³
ad ura
Ġmo tivos
Ġespeci ales
le z
pe Ã³n
Ġprodu jo
H asta
Ġan s
Ġso le
Ġpi diÃ³
Ġrecu er
Ġpa go
Ġgan ado
Ġgust o
ĠM os
c aron
i jo
Ġpreo cu
Ġch a
Ġen m
Ġtien da
Ġutiliz ado
Ġenf o
Ġcele b
Ġdes em
Ġdirec tiva
an es
Ġo jo
Ġal iv
Ġconstru ir
ĠMin isterio
Ġcompr ome
tran do
An tes
ĠPe ter
Ġin icio
Ġcomun es
3 8
Ġtran quil
Ġter rible
Ġpro v
ĠH en
ĠTo dos
Ġcar tas
ĠCam peonato
and ro
ez as
Ġvis itas
ar i
ĠenseÃ± anza
Ġinicia tiva
D I
Ġdeb emos
Ġcons ol
Ġpes ca
Ġhabl aba
ĠmÃ©to dos
ĠW al
ent an
ven ir
Ġconte xto
Ġsac ar
Ġoport un
Ġcon de
w e
Ġconsi de
Ġcomprom iso
U U
Ġ9 0
ĠpÃºbl icos
ĠvehÃŃcu los
Ġsu yo
Ġre m
Ġantigu os
bi ta
Ġcan s
Ġtemp lo
Ġpie zas
ol es
el er
du cciÃ³n
Ġcre ÃŃa
r eros
ĠF ue
T u
aliz a
y endo
Ġpro ve
ĠS im
Ġin teg
ĠlÃŃ der
m ada
Ġb loque
in aria
Ġh uel
ĠL iber
Ġr ue
Ġas om
Ġabsolu to
Ġpues tos
Ġcaden a
ĠB as
se lo
le t
Ġital iano
ĠUn ivers
Ãº lti
Ġbel leza
Ġl Ã³g
Ġper m
Ġcor to
U sted
Ġcub ierta
Ġcontinu ar
es en
Ġf om
Ġarreg lo
Ġpu ente
ĠPa ul
Ġcuer pos
Ġclar amente
C o
Ġv osotros
i tivos
iforn ia
Ġa vi
c Ã©
Ġvol umen
Ġimp acto
Ġacu erdos
Ġla b
Ġmer cados
Ġres erva
Ġa cog
con testÃ³
Ġr in
ĠM un
7 8
4 6
Ġrev oluciÃ³n
Ġcl ima
ĠmÃŃn imo
ill er
Ġf Ã¡b
Ġvir tud
Ġra za
ĠP r
Ġdes h
U E
Ġdes gra
Ġc enso
Ġasegu rar
Ġsu g
p uso
Ġimp on
ar t
Por que
tera tura
Ġprob able
c y
za je
Ġca Ã±
Ġplan eta
N os
Ġdescub ierto
Ġapren di
Ġsex o
Ġcu rios
ĠF re
Ġemp ren
Ġp ist
ra ciones
Ġneg ra
D Ã³nde
Ġsu ya
Ġc ÃŃr
Ġp unta
ĠC ruz
Ġa is
Ġfuer tes
Ġprof undo
Ġperfec tamente
Ġno ches
Ġc Ã¡mara
Ġpublic Ã³
Ġme dal
4 8
Ġal o
in ando
Ġgener almente
Ġalma cen
ĠI N
Ġarti stas
Ġdul ce
st os
ĠLe Ã³n
Ġa ust
Ġcontinu Ã³
ĠL or
Ġinstal aciones
ĠD omin
Ġmi ra
gar se
Ġestrateg ia
ĠB ea
ios os
Ġri t
Ġhac ÃŃan
Ġdeci dido
Ġmucha cho
Ġp ene
Ġas iento
oc k
Ġfundam ental
Ġimp uls
que ta
ĠCas a
ĠA quel
Ġcier tas
Ġsa cu
tin os
Ġtrabaj ando
Ġextra ord
Ġte j
ĠXI X
Ġnego cio
Ġcomp os
u ras
Ġemb ar
Ġv eg
Ġconsecu encias
Ġpas aba
ic es
ĠJ or
in adas
Ġregres ar
Ġis las
Ġnoti cia
ĠE r
ter os
Ġimp e
Se Ã±
Ġacos tumb
ÃŃ dos
Ġre tro
Ġcin cuenta
Ġpor tu
ĠR ÃŃo
Ġusu arios
Ġest arÃŃa
ez uela
tien de
Ġale j
Ġtempera tura
Ġfuncion amiento
Ġpan tal
Ġap res
Ġpre mio
Ġdeclar aciÃ³n
Ġvis itar
Ġcru z
Ġl in
u f
ĠV e
S Ã³lo
Ġsac ri
Ġpose e
ri go
Ġnumeros as
Ġp us
Ġ201 8
Ġreg istro
gu Ã©
Ġvie ja
ĠWill iam
un cia
eci eron
ĠâĢ ĺ
Ã ¤
Ġca tal
ĠA na
er tura
Ġparti da
tar Ã¡
Ġn ucle
C reo
form e
Ġac tos
Ġgobern ador
Ġ =
Ġviv e
Ġ198 5
Ġm ÃŃa
Ġocur riÃ³
Ġtrad iciÃ³n
log ÃŃa
Ġde vol
cadem ia
des a
ĠL iga
ĠBan co
el la
Ġacar ici
ub o
Ġcer can
Ġevalu aciÃ³n
Ġale grÃŃa
Ġbu enos
Ġg ira
Ġalcan ce
oci aciÃ³n
es tas
Ġde tener
3 9
Ġasoci aciÃ³n
Ġfuer an
Ġre lo
Ġme tal
olog ÃŃas
ĠE S
lan da
Ġcons iste
Ġsom br
Ġres id
Ġtu viera
ĠC ul
Ġle tra
Ġ8 0
le ctu
v ir
ĠComun idades
Ġconvertir se
ĠV I
Ġun if
adÃ¡ ver
ĠImp erio
Ġil ust
Ġserv ir
Ġt ÃŃp
ĠB or
g aba
Ġref orma
Â ª
Ġsu ave
to l
c ambi
Ġpr ÃŃncipe
Ãº l
Ġpublic aciÃ³n
Ġanunci Ã³
Ġ18 6
E se
Ġquis iera
Ġlegis laciÃ³n
Ġper ro
Ġproces os
ĠAs amblea
Ġpal acio
orm es
ĠtrÃ¡ fico
Ġconflic to
Ġa go
Ġsent Ã³
Ġpreci so
Ġsac Ã³
p ado
Ġpa tr
de a
Ġtra tado
Ġe uros
Ġop era
ces a
Ġpriv ado
Ġh arÃŃa
m y
e k
Ġcu ch
Ġem erg
m ado
ue vo
Ġpe ti
estr uc
Ġenem igos
Ġc adÃ¡ver
! !
ĠS erv
Ġposib les
Ã³ p
v illa
r adas
g ando
Ġtra tando
cion ar
Ġinstru mentos
Ġdi eron
Ġcomp lic
Ġexten siÃ³n
Ġexper im
Ġesp ada
Ġf ol
Ġmedi ados
Ġcamp es
Ġac on
Ġnav eg
Ġ Çģ
Ġrepresent antes
ĠseÃ±or ita
Ġab und
Ġb i
z z
Ġsomb ra
ti das
H abÃŃa
Ġacab aba
tes is
ĠA p
Ġcier tos
- .
ĠfÃŃs ica
Ġcont ribuy
Ġclas ific
ic ciÃ³n
ĠS ud
ĠN unca
à ¸
ac ÃŃfico
Ġdes pre
Ġpa isa
Ġr ab
ier tas
tu al
Ġcontro lar
Ġde mon
Ġcon tam
Ġaum entar
ĠN os
ti onal
Ġmedi cam
Ġcereb ro
iver so
c ÃŃas
Ġcl iente
ĠGon z
Ġdificul tades
Ġdu ro
ĠG ab
con firm
Ġcan tante
Ġrealiz a
tific aciÃ³n
ĠF uer
ĠK ar
Ġtan tos
- >
ĠP on
Ġqued ar
Ġen torno
ta g
Ġindi ca
Ġref orm
Ġla go
Ġimpres ion
Ġmode los
Ġvar iedad
Ġza pa
9 9
ĠCal ifornia
u p
Ġop ciÃ³n
Ġa bre
ĠGar cÃŃa
T Ãº
Ġcomien zo
ĠL ib
gu ar
Ġens ay
Ġg ig
L I
Ġtermin ado
el d
t n
Ġal cal
Ġal f
ĠA z
Ġparticip Ã³
Ġdi cen
d ul
Ġmonta Ã±a
olÃ³g icos
Ġal co
ÃŃfic as
Ġform ado
ier en
f ord
Ġest ancia
Ġa du
ĠD is
qu inas
grÃ¡ fic
Ġvig or
Ġtorn eo
Ġredu cciÃ³n
4 7
ĠlÃŃ mite
americ anos
en se
Ġespec tÃ¡
Ġform ula
ig h
Ġdi eci
Ġinv ierno
Ġpan talla
Ġpar ecido
in to
Ġman da
ĠrÃ¡p ida
Ġb rin
Ġasist encia
to do
Ġparec ÃŃan
ĠcÃ¡n cer
ĠprÃ³ ximo
Ġdesa f
ĠlÃŃ mites
t adores
Ġdirig ida
Ġ +
ĠN aciones
uy e
c ara
Ġv ul
5 5
Ġs Ã¡b
Ġesta tu
Ġre ÃŃr
Ġpol vo
Ġc it
e la
Ġcog iÃ³
Ġa Ã©
im as
Ġclar a
Ġdeman da
as iÃ³n
Ġpris ion
C lar
Ġestable cimiento
B ien
gar on
Ġg ana
Est oy
Ġfras e
Ġtor re
Ġd arse
ĠEsc uela
Ġcons ciente
Ġconsegu ido
ĠAust ral
Ġcar i
Ġrev olucion
c adas
Ġneces aria
Ġap o
Ãºm ero
vent ud
Ġsent imientos
Ġav iÃ³n
Ġo lor
Ġcomen zar
____ ____
us os
por tar
Ġhay an
ÃŃ g
Ġarti sta
ĠM ientras
Ġl una
Ġgener aciÃ³n
Ġas al
Ã¡m ica
Ġfen Ã³m
Ã¡n dez
id ar
Ġpres entes
am i
Ġpa tri
Ġdeber Ã¡
Ġplan e
r eras
Ġinver siÃ³n
Ġpo ca
l d
Ġev entos
Ġrelacion ados
% )
Ġsue le
to c
ver dad
um br
Ġdespa cho
Ġmaravil los
ĠJ ef
V I
ĠvehÃŃcu lo
er ra
D is
u x
Ġag ente
Ġan ual
Ġhub ieran
Ã¡n ica
Ġin dÃŃ
ra y
icha el
Ġdej aba
Ġb r
ad Ã©m
Ġev ento
ĠC enso
Ġo yÃ³
te o
Ġintent Ã³
Ġdi pl
A quÃŃ
Ġra zas
ĠperiÃ³ dico
Ġllu via
Ġes co
Ġdispon ibles
M an
Ã± ad
Ġdispon ible
Ã³lo go
Ġrealiz aciÃ³n
er amente
Ġcomun idades
Ġde leg
Ġvac ÃŃo
or ada
Ġc Ã¡r
ĠVen ezuela
h ol
Fin almente
Ġcon se
Ġma te
Un o
Ġedu ca
Ġreemp la
t ab
Ġcrist al
Ġs ar
Ã©ndo le
Ġatra c
Ġperteneci ente
ĉĉ ĉ
Ġval le
Ġcom is
ĠCos ta
Ġmej ora
ĠDan iel
ĠMu seo
Ġf us
segu ida
Ġun iversidad
Ġdirec ta
unci Ã³
Ġar mon
Ġal ter
Ġinte lectu
Ġar que
Ġad mi
Ġemp erador
ĠB la
i des
Ġse m
oso fÃŃa
Ġlan zado
Ġcer rÃ³
Ġhabit aciones
Ġcon taba
h al
ĠW il
Ġv idas
ĠG ol
Ġ ul
it z
l ig
ĠhistÃ³ rico
Ġa ma
Ġcu entas
aci dad
Ġcor riendo
grÃ¡ fico
Ġp Ã¡r
ĠcompaÃ± ero
ĠB ill
mÃ¡ tica
s al
r ente
Ġregres Ã³
F ran
Ġgar gan
Ġ7 0
Ġreac ciÃ³n
M E
Ġlengua je
Ġex cepciÃ³n
C OM
Ġponer se
Ġinstitu ciÃ³n
dad or
Ġmez cla
ĠIr landa
ich o
Ġcam ar
Ġen cog
Ġpues ta
Ġdecir le
Ġrelig iÃ³n
ĠJe an
ĠpÃºbl icas
ĠW in
Ġiden tidad
Ġexp osiciÃ³n
Ġin ci
T al
u ta
ĠB os
pi ro
Ġher e
ĠM el
Ġsus ur
Ġacab ar
Ġres olver
ĠJ ac
ĠCh rist
Ġapro pi
Ġps ic
ĠA cuerdo
Ġv uelo
Ġcuar enta
Ġelem ento
Ġdismin u
p r
cu la
ĠmÃ¡ xima
Ġjug adores
C a
ĠEst o
Ġcuad ro
Ġgan as
b os
ĠJ ames
ĠO ri
Ġman tuvo
S A
Ġsimil ares
d ras
Ġg lor
ri llo
it aciÃ³n
Ġso ber
Ġpresent ado
Ġhuman idad
Ġmu r
l ÃŃn
Ġob st
ĠC uba
Ġcre Ã³
gip to
om os
5 6
Ġar gent
Ġpo bres
Ġt echo
Ġdef ender
cu ra
C H
Ġdirec to
confirm ado
Ġveci nos
Ġest ados
Ġutiliz aciÃ³n
Ġre da
Ġcap ÃŃtulo
Ġcomport amiento
ĠGeor ge
Ġb ron
Ġlec tura
ĠE N
Ġampl io
z ca
Ġperman ente
Ġgust aba
Ġdu raciÃ³n
ti ble
Ġinici al
Ġm ort
ist ros
t Ãºa
Ġas ent
ĠD ar
ĠH el
b amos
Ġ 000
it h
Ġobl iga
Ġale manes
Ġintent ando
Ġpens ado
Ġbene ficios
ĠmÃ¡ quina
ĠT rans
e jas
Ġa eropuerto
di je
Ġex cep
ft ware
ĠS olo
ĠsÃŃ mb
Ġsal ido
yec to
Ġdes esper
Ġfra g
Ġmonta Ã±as
Ġplan o
Ġactu ar
Ġindepen dencia
Con s
Ġac tor
Ġen ca
e os
4 1
Ġemb ara
ĠH on
Ġhor iz
Ġinici Ã³
Ġcon ces
M I
g in
Ġcul p
Ġrela tivas
Ġp eg
Ġpas illo
Ġre quis
Ġcab ello
tus ias
Ġmercan cÃŃas
ĠN or
Ã §
Ġdi vis
Ġc ien
j Ã³n
Ġhier ro
Ġdifer encias
Ġen la
Ġdisfru tar
Ġasesina to
ĠP ens
Ġhabitu al
ĠEn rique
Ġe char
Ġpre cip
7 9
ci entos
Ġca ÃŃda
Ġre tra
Ġamena za
Ġalquil er
lÃŃ mp
tr al
ĠP uerto
Ġdes ea
Ġh em
Ġguar dia
4 2
lan tes
Ġpobre za
ĠU r
ĠcrÃŃ tica
ĠPor que
Ġper diÃ³
Ġhabl ado
Ġc ria
Ġo pon
Ġe fic
Ġproce dimientos
ed ores
Ġref or
ĠEurope as
Ġme tro
ĠEs paÃ±
ter ios
pe z
gr ad
estruc tura
ĠvÃŃcti mas
Ġen tusias
Ġparticip antes
ue los
ĠAs ia
Ġnaci miento
Ġinter cambi
Ġpreocup aciÃ³n
ĠPro vin
Ġex pon
Ġintelig encia
e y
Ġo posiciÃ³n
Ġt orm
Ġban co
is h
Ġimp ul
Ġlech e
Ġconoci mientos
Ġrit mo
Ġquin ce
Ġde do
Ġentre ga
Ġgr adu
ĠC reo
Ġsir ve
Ġnar iz
ĠT an
ide z
ĠP adre
j or
ĠUn idas
Ġidi oma
Ġac cidente
Ġh ambre
Ġhum or
uy Ã³
ĠGre cia
Ġcer em
den cias
der ÃŃa
4 3
c aban
Ġli teratura
Ġfinanci aciÃ³n
Ġp ista
v el
o t
v estig
Ġautor es
Ġrepresent aciÃ³n
Ġacu mul
Ġas i
ĠFe deral
Ġdi chos
Ġcu yos
v io
Ġm Ãºlti
cam bio
f era
Ġest ren
ĠS ara
ios as
Ġoc cidental
un es
Ġestru cturas
Ġepiso dio
ĠfÃ¡cil mente
ch i
lic os
uel to
Ġesc uelas
ĠAn dr
Ġb eso
men es
Ġdes as
Ġestudi ar
Ġpaci entes
ĠV illa
Ġabandon ar
Ġs Ã³l
til las
ĠAs ociaciÃ³n
Ġagri cultura
Ġhabl Ã³
ĠM en
Ġsemej ante
Ġpresent aciÃ³n
Ġcambi ado
Ġal tos
ĠE di
ĠA st
Ġprof unda
Ġfu i
Ġnaci do
Ġl lan
Ġextra Ã±a
Ġestable cido
Ġprodu cido
Ġgargan ta
Ġpodr Ã¡n
Ġcomand ante
- Â¿
ĠU N
g ente
ĠB ra
ĠDes arrollo
Ġat ribu
Ġpermi tiÃ³
Ġsal var
ĠV ie
Ġtan tas
Ãº me
Ġade lan
und amente
Ġfac tores
Ġqu izÃ¡s
C as
Ġac eler
ÃŃs ima
Ġbrill ante
Ġv uestra
Ġhaber se
p la
Ġsub ir
ĠE gipto
Ġsigu en
Ã³ cra
Ġaconte cimientos
Ġdeb a
Ġsupon e
Ġest arÃ¡
Ġagrad able
Ġamb ient
Ġabog ado
les c
Ġt rist
Ġcon tÃ³
Ġper f
ĠprÃ¡c ticamente
Ġapar iciÃ³n
Ġmor al
O b
aliz Ã³
di era
Ġsi mul
p in
Ġenferme dades
ĠJ im
Ġ198 4
an t
ist os
Ġmen ores
u Ã±a
Ġ3 6
g adas
Ġe cus
Ġobserv ar
Ġarch ivos
ĠcÃ³ digo
Ġsex ual
ig as
Ġconv ierte
ier es
ĠdÃ© bil
gen o
Ġfinanci era
Ġlen guas
Ġgob iernos
ci en
Ġtar je
und aciÃ³n
Ġson re
Ġh in
fer encias
s ula
ĠcrÃ© dito
Ġinform es
mur Ã³
ĠRob ert
rag Ã³n
Ġ9 2
Ġsignific ado
t Ãº
ĠL an
Ġno ble
Ġcomb ust
ĠIs abel
Ġm ister
Ġpro l
Ġdetermin ados
p les
ash ington
ust o
Ġescen ario
ĠnÃºm eros
Ġalcan zÃ³
Ġso bres
8 4
e dades
Ġreg lamento
Ġemple ados
Ã©s pe
m ios
ĠDe f
Ã© ro
Ġdescan s
ĠeconÃ³m icos
Ġequiv oc
P A
A quel
gen as
eli pe
E E
v ido
Ġde cre
ar nos
r ores
or g
re y
Ġofer ta
van gel
Ã³n imo
Ãº car
Ġar ru
ĠÃ© stos
Ġcomen zaron
Ġimp uestos
Ġad mir
Ġmo dos
americ ana
Ġesenci al
fici entes
m isiÃ³n
Ġespiritu al
ol ina
x il
Ġaus encia
Ġcompro b
ĠMon te
Ġc ena
Ġbo tel
Ãº c
gan izaciÃ³n
7 1
Ġoportun idades
S er
D os
4 9
Ġarras tr
Ġfrances es
Ġescal era
Ġmol es
Ġpe dido
ch ada
Ġneg ros
Ġin ca
t amos
Ġide al
pi dez
ru guay
Ġqu iso
Ġg em
Ġpres iden
udi cial
Ã³ ma
ĠTe le
ĠJ uegos
di ta
ĠB ern
Ġsosp ech
ĠP acÃŃfico
ĠS en
Ġmulti tud
Ġun iÃ³n
Ġelec tor
Ġcom pa
ĠSal vador
F u
Ġcon sejo
Ġco pa
Ġhistor ias
toc olo
Ġpa tio
Ġreg ionales
7 2
Ġsab emos
Ġin cen
Ġenvi ado
Ġjud ÃŃos
Ġsi ente
Ġactu aciÃ³n
Ġcoin ci
Ġeleg ir
tedr al
Ġru ta
Ġquier en
on ado
ri el
Ġdemo crÃ¡
Ġtex tos
Ġac adÃ©m
Ġllam aba
Ã³n ico
am as
ĠagrÃŃc olas
ĠV an
vi ese
Ġpro vis
Ġins pir
es ÃŃa
Ġc m
ĠmÃ© dicos
Ġh arÃ¡
ĠOr den
ic aciÃ³n
Ġar ena
Ġt ribu
Ġfamil iares
à¸ Ģ
Ġs esiÃ³n
ĠPre mio
l ing
Ġ197 0
Ġinteres ante
p lan
Ġpu de
ĠAustral ia
ĠJor ge
Ġinter ro
Ġdirig ido
v ados
Ġneces arias
Ġg or
f al
Ġh Ãºme
Ġpre ce
ĠDe partamento
da vÃŃa
em ent
ues tros
tro l
Ġcuid ados
Ġcap aces
ĠeconÃ³m icas
Ġconqu ist
g ano
Ġvein ti
A y
Ġpien sa
Ġch il
Ġ )
Ġres iden
Ġautom Ã³vil
Ġvo ces
Ġa se
Ġindi s
Ġlu char
Ġgu itar
Ġp ic
Ġen cer
Ġt aller
Ġres ca
Ġpin tura
Ġes cog
x i
ent aciÃ³n
ri es
Ġinstru mento
Ġado lesc
Ġexp los
Ġesc as
Ġin oc
Ġdese aba
Ġinterpre taciÃ³n
Ġraz on
Ġre quer
Ġinv olu
L L
Ġh isp
Ġcon ferencia
ĠY u
Ġtar eas
Ġb ril
Ġform an
Ġconsider ar
Ġsu po
cion ado
ec ciÃ³n
Est aba
Ġac aba
Ġj orn
or Ã¡n
Ġrecib e
Ġco lecciÃ³n
Ġpl en
Ġinte graciÃ³n
s in
Ġdis curso
Ġcompar tir
Ġri que
Ġcorrespon de
l ico
w ay
Ġbos ques
Ġperspec tiva
Ġestre lla
Ġconstru ido
Ġcor ta
fon so
A d
Ġigu almente
Ġlig eramente
Cap ÃŃtulo
tor a
ort un
ĠT ri
rup ciÃ³n
Ġgri ego
Ġcor reo
Ġ ~
Ġorgan ismos
or as
Ġre ales
me dio
it ales
Ġres pir
ĠM us
Ġpr Ã©st
vi amente
Ġexcel ente
Ġac lar
Est Ã¡s
N i
Ġv ag
H oy
Ġdeb ÃŃan
Ġequiv al
ĠbritÃ¡n ico
iv ia
5 2
Ġv uestro
tur almente
Ġp Ã¡
Ġinf in
tu mbre
americ ano
Ġsolici tud
tra mos
Ġmon o
Ġabs or
f os
Ġv enci
Ġfamos o
i que
vil le
Ġactu ales
Ġcient ÃŃficos
Ġale mana
Ġcu Ã¡l
Ġch o
u almente
Ġv aya
ĠcÃ¡r cel
ist en
b la
ĠA cademia
Ġt ap
8 3
Ġap ertura
Ġh ice
Ġdetermin adas
ĠE du
pa z
Ġsal e
Ġt Ãºn
Ã© ramos
Ġ198 3
Ġjue z
ĠCas tilla
c Ã¡n
CI ON
Ġpro hi
As imismo
Ġextran jero
Ġrelo j
ĠR ed
ĠFran k
ĠCan adÃ¡
Ġtri ste
Ġm amÃ¡
Ġbar cos
Ġdetermin ar
ĠprÃ³ xima
Ġg er
ĠÃº til
Ġt ÃŃa
Ġrequier e
ĠI S
Ġt ÃŃtulos
Ġal tas
Ġperfec to
Ġcoron el
w er
Ġgra tu
? ,
Ġprev isto
el adas
ĠT raba
Ġpo eta
Ġaprob aciÃ³n
Ġrev is
Ġconsigu iente
ten cias
Ġc es
Ãº p
co p
Ġprof undamente
ĠRich ard
cip l
Ġcal iente
s ie
iÃ©n do
Ã©l ulas
Ġfo tos
6 6
Ġmal o
itor io
it aba
I T
Ġp p
ĠB us
Ġsi tios
ig ht
Ġac ero
a de
r ador
Ġcos tumbre
ĠP ri
Ġclas ificaciÃ³n
Ġalum nos
Ġresta u
5 1
] ,
Ġh un
Ġdeclar Ã³
Ġm m
Ġgri to
Ġconf es
Ġl Ã¡
Ġdemo cracia
gan os
8 2
Ġperiodi sta
Ġdomin io
Ġcomp ra
Ġrecuper ar
orden adas
Ġconf i
ta Ã±a
ĠPaÃŃs es
ĠM Ã¡s
ĠL es
Ġl ados
Ġlu ces
Ġobserv Ã³
" ).
Ġmunicip al
Ġsigu iendo
fica z
ros o
Ã© ticos
Ġequilib rio
Ġtecn ologÃŃas
Ġba jÃ³
Ġvo tos
ĠAust ria
Ġtro p
O tros
V amos
iz ados
ĠEst oy
8 1
ĠÂ Ń
Ġcam peÃ³n
- -
ĠMe dio
7 3
ĠtÃ©cn ico
en das
Ġex cepto
Ġrom p
Ġprodu ctor
Ġreg las
tro p
vi Ã©tica
Ġinter cambio
Ġmon um
Ġah or
p ora
Ġe ficaz
cul tad
ĠM ur
Ġt Ã©
Ġhermos a
Ġreci ente
Ġvent anas
st o
ib e
Ġqued aron
Ġpapel es
Ġpe da
Ġn Ãºc
ĠfÃŃs ico
Ġju ris
Ġgra cia
Ġperman ecer
Ġpie dras
D ios
Ġnegoci aciones
ar iamente
al la
A b
Ġa vis
Ġc ig
Ġresul taba
man n
De bido
Ġreg lam
Ġ198 2
Ġmu Ã±
u th
Ġdios es
Ġp risa
Ġb e
Ġcap tur
s erv
Ġa ves
ÃŃ ble
U S
ci les
tad ora
ĠN uevo
7 4
ĠF elipe
M uy
Ġf lex
Ġpar ro
v ie
t Ã¡ndose
Ġfel icidad
ch er
ven ciones
5 3
Ġtom ando
Ġsu ma
ĠW ashington
ĠM is
Ġdeci dir
Ġreun iones
form aciÃ³n
ÃŃst icos
ep res
âĢĶ :
m al
Ġpu ra
Ġbols illo
Ġb ro
Ġcer rar
n al
Ġlegis la
Ġdefin iciÃ³n
ĠN eg
ĠT ar
Ġexper iencias
Ġlevan tar
Ġries gos
b it
ĠdiÃ¡ logo
j un
Ġres idencia
Ġpie za
Ġor illa
ĠSeÃ± ora
Se gu
Ġtra je
Ġap os
M o
Ġdis cre
Ġr uso
Ġco ordenadas
Ġmo di
Ġresul tÃ³
Ġno tas
Ġg e
Ġorient al
Ġad or
Ġconform idad
Ġexp lica
Ġdesarroll ado
Ġob ispo
Ġpes e
Ġtem or
de pen
ĠS ab
Ġc Ã©lulas
Ġre ca
Ġre h
ti gu
Ġmic ro
Ġlogr ado
Ġcer v
Ġapar ecer
ug h
iz an
Ãº r
Ġreg al
v ino
j andro
Ġdel ic
t te
Ġqued arse
Ġvac aciones
ĠAs untos
Ġhici era
Ġrodi llas
ĠE ducaciÃ³n
Ġdeb o
Ġma g
ern am
Ġan al
Ġac ces
Ġn aciÃ³n
iste ma
Ġpris iÃ³n
gri tÃ³
ĠagrÃŃc ola
ĠA mb
Ġten siÃ³n
Â ³
Ġso br
de os
Ġle tras
til idad
Ġman tiene
Ġest Ã³ma
Ġpers onales
Ġa den
Ġbas ado
Ġexplic ar
Ġsatis f
Ġpar eci
C or
Ġconex iÃ³n
Ġamist ad
Ġas imismo
Ġan teriormente
ĠlÃŃ qu
ĠBa jos
ĠA f
Ġlle van
ĠTen go
Ġpo deres
s er
Ġmostr Ã³
Ã¡ ticas
Cu Ã¡n
Ġprogra m
Ġe cu
Ġre tras
v ieran
Pos teriormente
ĠS iempre
Ġi leg
en ca
ĠD iego
om Ã©
V en
Ġconcl u
Ġadul tos
Ġso ftware
Ġtu ve
Ġorden Ã³
ĠConstitu ciÃ³n
m ula
Ġac triz
Ġp Ã¡l
i tivamente
Ġfacil itar
Ġver lo
ĠT Ãº
u a
Ġcomple jo
R ES
Ġmanten imiento
Ġdipl om
Ġaf irma
Ġpilo to
v emente
Ġus a
or ld
Ġsitu aciones
Ġpromo ciÃ³n
Ġacab Ã³
Ġoblig ado
terrÃ¡n eo
ĠC ivil
Ġlo co
Ġprepar ado
Ġsent imiento
ĠW h
ĠEn tre
Ġch icos
Ġcir culaciÃ³n
Ġv ÃŃas
ĠC ON
Ġre tor
Ġcam isa
graf ÃŃas
Ġminu to
lan dia
ĠSegu ridad
Ġindividu o
du ras
Ġper segu
Ġinter ac
Ġfir ma
Ġadop tar
Ġg rÃ¡
Ġtitu lar
Ġsacerdo te
g amos
Ġre cl
le ment
Ġ id
So bre
Ġfr ÃŃa
5 4
Ġsu ger
Ġcaball ero
ĠE m
Ġv istas
pon go
qu illa
Ġ5 00
ĠT ro
Ġt os
Ġpoten cial
olÃ³g icas
Ġab uela
Ġtra to
Ġnie ve
Ġparec en
Ġag res
Ġsuce dido
Ġindividu os
Ġcompro bar
Ġbron ce
Ġfigu ras
N Ãºmero
ĠV a
ĠEsp ÃŃritu
ap ones
Ġaver igu
Ġenfer m
ĠM ichael
Ġgri tos
Ġcol a
Ġparticular mente
Ġemp ieza
Ġter ra
Ġneces arios
Ã©l gica
Ġdesapar ecido
Ġperten ece
os amente
Ġmanif i
Ġaum ent
Ġf ren
Ġm ig
en za
Ġcre ciente
in am
Ġconcl usiÃ³n
Ġsuel en
Ġutiliz ando
ri dos
Ġci ta
Ġven ÃŃa
x em
Ã³ pez
Ġex ces
E D
ĠQ uer
Ġvin cul
Ġpas iÃ³n
t ano
Ġcambi Ã³
Ġconcent raciÃ³n
ĠestÃ³ma go
Ġa mo
Ġcorrespon diente
Ġser ÃŃan
Ġba jar
Ġm Ã¡r
Ġex ci
Ġv el
5 7
Ġinm ig
Ġbas ada
Ten go
Ġpriv ada
ĠseÃ±al Ã³
an s
Ġviv ÃŃa
Ġapar tamento
Ġterri torios
Ġlanz amiento
Ġab uelo
V er
Ġaprendi zaje
Ġen seguida
ĠCE E
r aron
Ġexist entes
Ġviv en
Ġperm iso
g or
Ġleg al
Ġpien so
Es a
Ġan cho
Ġrecon stru
Ġcom isiÃ³n
Ġtesti mon
Ġf emen
Ġpri vi
gue z
par te
Ġcer tific
u alidad
ĠR en
ĠH un
Ġpens Ã©
on y
ĠD ÃŃa
b us
ti di
Ġal iento
ĠE U
t le
ran a
Ġch icas
Ġcon tras
I D
Ġ197 9
T ra
5 8
Ġindivid ual
Ġpl ena
Ġrecu erdos
em e
Ġinten s
uel ta
ĠC Ã³r
ue ga
Ġtercer os
B a
Ġescri ta
Ġla ter
Ġform Ã³
Ġin com
Ġigual dad
EN TE
Ġconoci dos
Ġa j
continu aciÃ³n
ar los
ĠT im
k in
Ġho ja
Ġsab en
w ood
Ġenfo que
ĠW ar
an n
m u
Ġpre f
Ġinvestig aciones
Ġdro gas
G u
tar le
Ġcrist ianos
u os
Ġcerc ano
n Ã³
ri ck
ĠVir gen
Ġtrabaj Ã³
Ġsuper iores
Ġju ventud
Ġo dio
Ġsecre tario
Ġpromo ver
ĠD urante
Ġcul turales
ion ado
Ġaz Ãºcar
Ġsue Ã±os
Ġdetal le
P res
c tur
Ġs at
! ,
Ġescal eras
Ġun iverso
Ġpo pul
Ġfuncion arios
Ġtraba ja
Ġace ite
ĠS ta
ĠmÃºlti ples
J u
Ġmostr ar
ort h
Clar o
Ġen tero
Ġap ort
ĠEst Ã¡
Ġjug Ã³
Ġfis cal
gu lo
qu eros
ĠVal le
y an
Ġpro ven
Ġme ter
ĠRec ord
fici encia
te cciÃ³n
m is
lar on
Ġse mi
Ġhall aba
Ġde biÃ³
Ġes quina
do l
at h
Ġer rores
Ġle j
ĠGu ar
Ġperman eciÃ³
Ġrecog er
lic e
Ġi ra
Ġpl Ã¡
Ġcon cep
Ġemp e
Ġco legio
om bi
Ġdu das
b lo
cri to
ĠT am
Ġcurios idad
ing Ã¼
aliz ados
Ġin ex
Ġcomun itarias
Ġqu ie
ĠH asta
Q uer
Ġs Ãº
Ġb arro
j al
ĠA C
h ab
it es
Ġindi c
Ġconf orme
d amente
e di
Ġproce dentes
Ġrecor rido
t ent
di ll
ti tu
Ġca za
ĠK o
Ġbol sa
Ġinclu ido
Ġas omb
ĠAd minist
Ġapoy ar
Ġreci entemente
Ġllor ar
Ġ198 1
Ġcrim en
Ġv iendo
Ġh echa
Ġch ar
Ġpo tencia
il aciÃ³n
Ġbas es
V ol
l ados
ĠI b
ĠQu izÃ¡
Ġinvolu c
Ġneg Ã³
Ġconven cer
Ġlleg ando
Ġata ques
ĠSoci edad
Ġquer er
Ġcri terios
ĠraÃŃ z
ĠS ue
Ġtrans par
z adas
ac ÃŃa
rist a
Ġti ro
el le
Ġconsi go
c amente
N e
Ġperci b
c enta
le tas
ĠS E
p ren
Ġdes ay
Ġlar gas
j ando
Ġdeci de
ĠP os
Ġencontr aban
I C
ĠLe on
ĠL eg
ĠcompaÃ± ÃŃas
Ġlab ora
Ġh Ã¡
Ġab st
Ġesp oso
Ġapar ecen
Ġinclu ir
Ġlleg aba
Ġdepen de
Ġutiliz an
ĠUn o
Ġcu yas
Ġexam en
Ġestra tÃ©
ti Ã©ndose
z aban
Ġprepar aciÃ³n
Ġven der
Ġdec or
Ġpi de
Ġexper tos
Ã ł
Ġextran jeros
Ġmu tu
Ġcuan tos
5 9
Ġten dencia
Ġsegu ida
ĠU S
Ġmar gen
Ġtri pul
Ġconserv aciÃ³n
ĠS y
Ġhistor i
Ġdel an
y eron
ĠJ un
ci tos
Ã¡ lez
Ġfinanci ero
u ti
ĠL Ã³pez
Ġen viÃ³
s k
Ġpermit en
tri ces
Ġv id
Ġderro ta
ÃŃfic amente
ĠMar tin
Ġdedi cado
Ġan gust
N unca
Ġest ric
Ġinvers iones
z i
ĠO riente
Ġcic lo
Ġpresent an
or io
ÃŃ es
ĠS ub
v ada
Ġaplic ar
Ġfil osofÃŃa
Ġcorrespon den
Ġrespec tivamente
Ġdi ag
Ġres pal
Ġencar gado
Ġton eladas
Ġpeti ciÃ³n
Ġlib res
e amente
ĠC ada
Ġvol vÃŃa
Ã £
ĠelectrÃ³n ico
Ġh orm
Ġrecuer da
Ġj apones
Ġimp ro
Ġg esti
Ġin Ãº
Ġex tin
P as
is os
Ġver siones
Ġfort una
ĠD ist
Ġ om
ĠP en
Ġmo tiv
Ġdificul tad
Ġel ig
c Ãº
Ġme ta
Ġmedal la
Ġmus ul
ĠE mil
ĠJ ulio
qu en
Ġgu ÃŃa
ĠE cu
Ġviv a
Ġes cul
Ġespe jo
Ġsol dado
ci eron
O tro
ĠcÃŃr culo
Ġprima vera
Ġhor ror
er ia
Ġsatisfac ciÃ³n
Ġc lic
Ġprome dio
v Ã³
Ġa quÃ©
Ġnorm almente
ĠÂ« Â¡
Ġherramient as
Ġmone da
Ġadecu ado
Ġhacer le
A T
mit h
Ġop ciones
Ġdese os
Ġapres ur
Ġp lu
ĠEst udi
Ġrefer irse
Ġextre m
Ġsuficiente mente
ĠHist oria
Ġest Ã©n
Ġten gan
ter no
e ar
ĠVal encia
ĠA h
Ġpro hib
Ġdis cipl
ri ch
ec o
Ġsegura mente
Ġobst Ã¡
i j
Ġh ol
ĠdÃ©c adas
ĠMun icip
Ġran go
Ġhab ÃŃamos
Ġpropie dades
Ġtra tÃ³
Ġbene ficio
Ġexplo taciÃ³n
ĠespectÃ¡ culo
Ġb rus
Ġimag inar
Ġsobres al
Ġrecur so
Ġr ÃŃos
Ġrom per
C ol
Ġ ...
Ġres tri
Ġmu seo
Ġar co
ĠAl fonso
Ġcompar aciÃ³n
Ġhu mo
Ġob ede
Ã¡ ce
ĠB r
ul aciÃ³n
i ti
6 8
Ġdifer enci
Ġusu ario
Ġentrev ista
ĠAl gun
Al lÃŃ
Ġconf un
ĠO N
ens iones
Ġcoment arios
Ġases ino
ĠAl lÃŃ
Ġb ara
ĠvÃŃcti ma
A C
x imos
Ġag rup
w ell
igu iÃ³
Ġinf orma
Ġest an
ĠBer lÃŃn
Ġlla ve
ĠD r
ier nes
Ġsent encia
es tro
Ġabsolu ta
Ġincl inÃ³
f r
O r
Ġcre es
it an
Ġsuce de
f an
Ġdis cul
Ġarquitec tura
ĠLo u
un tamiento
Ġtradici onales
Ġ197 6
ĠmÃ¡ quinas
Ġren dimiento
Ġventa ja
Ġv est
Ġsub s
tiz aciÃ³n
Ġp eces
Ġgra ves
Ġpl eno
Ġab or
Ġencontr aron
Ġdeber ÃŃan
do ba
ific ado
Ġt im
Ġlabor al
Ġresta urante
ĠfÃ¡b rica
ĠF ondo
Ġcient ÃŃfico
Ġten iente
Ġprodu ctores
Ġt ol
Ġreconoci do
Ġ197 8
Ġvia jes
Ġ197 5
Ġv ieron
Ġpasa jeros
Ġcolum na
Ġper ros
N ada
A mb
ist Ã¡n
B o
Ġcontes tÃ³
ĠPol onia
tiv e
ĠPo pular
Ġcari Ã±o
r ones
ir Ã³
Ġfabric aciÃ³n
Ġh ielo
Ġconf igu
Ġvuel tas
Ã© ano
ens or
ri tos
la g
Ġcomp ens
ĠK e
Ġoblig aciÃ³n
Ġdispon e
Ġpobl acional
Ġv illa
Ġbeb Ã©
ĠS ar
a Ã±ad
Ġpar lam
Ġv es
Ġcon sta
car ril
tam entos
Ġinv esti
Ġsus pen
Ġolvid ado
ĠIn vestig
Ġrespons ables
Ġac tiva
Ġindustri ales
ĠAle jandro
Ġpos iciones
Ġcomp osiciÃ³n
h ÃŃa
Ġqued an
Ġco ger
Ġaf il
ĠM undo
Ġf le
Ġdue Ã±o
Ġbiblio teca
Ġdistin to
um e
Ġe ti
ĠaÃ±ad iÃ³
Ġus ado
Ġbor do
Ġflo ta
Ġvie jos
Ġru ral
Ġha go
N a
Ġcontemp orÃ¡n
Ġdi chas
Ġvas o
A c
Ġeurope as
Ġfinanci eros
Ġdef en
Ġam an
Ġoscu ra
ĠMin istro
Ġsal to
ĠautÃ©n tico
ĠindÃŃ genas
ri oso
Ġestable cen
ire cciÃ³n
Ġman d
Ġinvit ados
on ar
Ġmon tÃ³n
Ġcos tes
Ġimpe dir
Ġde pos
Ġ196 0
Ġcab e
Ġsolu ciones
Ġin du
av ier
Ġforma to
ĠH or
Ġinstru cciones
Ġtra er
ĠFran co
Ġentre gar
Ġlic encia
l Ã³n
Ġrela tivamente
ĠGonz Ã¡lez
Ġsoci edades
ĠH it
Ġb ras
Ġt in
ĠD os
Ġtien das
mp a
Ġfu tbol
tu vieron
Ġcivil es
Ġver la
ĠT ras
Ġban cos
ĠDO L
z e
Ġsoci o
Ġempez aron
B ar
2 000
Ġtotal idad
trÃ³ leo
ĠT ea
Ġca ÃŃdo
Ġofici nas
rist as
re plicÃ³
199 9
ĠC D
ĠMar y
Ġespal das
Ġenvi ar
Ġdes ierto
Ġclar idad
Ġ x
Ġlar gos
Ġ197 7
ĠChar les
Ġvent as
ĠTh omas
Ġexplic aciÃ³n
ĠCom is
ĠBu eno
mur murÃ³
Ġdu que
Ġcamp amento
m ala
S a
Ġinf ancia
Ġdetermin ado
Ġba jas
Ġ4 5
Ġmar ÃŃti
Ġtransform aciÃ³n
Ġre per
Ġt asa
Ġap or
ĠÃ¡n gel
ma to
âĢĵ .
tom as
Ġrecord aba
Ġveg et
ĠF estival
Ġdescub riÃ³
ĠlÃŃ deres
Ġdi gn
Ġargent ino
Ġfac tor
ĠpÃ¡ jar
Ġinter na
Ġv Ã¡l
O tra
ĠMa x
Ġcos te
6 5
Ġdist ra
Ġacce der
Ġra pidez
Ġest Ãºp
ĠFe deraciÃ³n
o ta
b ras
Ġllev aron
it ando
mÃ¡ tico
ĠL una
i mp
ri e
........ ........
Ġincre ÃŃble
Ġmoder na
Ġinca paz
Ġsol tÃ³
er ÃŃas
l ando
st an
Ġmodi fica
t ables
Ġcam inar
Ġfron teras
Ġba ilar
Ġver se
Ġsal ÃŃa
n ia
Algun as
A M
Ġro ck
ste in
Ġapar tÃ³
g es
Ġso portar
Ġron da
. âĢĿ
D on
Ġencon tramos
ĠP rin
Ġes que
Ġprovin cias
Ġpobl aciones
g reg
Ġpudi eran
Ġefic acia
Ġla ment
Ġmedicam entos
Ġcateg orÃŃas
ÃŃn a
Ġpaisa je
fa el
Ġro ja
ĠDe mo
ĠMay or
Ġres piraciÃ³n
Ġmon stru
Mu chos
Ġalcal de
Ġpon ÃŃa
l om
T h
Ġcam is
Ġay er
ur t
Ġre ti
Ġus ando
Ġnecesit an
Ãį A
ĠS ra
ĠL en
pi ra
Ġejemp los
Ġapar te
Ġpas eo
ĠAm eric
200 1
Ġap ag
Ġprofundi dad
Ġceleb raciÃ³n
ĠH al
Ġ zar
til l
ĠÂ« Â¿
Ġpre para
Ġrequis itos
Ġs eno
Ġhab rÃŃan
Ġ risa
Ġconsum idores
F A
Ġra mas
ie mb
Ġdestru cciÃ³n
Ġpro pa
Ġconsul ta
t entes
Ġdesp ren
sus ur
D eci
Ġcam inos
" "
ĠT es
Ġpaci ente
ĠP Ã©
Ġtemp rano
Ġcub ierto
Ġplata forma
ier da
Ġespaci os
Ġsegu ros
6 4
B C
el los
Ġdeber Ã¡n
Ġcl ÃŃn
ĠHen ry
ĠSe villa
Ġher ida
fec to
Ġestadouniden ses
th er
ex o
Ġmu ral
xem burgo
graf o
Ġres puestas
ĠCatal uÃ±a
Ġsuf rir
lam os
Ġexpe diciÃ³n
Ġinicia tivas
ĠPa z
cis mo
ĠF undaciÃ³n
ho w
Ġca tÃ¡
ĠXV I
c ran
ri entes
ĠCom er
Ġperfec ta
ren a
Ġor aciÃ³n
ko v
Ġba ile
Ġrealiz ada
ĠW e
Ġalo j
Ġconci er
Ġcer rado
ĠcuÃ¡n to
Ġrep ent
ĠB Ã©lgica
ent en
T ER
Ġabsolu tamente
ĠF or
Ġda Ã±os
Ġal m
Ġau xil
tr ina
Ġab ord
Ġqu itar
entar ia
J os
Ġorgan ismo
ĠDE L
rist o
Ġneces ito
bi ciÃ³n
Ġimpul so
Ġvol vieron
ĠM ed
ĠLa tina
inam arca
Ġse co
Ġqu iera
Ġnerv ios
Ġ3 00
Ġcoord inaciÃ³n
Ġadecu ada
Ġp ez
Ġmater ias
h ar
Ġestable ciÃ³
ĠC ro
ĠCon ferencia
em or
ber t
Ġencontr arse
Ġac tivo
Ġaplic aciones
m ica
Ġcompon entes
Ġpist ola
Ġretro ce
ez ca
Ġocu pa
n ie
Ġb ille
R a
Ġpopul ares
ĠB on
Ġpresu pues
Ġcub rir
ĠJ ane
ĠV as
ĠS ha
Ġmues tran
Ġdiscu siÃ³n
Ġdes f
Ġren unci
gles ias
k u
Ġsuje to
S oy
Ġcient ÃŃfica
Ġc Ã©
Ġparticular es
Ġdemostr ar
Ġ ris
Ġh Ã©ro
ar quÃŃa
Ġexp uls
Ġcir cu
Ġdirig ir
ĠXV III
c ro
il os
Ġcal ma
Ġrepresent ante
cular es
me di
Ġo di
Ġtranqui lo
Ġbeb er
Ġrecord Ã³
Ġprepar ar
rus elas
Ġpap Ã¡
SeÃ± or
Ġtrans cur
Ġcomb inaciÃ³n
Ġch oc
Ġfundam entales
Ġform al
Ġcin tura
P e
Ġno ctur
Ġadi cional
To das
dr ÃŃ
Ġper don
Ġsol ÃŃa
ĠN adie
ac as
Ġag reg
Ġgol es
ĠQu iero
âĢĵ Â¿
Ġcul tiv
ĠfenÃ³m eno
l aciones
Ġhum il
ti era
Ġre ver
ÃŃn sula
Ġcan tidades
fi eld
Ġo x
ĠÃ¡n imo
Ġata car
N aci
Ġru mb
ici as
Ġapara to
ĠU ruguay
Ġcompe tencias
Ġingen ier
Ġconcre to
Ġexplic Ã³
Ġrepro du
m ol
Ġsu ici
er ta
Ġcor tes
Ġantigu as
Ġad hesiÃ³n
ĠT re
Ġsent ÃŃ
t enta
T om
ch ado
Ġd or
Ġval e
Ġher manas
Ġcandida to
Ġcas tel
Ġofre ciÃ³
ĠacompaÃ± ado
ĠaÃ±ad ir
ĠV il
Ġllev aban
Ġtr on
ĠG il
Ġfund aciÃ³n
on ÃŃa
Ġmar cas
ĠIn cluso
Ġhac es
Ġdic tamen
Ġbo da
Ġinno vaciÃ³n
Ġtr ono
bas ti
Ġsof Ã¡
Ġ8 5
ĠF on
ĠÃ³r gano
Ġrelacion adas
w in
Ġdefin itiva
Ġdomin go
ĠS Ã©
Ġcar gos
Ġon ce
Ġdeb ut
Ġsomb ras
don os
ĠperiÃ³ dicos
Ġir ri
ĠSa int
TU LO
un ciÃ³n
Ġa ga
Ġelim inar
ĠseÃ± ales
Ġcontr ad
Ġ3 2
ĠCÃ³r doba
ĠH am
Ġunif orme
ĠcrÃ© ditos
ĠC orte
CA P
Ġ197 3
al d
Ġc ientos
aÃ±ad iÃ³
u tÃ³
Ġarti fici
Ġdescri to
an der
ĠT V
per s
ĠsÃŃn tomas
Ġcur sos
Ġofici almente
Ġl iga
Ġinstal aciÃ³n
Ġt ub
Ġcumpl imiento
Ġsir viÃ³
Ġcu mple
Ġdes cripciÃ³n
oro este
Ġinfan til
Ġf ich
drÃŃ guez
Ġsent ada
ĠT ex
Ġalco hol
ĠCh i
l le
Ġl um
mÃ¡ ticas
Ġexclus ivamente
le to
Ġtele vis
Ġital iana
Ġ umbr
ĠE u
Ġpec ado
Ġesp ero
ate mala
Ġgu i
Ġquer emos
Ġdorm itorio
Ġoblig aciones
Ġpor centa
C am
Ġn aciones
Ġinten sidad
ĠF Ãºtbol
. [
Ġce Ã±o
Ġun iÃ³
ĠP ers
Ġevi dencia
ÃŃ b
Ġelabor aciÃ³n
Ġestre cha
Ġinv ad
ar ÃŃan
Ġcele bra
M al
ĠC iencias
Ġcam peonato
Ġmedi cina
ĠT emp
Ġconduc ta
Ġsi mb
Ġpro greso
Ġadap taciÃ³n
Ġpres tig
Ġtu rismo
Ġsuce diÃ³
Ġdipu tados
Ġpe trÃ³leo
dir se
Ġcu Ã¡ndo
ĠR ic
Ġbotel la
Ã£ o
Ġar res
Ġam ante
ĠSu iza
Ġintrodu cciÃ³n
Ġorgu llos
R o
E mp
Ġsol ar
Ġal as
Ġampl iaciÃ³n
ĠCo o
Ġgir Ã³
ĠEconÃ³m ica
Ġen ormes
Ġdo l
Ġneces itar
jun tivo
el aciones
b aciÃ³n
Ġmunicip ios
ab ilidades
Ġman eras
ĠG ro
Ġcuar ta
Ġba tal
do min
Ġsuper viv
Ġf Ã³r
ven io
Ġpas aron
Ã©s ar
tar lo
ti stas
am an
ĠIn dust
Ġcaus as
199 4
Ġsub juntivo
ĠhistÃ³ rica
s ol
Ġdes c
Ġconstitu yen
Ġvo to
p ic
Ġpos teriores
Ġre cep
d in
u dos
ĠV i
Ġver te
Ġpersonal idad
A m
Ġcas Ã³
Ġpermi tido
c amiento
Ġfund ada
b ro
ab o
Ġhues os
Ġcons a
ĠMar k
ĠN ada
l uy
Ġin just
tern idad
S I
e ma
ĠE se
ĠA ri
Ġcon tado
Ġresid uos
6 7
i anas
Ġcorrespon dientes
Ġestad io
Ġimag in
Ġavan ce
Ġpro clam
il ip
Ġres i
de st
a f
ĠAr tes
Ġavi ones
H as
Ġcig ar
ri al
Ġolvid ar
ĠFern Ã¡ndez
Po co
Ġma pa
Ġpropon e
* *
Ġg ub
Ġban dera
ĠvÃŃ deo
Ġcon tener
Ġac re
bur g
in er
Ġt ru
Ġsent irse
Ġnucle ar
Ġau tÃ³n
ĠE L
DA D
Ġcre ada
Ġse l
ĠnÃºc leo
Ġpa usa
Ġale gre
Ġmu ro
Ġpudi eron
ĠD oc
Ġretir Ã³
ic aciones
Ġcontin Ãºa
Ġc lan
Ġap la
Ġm ental
Ġdesp laz
ĠPal acio
Ġte a
ĠD ra
Ġdeci s
Ġtrans mi
ĠV ar
Ġrique za
ĠJ unta
ĠC at
Ġimport aciÃ³n
Ġdesconoci do
Ġab ur
Ġescla vos
Ġter cero
ĠRev oluciÃ³n
Ġintelig ente
ĠÃ¡r abe
CA L
us al
ol d
Ġindivid uales
Ġins ul
il as
Ġso b
Ġblan cas
Ġocup ado
Ġofrec en
ĠPol ÃŃtica
ĠAlber to
Ġllam adas
Ġobs erva
Ġdesgra cia
Ġfoto grafÃŃa
ĠIs las
es as
Ġin tr
Ġen tiendo
Ġrepu blic
Ã± e
ine te
Ġcr uel
Ġv ÃŃn
Ġinter no
Ġconces iÃ³n
it s
ep h
Ġorgu llo
Ġin n
ig na
ĠcrÃŃ ticas
Ġexpan siÃ³n
Ġmoder n
Ġmensa jes
ĠEs a
Ġunivers al
ĠS t
h um
id aciÃ³n
ter ÃŃas
ri era
Ġimp lica
ĠestÃ¡ bamos
Ġne u
ĠHo tel
ĠO lÃŃmp
Ġpro cur
Ġdim ensiones
ĠW orld
Ġest aciones
Ġequi p
ag er
Ġvigil ancia
ĠDer echos
ĠÃ³r ganos
Ġf um
ĠPla za
ĠGu ad
Ġt rib
Ġhid ro
Ġpre di
Ġins ec
Ġjue ga
Ġcandida tos
Ġre don
Ġtele f
O L
ier as
Ġtempor al
l var
Ġrela to
que z
ĠC Ã¡
Ġmoder no
if f
Ġlan zar
ĠEdu ardo
tr on
Ġpa pa
ĠB ru
Ġde uda
Ġrepresent an
Ġconcl usiones
Ġcar ro
lar se
Ġorient aciÃ³n
ĠB ob
do ws
6 2
Ġac tores
Ġbar b
l ora
Ġin cu
th a
Ġsuf rido
gÃ¼ enza
Ġcon cur
Ġg ras
Ġver des
Ġand ar
Ġam able
Ġdisc rim
ĠD ec
ĠR ica
Ġcontinu a
ĠPa pa
Ġhu Ã©spe
Ġnub es
Ġprac ti
ci ta
ena je
Ġen tidades
Ġmon as
Ġve ter
br ado
Ġelev ado
all ado
Ġportu gu
Å į
Ġdedi cÃ³
ĠH os
Ġmu l
Ġmanif est
ĠC Ã¡mara
Ġdest inado
Ġpa de
Ġllam as
Ġd aban
z ones
ĠGu atemala
m us
S olo
ĠRo drÃŃguez
Ġproporcion ar
di cas
Ġin tim
ĠsÃŃmb olo
pi Ã©
Ġacer carse
Ġte la
Ġimper ial
Ġcerem onia
Ġabandon ado
po le
ĠÃ¡ mb
Ġfun ciona
Ġses enta
Ġser p
A P
Ġcu ra
Ġen tidad
Ġintelectu al
Ten ÃŃa
Ġfe deral
6 9
l aci
Ġexp ec
Ġelec tri
Ġestu vieron
ĠBre taÃ±a
Ġ197 4
Ġsu biÃ³
Ã³p tero
Ġcomun a
ĠOr ganizaciÃ³n
Ġgu a
ĠPro grama
ue ve
S iempre
Ġfi estas
ĠP ues
Ġorden ador
Ġrumb o
Ġf ama
Ġro ca
Ġg es
ĠPar que
Ġgri tÃ³
Ġrefer ente
Ġso vi
Ġdest aca
er al
Ġen vol
D o
Ġadop ciÃ³n
Ġsab ido
ĠD al
Ġemo ciÃ³n
Ġpo esÃŃa
m enta
ĠO n
t he
Ġv ay
Ġemb aj
Ġllam ados
d ones
ĠL ea
ien a
Ġindi os
Ġdesapar eciÃ³
Ġorganiz ado
Ġco cin
Ġab iertos
Ġrelacion ado
Ġ3 3
Ġpantal ones
T ienes
Ġprof un
Ġdesper tar
Ġmas cul
ĠN eces
Ġconsider aba
Ġrelig iosa
Ġv os
ĠAn tes
Ġdim ensiÃ³n
Ġexist ÃŃa
ĠPla ta
I B
Ġbar ra
ĠÃŃn dice
ĠP ra
Ġcuch illo
Ġfi ja
Ġf ib
P rim
v imos
Ġform ando
ing s
A le
tra ciÃ³n
ĠW ol
ĠlÃ³g ica
C an
ques ta
ĠS tar
Ġzapa tos
Ġmover se
Ġque m
Ġj er
Ġt era
Ġa er
ĠZ a
Ġtum ba
Ġpar ar
Ġa ra
Ġhi pÃ³
Ġex il
E A
CION ES
Ġcor por
Ġal zÃ³
Ġcar ca
ciden tes
Ġimp uesto
T er
tad ura
Ġazul es
is on
Ġfortal eza
ĠS co
Ġtab la
Ġlle gan
tr ar
Ġfra cas
Ġanci ano
Ġaudi encia
Ġmanda to
ch ez
Ġven gan
Ġdi ces
ĠMos cÃº
m Ã³s
qu ero
Ġpla to
Ġcomp uesta
Ġconvenci do
- Â¡
Ġqu it
ĠB ruselas
Ġen cam
Ġcono zco
ist iÃ³
Ġcondu cir
i i
Ġabandon Ã³
Ġcoloc Ã³
Ġtriun fo
Ġno ve
Ġdestru ir
Ġhab ido
Ġri co
6 1
ĠA D
bu lo
Ġh Ã¡b
ĠtÃ©cn icos
6 3
Ġdescan so
e e
Ġapar iencia
Ġabs ur
Ġhab ilidad
Ġcu ero
Ã¡r selo
Ġpregun tÃ©
Ġhu ir
Ġtrist eza
Ġr enta
Ġocur rir
Ġempez aba
T R
Ġl anza
Ġmo viÃ³
Ġbas a
Ġint enta
Ġentusias mo
Ġpri mo
ĠbritÃ¡n ica
ci entes
Ġcab ezas
ĠSo viÃ©tica
ĠPÃ© rez
ĠS em
om ba
ent ada
Ġinclu idos
Ġimp orte
Ġutiliz ados
Ġpre mios
ĠRam Ã³n
ĠTea tro
ici on
i adas
Ġnov ia
Ġno table
v or
Ġter res
Ġfacil idad
Ġpla tos
Ġv ib
Ġdistin ta
Ġcerv eza
ĠS abÃŃa
ĠD em
Ġinvestig adores
Ġpeligros o
Ġconside ran
H ola
Ġtarje ta
Ã± ez
Ġacab ado
ist encia
m n
Ġsust ancias
Ġen cab
ad y
ĠG as
re za
mil las
Ġbu ques
Ġdescrib e
Ġdes pi
ĠS tu
ur ÃŃa
Ġfru to
Ġmej illas
ĠSe basti
Ġeleg ante
Ġcorrec ta
Ġdi rÃŃa
Ġre pos
Ġfin g
ĠseÃ± ores
Ġpropor ciona
p us
Ġpres a
Ġrecu peraciÃ³n
Ġdif usiÃ³n
ril la
ĠF ar
Ġdest ro
l ine
Ġse llo
Ġcent ÃŃ
ĠRa fael
Ġescri torio
Ġviv ido
Ġre in
Ġbomb ar
Ġpier na
Ġen tera
Ġher ido
gust o
Ġubic aciÃ³n
Ġman ip
ĠL ar
tas e
Ġjug ando
Ġ[ [
Ġmez cl
Ġd ama
di e
Ġre ga
Ġprision eros
ci almente
un cio
Ġco ber
Ġtitu lado
ĠM ol
al ista
Ġvia jar
Ġhab Ã©is
Ġpa quete
Ġconsider able
Ġreci entes
Ġtradu cciÃ³n
Ġmecan ismo
Ġr aro
Ġvis ible
Ġimp era
Ġ197 2
Ġtranqui la
ĠC ity
Ġrev isiÃ³n
Ġcon cer
ien se
z go
en co
to Ã±o
Ġesf or
Ġp uro
Ġn or
ĠL is
dad as
Ġcoment ario
un as
Ġcampes inos
f or
Ġizquier do
ĠâĢ ķ
ĠE le
Ġreg la
Ġtempor adas
Ġban das
ĠAr te
Ġat mÃ³s
ĠJer usal
Ġpin tor
ĠSal ud
Ġenf ad
Ġdefin itivamente
Ġempres ar
Ġfund ado
Ġau ton
Ã¡ les
Ġac omo
Ġcontra tos
Ġviv os
Ġvista zo
ran cel
Ġcon curso
Ġdej aron
Ġreserv as
ĠW eb
Ġtrans misiÃ³n
ĠSecre tario
Ġingres o
Qu iero
Ġc ens
ĠcatÃ³ lica
Ġses iones
Ġcerc ana
um er
ĠMe dia
Ġcorrec to
H o
Ġbal ance
Ġm am
ĠEspaÃ± ola
Ġdemostr ado
Ġjorn ada
C al
Ġdi jeron
Ġter ren
Ġ7 5
te za
Ġin esper
h el
Ġescu do
Ġlo gra
ĠHit ler
Ġcontin ente
Ġventa jas
. âĢĶ
bil i
Ġap lica
Ġcru zar
Ġven de
gar a
Ġme mor
ec k
ĠR oy
Ġapoy Ã³
ev it
S S
esti a
Ġdig ital
Ġm ac
Ġgub ernam
Ġumbr al
Ġcos tado
n et
Ġal dea
Ġgig antes
Ġingles a
Ġencog iÃ³
Ġrom ano
Ġimp aci
Ġsegu ÃŃan
Ġavan zar
Ġla tinos
Ġpos esiÃ³n
f u
i us
Ġreg alo
Ġprofes ores
Ġherramient a
Ġl istas
Ġcas co
ĠelÃ©ctri ca
Ġviv iendo
Ġmas as
Ġdest inados
Ġconci erto
if e
ĠÃ© stas
Ġcontam inaciÃ³n
ur g
Qu ieres
Ġp ac
Ġcar reras
b ara
uy endo
ĠAt lÃ¡n
Ġaf ro
Ġal titud
Ġest ando
Ġases or
Ġsuper ar
Ġesta tal
Ġsoci os
j adas
ĠD LL
Ġobserv aciÃ³n
Ġesp an
Ġfi el
Ġmej illa
ĠProvin cia
ĠA ten
rim ir
ĠCar ibe
Ġprin cesa
ion ar
Ġar ries
ĠÃģngel es
Ġfij amente
Ġconven iente
Ġpro to
Ġescri tos
?? ??
ĠEcu ador
d am
ĠD inamarca
Ġasc enso
Ġre medio
Ġmencion ado
Ġconflic tos
ĠN uestra
Ġhermos o
Ġtorm enta
Ġestudi ante
Ġf la
Ġras gos
Ġadi cionales
- ,
Ġca tedral
Ġrab ia
ues tras
Est udi
Ã³s itos
Ġcos tumb
quis iciÃ³n
Ġter mina
n to
Ġhier ba
ros a
ĠTor re
Ġhi po
ĠG reg
v ÃŃ
Ġglor ia
tu ario
Ġcl im
Ġcomien zos
ĠS oy
Ġmo da
Ġp le
as t
Ġespec ÃŃficas
Ġcap illa
Ġcos tos
Ġcombust ible
ĠF al
Ġcomun itarios
Ġsenci lla
Ġcomerci alizaciÃ³n
Ġempez ado
Ġelector al
Ġconsider ada
on ces
Ġprovo car
Ġcaball eros
Ġcre en
Ġmone das
ĠO ro
Ġnu tri
Ġsu dor
Ġgol pes
Ġemple ado
Ġimag inaciÃ³n
an i
ĠA gu
di ciones
F I
Ġorganiz ar
Ġconsi deraciÃ³n
Ġpublic ada
E res
Ġquer ÃŃan
Ġpon iendo
Ġca z
B N
ĠSu pre
Ġdo y
Ġcompr ensiÃ³n
ĠÃģ lvar
Ġllev ando
Ġinten so
Ġal ber
Ex isten
mi ta
Ġs ill
uel ve
ĠinÃº til
Ġcu entan
uc ÃŃa
ces is
g ico
ÃŃcu lo
ĠPar ecÃŃa
Ġadop tÃ³
it ada
Ġalcan zado
Ġper fil
Ġcolo car
Ġdispos itivo
s mo
Ġse millas
Ġlo cura
Ġdestac ar
Ġcin tur
Ġrue das
Ġsu ficientes
Â ·
Ġarre p
ĠMar ina
ĠMartÃŃn ez
Ġsal ieron
ĠÃŃn ti
Ġejer cer
Ġimp erio
Ġcor ona
ĠC Ã©sar
ĠAndr Ã©s
Ġmon te
Ġm Ã¡g
Ġhor rible
ement erio
Ġem ig
Ġdi ga
Ġ195 0
ĠW a
te la
Ġac aso
Ġdeten ido
Ġexport aciÃ³n
ĠCon venio
Ġcer rada
ĠB ien
ĠT ec
k ing
Ġexam inar
Ġconoci Ã³
u ma
Ġcuad ros
Ġsorpren dido
Ġfund Ã³
G A
Ġsorpren diÃ³
Ġmill Ã³n
Ġdirig e
Ġculp able
Ġfru st
ient a
ĠTur quÃŃa
ĠVic toria
an ti
Ġo ÃŃdos
qu Ã©s
iz as
Ġmexic ano
Ġpres idencia
Ġmus icales
Ġrey es
ĠRo d
Ġment ir
Ġin evit
Ġopin iones
Ġro bo
ĠM ic
ĠR adio
Ġestruc turales
ĠOfici al
Ġllam an
Ġre lev
Ġacon se
Ġbras ile
200 2
Ġvisit antes
Ġdemon ios
Ġporcenta je
Ġcompren de
Ġentre gÃ³
ĠSo bre
Ġincon s
Ġenfer mo
Ġalterna tiva
st ica
Ġb ala
Ġasoci aciones
Ã± ada
Ġra yos
Ġsan to
ĠI ra
Ġp ru
Ġap ell
A pro
ĠM ich
Ġhi jas
pol it
Ġdis im
Ġcon mo
Ġv emos
ĠatmÃ³s fera
Ġmostr aba
ĠMar co
uer zo
Ġliber aciÃ³n
âĢ¦ ?
Ġal mas
ĠMon t
ĠS mith
ĠIn depen
iller mo
Ġma gia
ar emos
Ġv on
Ġap las
Ġsin dica
Ġretir ada
Ġsecund aria
El los
Ġdis cur
Ġ196 8
der se
Ġle ÃŃdo
olu ciones
Ġgri eg
Ġapo der
Ġ ÃŃ
Ġsombr ero
Ġfun dador
Ġtra ÃŃdo
Ġf echas
M on
Ġpor ta
Ġglo b
Ġmo d
Ġocup aciÃ³n
ĠGran de
Ġfoto grafÃŃas
ĠEs co
Ġro cas
ĠD ic
Ġnav es
ĠEs per
Ġsu yos
land Ã©s
" Â».
guar dia
i po
I V
Ġv iernes
Ġpos tura
is co
Ġguar dias
Ġcontribu ir
Ġdenom inado
jer as
Ġson riendo
Ġcaracter ÃŃstica
Ġentr ado
Ġcontribu ciÃ³n
ĠA ma
M P
ĠestÃ¡n dar
Ġredu cido
Ġfra caso
Ġg im
ĠA quÃŃ
Ġdesl iz
ĠpÃ¡r ra
Ġd ada
Ġpreten de
G ran
Ġavent ura
Ġinici ar
res iÃ³n
Ġla tÃŃn
Ġin und
v iendo
ĠCor ea
ĠS ierra
Ġdesp acio
me lo
Ġcu ento
Ġob reros
e ga
f ar
Ġmuer ta
Ġsecre tos
Ġdesp la
c Ã©n
Ġg ama
Ã© rico
Ġvo taciÃ³n
c ador
ĠC el
B I
Ġinform Ã³
Ġconstante mente
Ġre Ãºn
Ġpus ieron
Ġor g
Ãį TULO
Ġemo ciones
ĠS ac
Ġv ienen
Cu Ã¡l
Ġrom anos
Ã¡n d
iz aciones
ĠP C
cen as
Ġir se
Ġespeci fic
ues tas
Ġrespec ta
du mbre
Ġlabora torio
Ġinf ierno
ĠWin dows
Ġpoder oso
Ġte Ã³
Ġem isiones
m m
Ġmo tores
ĠB l
to logÃŃa
qu ÃŃn
Ġimp ar
ĠV iv
ĠR E
Ġ3 4
Ġde par
ĠAr m
ĠL ima
an im
Ġcas ti
x o
Ġunivers idades
Ġdesapar ecer
5 00
de la
Ġdra ma
Ġres plan
Ġleg ales
Ġcas ado
Ġmodific aciÃ³n
rue ba
Ġprivi leg
ent imiento
Ġprob ar
Ġorigin almente
Ġguar da
tion s
Ġdipu tado
Ġcuer da
Ġco tidi
ĠraÃŃ ces
Ġsuav emente
Ġindi car
ĠLu xemburgo
Ġh arÃ©
Ġrepe tir
Ġquer ida
Ġespec ÃŃficos
Ġni Ã±as
Ġde vo
Ġher idas
Ġmues tras
Ġlleg ue
Ġaliment aciÃ³n
pres iÃ³n
u to
Ġverdadera mente
1 00
Ġinv itado
Ġsignific aba
Ġneg ras
ĠA ragÃ³n
Ġpres i
Ġpas tor
i ri
ĠJef e
ific ada
ĠPue de
Ġentren amiento
Ġba jos
Ã¡m aras
Ġfil as
ter s
par se
ĠâĢ ¢
Ġsigu ieron
Ġla tino
tal in
Ġtraslad Ã³
Ġcor riÃ³
Ġdesarroll Ã³
T OS
ĠCa tÃ³
Ġper tin
Ġinv ent
201 0
Ġprodu cen
susur rÃ³
Ġsuf riÃ³
Ġviv ienda
Ġplen amente
ier re
Ġenm iendas
ĠS tre
Ġac or
Ġad vir
Ġad vers
Ġescri tura
Ġcan ales
h en
eci endo
eb ra
Ġinst antes
Ġest abilidad
N A
Ġt aba
Ġpi ra
Ġm isterio
Ġcol ombi
Ġvul ner
Ġcondu ctor
Ġt as
u k
Ġimport aciones
ĠÃ¡mb itos
Ju an
ĠseÃ± ala
Ġdeman d
s ki
Ġalrede dores
i tiÃ³
Ġ0 3
Ã¡ndo los
Ġreform as
ĠprÃ³ ximos
Ġsab or
Ġidi omas
Ġcomunic aciones
dific ado
S ol
Ġrom Ã¡n
i um
i riÃ³
Ġdo bl
Ġj udicial
Ġjef es
enn y
Ġ Ð
ĠT iene
Ġv ient
on os
p el
Ġc Ã¡p
ĠVic ente
Ġa fer
Ġautor izaciÃ³n
if a
Ġcul to
Ġsosten ible
Ġap a
Ġtendr Ã¡n
Ġen de
Ġju ven
m Ã³
Ġri cos
Ġbor ra
ĠW est
ĠAn na
Ġintrodu cir
Ġ ;
Ġamar illo
Ġmir adas
Ġtol er
ecu ciÃ³n
Ġayud Ã³
Ġin cÃ³mo
Ġn oroeste
ĠR ub
Ġentren ador
Ġpa trimonio
ab eth
Ġcostumb res
Ġprofes iÃ³n
Ġe gip
Ġadu an
ĠH ern
ĠEd ward
Ġtrabaj ado
t Ã¡l
Ġdes po
Ġproce de
ĠB ib
Ġcome tido
h at
Ġpa ta
ĠÃ ļ
Ġcul tivo
Ġimport aba
Ã³n icas
Ġin mo
Ġcomple tar
Ġperiodi stas
Ġre ba
Ġinm Ã³vil
Ġqued aban
Ġsin gular
Ġfinanci eras
Ġinici almente
Ã¡ ticamente
ĠD irecciÃ³n
Ġcha queta
Ġescrib e
Ġbienes tar
Par ti
Ġfa chada
Ġinfra estructura
uro pe
oy a
Ġestudi Ã³
H ace
ĠR ay
ri les
199 8
ÃŃs o
ĠL y
Ġdistingu ir
Ġtrans iciÃ³n
Di rec
Ġrin cÃ³n
Ġ197 1
Ġater ri
ĠJ an
Ġhab ilidades
Ġcom itÃ©
Ġdos is
Ġecon om
ad illa
Ġco br
g aciÃ³n
Ġc iencias
ĠPol ic
Ġconqu ista
tr ÃŃa
Ġestre cho
Ġcarb Ã³n
ĠTo ur
Ġver gÃ¼enza
Ġ( Â«
Ġcria tura
Ġferro carril
Ġdorm ido
Ġincre mento
Ġqu itÃ³
gu era
Ġma qu
ul os
Ġ193 6
p Ã©
Ġintent ado
Ã± aba
es tre
Ġrecono ce
Ġre ce
Ġde porte
u tas
er van
Ġdescub rimiento
Ġaliv io
es s
pon Ã©s
Ġdefin ir
Ġurb ano
Ġfamos a
Ġinno v
ĠcrÃŃ tico
Ġpermit ÃŃa
ti po
tÃ¡n eamente
ĠPres idencia
Ġnerv ioso
Ġsegu imiento
Ġhue vos
Ġmecan ismos
amb ient
ĠCo legio
ĠM y
Ġmar char
Ġidentific ar
Ġdis puesta
Ġcif ras
Ã¡n s
Ġcas tigo
r aban
ĠGab riel
Ġo toÃ±o
ĠAd ri
Ġcons erva
Ġsat Ã©l
Ġcop ias
Ġgr ados
Ġ3 8
mon d
Ġ3 7
Ġcent en
Ġpublic aciones
ĠInvestig aciÃ³n
Ġlu jo
Ã¡n chez
ĠDirec tor
Ġinclu ida
Ġtal ento
Ġgaran tÃŃa
Ġman io
Ġform ada
Ġoc Ã©ano
Ġe go
Ġindepen dientes
ĠbritÃ¡n icos
V al
Ġconvers aciones
der Ã¡
ch el
Ġal ianza
Ġex ce
Ġameric ano
Ġasist ir
ĠB ay
Ġsuminist ro
D entro
Ġconf usiÃ³n
c lar
Ġl isto
Ġprogram aciÃ³n
ĠIn forme
Ġsab ÃŃan
Ġrev istas
Ġmu ros
Ġapre tÃ³
Ġper j
Ġpubl icidad
Ġviv iÃ³
Ġdivers idad
t ÃŃas
% .
Ġferro vi
eg r
Ġcomba tir
Ġdeclar aciones
Ġenfr entar
Ġflu jo
Ġdis cos
Ġpa trÃ³n
Ġsol os
Ġ196 9
Ġ 01
ĠBol ivia
] ]
Ð °
Ġtrabaj aba
C er
A caso
Ġdes vi
ĠEx teriores
Ġirre gular
Ten emos
Ġquin to
Ġinv asiÃ³n
Ġagu ard
Ġencab ez
Ġcons igue
S abes
Ġintent aba
Ã© p
Ġdi Ã³
Ġcole gas
Ġguer ras
vi ta
v ida
Ġest all
Ġposible mente
Ġsal v
Ġtum b
ĠlÃ¡ mp
Ġna tal
Ġtrans port
Ġtrans portes
Ġacep tÃ³
Ġder rib
Ġinf ec
O tras
Ġdesa grad
Ġadi vin
Ġparti d
Ġprovis ional
vangel io
Ġin tu
Ġvient re
epres idente
Ġdiscu tir
Ġto cÃ³
m s
Ġpreci siÃ³n
zo b
Ġa fici
ĠComer cio
Ġhab iendo
Ġprev ia
Ġc Ã³m
ĠAdminist raciÃ³n
Ġingles es
Ġcen ar
P ol
Ġag re
H er
ch t
Ã ¢
Ġal iados
ust a
t ÃŃan
Ġconcier tos
Ġfutbol ista
Ġtrabaj an
O s
Ġrefug io
ĠP ie
Ġa rancel
Ġreun ir
ĠR osa
ĠDomin go
al ismo
Ġedi fic
ll er
D a
Ġc iÃ³n
ĠCar men
ĠV in
Ġsupon go
ĠseÃ±al ar
p ia
ĠE dad
Ġfab ri
Ġhisp anos
c ales
Ġlig ero
Ġaprob Ã³
ĠdifÃŃ ciles
Ġarre ba
Ġpar cial
Ġdesign ado
Ġcolum nas
Ġsacerdo tes
adu ras
ĠA R
Ġp ico
Ġtam b
Ġme tiÃ³
v Ã¡
Ġapren dido
Ġcelebr Ã³
ĠR um
ĠI l
Ġcu br
Ġch ino
or y
L le
ol Ã¡s
tar me
t anos
ĠGran ada
Ġcomp u
Ã³lo gos
Ġmu ch
ĠlÃŃqu ido
Ġb asta
Ġra ma
Ġcin ta
Ġrela tivos
Ġhom enaje
Ġdes es
ĠAd am
ma il
Ġcam bia
Ġ194 5
Ġver ti
Ġespec ÃŃfico
ĠdiseÃ± ado
Ġmanten ÃŃa
Ġin cur
Ġle ve
Ġt ribunal
Ġmar chÃ³
aliz adas
ip s
Ġinform aciones
Ġfas cin
Ġdisc ÃŃ
Ġreconoci Ã³
Ġequival ente
ĠS ala
Ġcuan tas
Ġrealiz ados
I s
en zo
Ġcan tar
Ġes encia
Ġcop ia
Ġdestac an
Ġsi mpl
Ġhos p
Ġestre ch
v enci
Ġse pul
ĠmÃºs culos
Ġbu que
Ġafirm Ã³
d remos
ĠsÃ¡b ado
Ġb ici
ĠS p
Ġinteres ado
Ġdetermin aciÃ³n
? Â».
ĠL lev
Ġrecon oc
crip ciones
h is
ob o
Ġr osa
le do
201 1
Ġle al
Ġpen diente
Ġrespir ar
Ġva por
ĠSuper ior
Ġcrist iana
ce d
ec on
ĠC O
Ġper pe
Ġse g
Ġsol as
Ġv ital
ht m
Ġun e
Ġvent an
ĠE ran
Mu chas
ĠJerusal Ã©n
Ġse min
Ġesc enas
g ol
paÃ± ÃŃa
a par
Ġa mp
il an
Ġcre y
Ġimp lement
Ġra cional
Ġadqui rir
Ĥ ¬
Ġ194 0
Ġop tim
ĠXV II
ĠM ario
Ġdesarro lla
Ġmin istros
Ġexpres ar
den al
ĠclÃ¡s ico
ĠN orm
Ġarquitec to
Ġelectri cidad
Ġ4 00
Ġcontemp lar
ĠEconÃ³m ico
ĠA ir
. /
Ġes pon
Ġpar o
ara gua
Ġesc ar
Ġcab ec
Est amos
ĠDe por
L es
Ġcapaci dades
Ġre le
Ġrelig ioso
Ġedi tor
Ġab rigo
Ġde du
Ġdis puestos
Ã© ticas
Ġpi ano
Ġases inado
Ġla t
Ġcre cer
Ġcif ra
Ġre cepciÃ³n
Ġca e
Ġimp re
Ġinspec tor
ch en
Ġhoriz onte
Ġfom entar
CAP ÃįTULO
ĠMe tro
Ġ ?
Ġjug ue
Ġadop tado
Ġdedi cada
Ġhal la
o tas
Ġconsul tar
Ġobten ido
R eci
h or
di mos
Ġse da
b ablemente
Ġen ro
Ġac tivos
Ġl ento
Ġcier re
Ġgrab aciÃ³n
Ġsepar aciÃ³n
ĠTraba jo
ĠAn ti
Ġprotagon ista
Ġagu an
. :
Ġhac emos
Ġcompeti ciÃ³n
v Ã¡n
Ġencontr Ã©
Ġas pir
Ġcintur Ã³n
Ã¡m enes
Ġenam or
g ento
ĠLu cas
Ġo ch
ĠAn dal
amil ia
Ġale gr
Es paÃ±a
Ġl unes
d re
N eces
gr ada
Ġal tar
Ġdeb es
Ġal a
ĠServ icio
Ġan f
j arse
Ġtra yec
Ġf icciÃ³n
lic as
enci ado
Ġsaber lo
Ġne gar
ĠT el
ĠR iv
" ;
U C
ĠB ul
Ġlo ca
Ġconten idos
Ġex tiende
ĠC uer
Ġgrave dad
tar ias
ic s
Ġprovo cÃ³
Ġescol ar
i ja
ĠA ra
Ġsent arse
Ġmaes tros
s ion
ĠÃ ĵ
lan a
Ġcelebr ar
ier tamente
ĠPro fes
Ġsuf rimiento
b lar
omb ra
iz os
Ġdar me
Ġtrans ferencia
Ġof ens
j i
Ġinterrump iÃ³
Ġdeclar ado
ig an
Ã©ndo lo
ĠR ico
Ġdign idad
ĠMedi terrÃ¡neo
ĠÃºn icos
ĠM Ã¡
Ġe co
Ġampl iamente
ĠEs peci
Ã³ so
Ġden unci
Ġmil las
ac ciÃ³n
ÃŃ genes
Ġdiscipl ina
Ġmodific aciones
ĠPres iden
ti er
Ġobserv aciones
Ġexist ente
Ġ >
Ġpropie tario
ĠS Ã¡nchez
ĠLib ro
Ġpas ada
ga z
Ġaproxim aciÃ³n
leg Ã³
ĠprÃ©st amos
Ġpas an
Ġaprob ado
Ġcal cul
Ġrealiz an
uer ta
Ġsorpren dente
Ġeta pas
pen as
s ul
Ġdenom inaciÃ³n
Ġnov elas
Ġinfer iores
ĠPar k
Ġconstru ida
Ġemerg encia
Ġimpera tivo
Ġdi era
all y
Ġmonas terio
ĠPue blo
Ġconstru yÃ³
Ġ196 7
ĠNa tural
Ġorigin ales
ĠRic ardo
ec as
Ġcas arse
ĠGu illermo
Ġcent rales
Ġri d
g Ã©n
Ġfirm Ã³
Ġigu ales
Ġtra mo
ĠCul tura
Ġpa tas
ĠH as
Ġid Ã©n
Ġbril lantes
Ġ193 0
grÃ¡fic as
Ġan illo
em in
ru m
U R
Ġsin cer
a je
Ġescu chÃ³
Ġnega tiva
Ġre mon
um as
Ġutiliz ada
Ġrealiz adas
Ġins u
en z
Ġpar tÃŃcu
Ġpropues to
Ġcompos itor
Ġin o
Â ©
ĠSue cia
H an
d s
Ġcos to
ĠMar gar
Ġmar in
Ġestre me
Ġe duc
Ġdirig ÃŃa
idar idad
Ġcor rientes
en zÃ³
iz adas
Ġviv iendas
Ġtestimon io
Ġindi gn
b ilidad
Ġme lo
gun a
T an
S O
bo a
Ġser ia
it ri
Ġindi rec
Ġrepres entar
Ġa ve
ac os
Ġser ies
Ġatrac tivo
e da
ĠcaÃ± Ã³n
H emos
ĠDef ensa
Ã³m ez
Ġdesay uno
ie bre
Ġga to
Ġper u
I mp
A D
199 6
qu ilidad
Ġsu l
k es
Ġpele a
Ġsupon ÃŃa
Ġin c
Ġrefor zar
Ġve ÃŃan
Ġargu mento
Ġderi va
ĠplÃ¡ stico
comun icaciones
P u
P ens
d ri
in an
Ġconcep tos
ĠJ avier
in te
rid ge
ĠR ock
Ġ 00
ĠA cciÃ³n
Ġna turalmente
Ġdesemp leo
id urÃŃa
Ġprom esa
Ġprop uso
Ġcos tas
Ġdevol ver
ĠFe de
Ġexig e
Ã©ndo me
ĠG racias
ĠF ab
Ġab ar
T V
200 8
igu al
ĠBla ck
tÃ¡n ico
Ġest ima
Ġnom bra
Ġrelig iosas
Ġah og
Ġtembl or
ĠF ri
ĠHar ry
ĠD ol
Ġadministra tiva
g aban
on ados
ĠU l
Ġclub es
i ese
Ġdiver tido
Ġbri llo
Ġsent idos
ĠAl to
Ġcon ferencias
h r
Ġm ierda
Ġvesti dos
Ġdecir lo
Ġpre de
b ran
Ġpartici pa
Ġconf iar
gÃ¼ edad
com entÃ³
te a
Ġ9 3
Ġinv is
ĠC in
Ġma tado
Ġapara tos
S ab
Ġsepar ado
Ġincorpor Ã³
Ġdiv or
Ġestrateg ias
Ġcal ific
Ġgrab ado
ĠQuer ÃŃa
Ġocul tar
Ġen g
Ġley enda
Ġven cer
Ġobserv aba
Ġbes Ã³
ĠEn erg
Ġpreocup ado
Ġmedi as
ĸ ł
Ġconoc en
Ġresi diendo
Ġcontro les
ĠZ ara
N uestra
Ġ15 0
ĠNor uega
gu en
er es
Ġad mitir
ĠD ie
inar ias
ĠEj ecu
Ġus an
th ur
Ġv aci
Ġqued ando
en ce
Pue do
ĠR og
ÃŃ z
Ġpa Ã±
Ġex hib
Ġno tar
Ġcom edor
ĠCas tro
ĠL le
lo cu
Ġjard ines
hu a
Ġdo Ã±a
Ġfemen ina
Ġtesti go
Ġbus caba
ica go
a der
Ġcan cel
ĠU sted
Ġtur b
Ġbo tÃ³n
ĠAtlÃ¡n tico
n ologÃŃa
Ġpec ados
Ġb omba
Ġo ÃŃ
An te
Ġpuer tos
Ġhaber lo
Ġpre viamente
Ġis rael
ĠBlan ca
M ad
Ġpen ÃŃnsula
Ġsole dad
Ġsatisfac er
Ġdecre to
Ġe va
Ġmedi ev
200 9
Ġcan to
Ġpun tu
Ġes par
lam iento
tran s
ĠÂ »
Ġoch enta
i tivas
Ġrode ado
Ġper dida
Ġpres tar
Ġex ca
Ġex teriores
ĠLa ura
ĠMa uri
ĠF orm
Ġi glesias
Ġocup Ã³
ĠNav idad
Ġru rales
Ġaverigu ar
Ġsub si
ĠP RO
Ġ6 5
ĠOri ental
ĠV o
ici oso
Ġcomen zado
Ġdispos itivos
Ġescu ad
Ġfirm ado
Ġcontr ar
ĠS w
ĠDist rito
In cluso
Ġprol ong
Ġvengan za
Ġaplic able
Ġsus p
Ġl ingÃ¼
Ã©c ord
Ġaf ron
Ġf emenino
is la
Ġf ur
ol os
V D
Ġem is
Ġdeses peraciÃ³n
Ġcol ina
Ġaudi o
v imiento
Ġidentific aciÃ³n
ĠR ol
Ġen o
Ġjuz gar
Ġco her
ĠBib lia
Ġli der
Ġse ca
ab ora
Ġsig no
Ġalcan za
Ġar till
Ġexist ir
ĠN ick
Ġja ponÃ©s
Ġreper cu
Ġc able
re puso
Ġv uestros
ril los
CI A
Ã³ st
ĠS egÃºn
Ã©m ica
Ġpres erv
Ġp Ã¡nico
t ti
Ġsus piro
Ġfel ici
Ġan uncio
Ġse tenta
p ados
Ġ3 9
as en
pu la
Ġlim itado
Ġfe der
Ġmo vil
Ġme te
Ġc Ã³n
Ġta za
Ġresta ur
Ġrelig iosos
Ġman z
Qu izÃ¡
ĠNic aragua
Ġcon m
Ġag encia
ĠL OS
ti tudes
Ġa co
lo v
Ġc il
Ġinten sa
Ġasi Ã¡ticos
Ġcon gel
Ġv acil
pe ta
ĠI gn
Ġefec tivo
Ġintegr ado
Ġvideo j
Ġpaci encia
res te
ĠmÃ© dica
ĠV II
ĠM adre
gos la
que tes
ĠPan amÃ¡
Ġg ala
Ġras tro
b Ãºs
l aba
ent ÃŃa
Ġenfrent arse
u ci
Ġes qu
Ġmedio ambient
Ã©r col
Ġanti cip
Ġoblig Ã³
am entos
ĠCom paÃ±ÃŃa
ĠOlÃŃmp icos
Ġincre ment
ĠmÃºs icos
Ġtaba co
ĠM ira
Ġterren os
terna tional
Ġagar rÃ³
Ġpos itivo
ĠL eo
Ġsonre ÃŃr
Ġul tra
ĠF is
Ġacep tado
Ġur gencia
Ġsalva je
Ġgri tar
ĠfÃ³r mula
ĠG uer
ĠB ran
Ġdic tadura
ĠB oy
Ġdem uestra
Ġmal os
Ġc ementerio
Ġhi lo
Ġcontac tos
Ġvest ÃŃ
ĠF C
ĠOc cidental
dad ores
Ġdest inadas
ĠhipÃ³ tesis
Ã ļ
M as
Ġ QuÃ©
Ġcru zÃ³
V aya
Ġconsider Ã³
199 7
Ġdi j
Ġtripul aciÃ³n
Ġher idos
Ġacer caba
f ia
Ġt Ã¡c
Ġf usiÃ³n
j ados
201 6
Ġofici o
Ġi mit
Ġreda c
Ġconstitu ciÃ³n
Ġagri cul
Ġpodr ÃŃamos
tr aba
ĠH ijo
A Ãºn
por ta
s el
Ġrespon de
ĠGob ern
ĠYo u
ĠPolic ÃŃa
Ġdirec ciones
Ġre inado
Ġar b
estr u
Ġin cap
Ġmal as
re mo
ĠStre et
Ġso porte
Ġdescans ar
Ġcor reg
Ġba hÃŃa
Ġfin alidad
ĠEl ena
Ġdenomin ada
Ġpar ale
ĠNic olÃ¡s
Ġasum ir
ciden tales
Ġfil Ã³so
ĠA gencia
Ġcontes tar
Ġn ad
Ġpersonal mente
Ġingen iero
Ġlec tor
qu ista
ĠDemo crÃ¡
it Ã¡n
Ġad v
Ġedi torial
Ġll enos
Ġro to
Ġtesti gos
Ġnerv iosa
Ġab aste
Î ±
Ġresul tar
l im
paÃ± as
Ġcar as
Ġdesas tre
Ġcol onia
ĠRob erto
Ġh ec
ĠIs la
di lla
Ġfar ma
Ġfu ria
v ez
Ġcic l
Ġj ub
ron to
Ġindi cÃ³
d Ã©
Ġconse jos
t to
Ġoscu ras
Ġpropor ciÃ³n
end ario
Ġre bo
Ġperten ecÃŃan
id al
Ġev ent
Ġ196 4
ĠIn st
Ġson idos
Ġin ac
% ,
ma g
Ġten ÃŃamos
di z
Ġpos t
Ġvolver ÃŃa
Ġguitar ra
Ġpa gos
Ġman us
te ll
ĠO este
Ġ9 5
ĠAn gel
Ġfru tos
Ġhal lar
Ġsu pre
ĠAlgun os
ru mb
ĠV iena
Ġfres co
Ġbel la
Ġcu esta
Ġpregun to
Ġfuncion ar
ĠJos eph
Ġcelebr ado
Ġc Ã¡maras
Ġinten ciones
Ġrestau rantes
p p
Ġescri tores
a Ã±os
Ġdif un
um bre
Ġenten dido
Ġfavor able
Ġa zo
in ales
Ġsa que
ĠSecre tarÃŃa
V e
a firm
u z
ĠS istema
ĠcentÃŃ metros
ez ol
Ġqued Ã©
Ġdeb il
Ġprior idad
Ġconv ento
Ġres on
T raba
Ġrom ana
Ġinstitu cional
Ġf ro
Ġsol itario
Ġexten diÃ³
Ġmad ru
Ġjun tas
Ġper dÃ³n
ĠD om
Ġexcl u
ĠJo e
Jo hn
Ġla v
Ġguard ar
Ġnorma tiva
Ġcompren diÃ³
mir ante
ĠHun grÃŃa
g entes
Ġmanten ido
ĠpÃ¡rra fo
Ġdel iber
Amb os
ĠMo dificado
Ġmue ca
Ġtran quilidad
Ġr Ã©cord
Ġcur va
dr Ã¡n
Ġcas ta
ĠLa tino
Ġgu ion
Ġho teles
Ġdesem bar
Ġpar al
Ġen tiende
Ġalmacen amiento
Ġdesapar iciÃ³n
Ġ #
Ġpu Ã±
ĠX III
de ll
ĠP in
Ġsig nos
Es per
Ġentre ten
Ġ196 6
N osotros
Ġve la
N uestro
qui to
Ġba Ã±
Ġhoriz on
Ġd arÃ¡
Ġ194 4
ĠSan tos
s y
Ġparro quia
Ġmostr ado
Ġvac ÃŃa
n aci
ĠobstÃ¡ culos
Ġaprovech ar
199 5
I O
Ġh ech
or gan
Ġreac cion
Ġpre venciÃ³n
ĠG lo
ĠP i
Ġ4 8
Ġconoci das
Ġat ribuy
Ġsome ter
tor nos
ĠbÃ¡s icos
Ġinstitu to
ĠquÃŃm ica
al quier
ĠDi pu
es ter
um b
Ġhum edad
ĠRecord s
B us
Ġlig era
ĠK ing
Ġrel ie
ĠFa cultad
ti to
Ġpriv adas
ĠCas tillo
Ġme tÃ¡l
, "
Ġins ign
ay o
ĠmÃŃn ima
ti ta
Ġmane jo
Ġin yec
Ġconj un
Ġ193 9
S h
ĠReg ional
Ġfus il
u le
p ista
Ã³l ver
Ġcu enca
ĠIS BN
ĠG Ã³mez
Ġvolv ÃŃ
ĠcrÃŃ ticos
Ġch is
es peci
ĠAl l
tu oso
Ġtor pe
T anto
Ġsus pirÃ³
Ġc ero
Ġenla ce
Ġh ero
u era
Ġmo dal
ĠFin landia
Ġafec ta
N adie
ĠJo a
Ġdur Ã³
Ġexplos iÃ³n
un e
Ġcor rupciÃ³n
M EN
j ara
do c
Ġsurg iÃ³
Ġfalle ciÃ³
Ġpriv ados
ĠV amos
tÃº an
Ġpro le
199 2
Ġv it
ĠAr ch
ĠP es
gan da
it ores
ÃŃs mo
estru cturas
Ġcondu jo
Ġru idos
Ġamena zas
Ã©r citos
ĠPro tocolo
lan des
Ġhogar es
iz abeth
Ġimp ac
Ġexpres a
Ġme tido
Ġarreg lar
Ġtes is
ent re
Ġlimp ieza
Ġ zo
Ġtej ido
Ġhab lan
Ġhum anas
Ġru inas
Ġentr aron
ores te
Ġno tÃ³
u j
en g
ĠM r
ĠC ir
ĠjurÃŃ dica
Ġdescrib ir
ab los
Ã ĳ
Ġfrecu entemente
200 6
and ra
ĠclÃ¡s ica
ĠAl go
Ġsobreviv ir
Ġr ÃŃg
201 5
Ġfuerte mente
Ġun irse
Ġintercambi os
ĠP ap
Ġter n
Ġap as
Ġcam paÃ±as
aci miento
J unto
ĠCar ta
Ġrev Ã³lver
Ġex ager
ible mente
Ġdesc enso
Ġpatri a
Ġter cio
Ġest al
Ġasoci ados
in cl
n ar
ĠS talin
ĠvestÃŃ bulo
Ġinter venciones
Ġaman ecer
os iciones
Ġdoc trina
ti bles
Ġor eja
Ġmo vÃŃa
Ġagu jero
F E
uri as
Ġnov io
Ġprim aria
ĠCan al
Ġencuent ros
Ġguer reros
Ġsimp les
Ġaplic ables
s ch
Ġto ca
Ġcomprom isos
ĠhÃ¡ bita
ez Ã³
ĠhistÃ³ ricos
Ġresiden tes
Ġten dencias
th an
Ġmencion ar
Ġpre domin
ag e
U I
udi o
grÃ¡fic os
Ġfi la
Ġre t
Ġtra te
Ġment ira
Ġ196 5
Ġambient al
te cas
ĠTer esa
Ġviv ÃŃan
se la
Ġi dio
Ġdef ine
Ġpon en
Ġc ie
er in
Ġpolic ÃŃas
Ġ Ã©s
al ia
v ina
Ġgener aciones
Ġinmedia ta
Ġleg ÃŃti
Ġca ÃŃa
Ġc Ãº
Par ece
ĠV ÃŃ
c adores
Ġreci nto
Ġaust ral
ĠL AS
ĠCh a
Ġprev io
Ġepiso dios
Ġm uel
Ġemp a
ĠAndal ucÃŃa
ĠUn idad
Ġbo tas
ĠÃ¡ cido
Ġproce dente
Ġpier de
Ġefec tiva
Ġcul min
v Ã©ase
de Ã³
ĠS cho
ĠPrim er
Ġri ca
Ġdec ÃŃan
Ġsu pe
id ado
Ġrepe ti
Ġdej an
ÃŃn ea
ĠS or
Ġcor rÃŃa
ĠEr n
i Ã¡n
Ġaten der
Ġindis pens
dÃŃ b
Ġentr adas
Ġmue bles
Ġobserv ando
ĠG ir
Ġcrist iano
ĠhuÃ©spe des
Ġn Ã¡
Ġoc ta
de ste
Ġconden ado
t ambiÃ©n
pti mo
Ġpregun taba
qu era
Ġper diendo
gen da
Ġem isiÃ³n
Ġaum enta
ĠT y
ĠjurÃŃ dico
Ġcans ado
Ġtrans mitir
Ġpose en
Ġelev ada
ap ro
ĠA gust
Ġher ed
v adas
r Ã¡s
Ġn aran
Ġelim inaciÃ³n
Ġespec ÃŃfica
Ġcine mato
Ġg entes
V A
Ġmaravillos o
Ġfu tura
ĠAn g
ĠRe ina
Ġcom arca
Ġman dÃŃb
Ġsacu diÃ³
Ġlib ras
Ġan uales
duc tos
onces to
Ġoscu ros
Ġtom aron
j aron
Ġso port
ĠZ el
ĠTom Ã¡s
ĠS erg
ĠI sa
ĠCh icago
go za
eb o
Ġcir cular
C ON
Ġcabec era
AL ES
Ġplan ificaciÃ³n
Ġex it
z can
Ġpol ici
Ġsar gento
Ġrecor rer
ĠAnd re
Ġextrem adamente
Ġapar entemente
tam ientos
Ġca jas
Ġnecesit amos
ca u
ĠH oy
Ġfras es
ment aciÃ³n
ell i
Ġespec tadores
Ġtrayec toria
Ġesper an
Ġinteres a
Ġpos itiva
ĠHu go
Ġper ju
Ġsacri ficio
Ġmantener se
Ġfrecu ente
Ġindustri as
Ġefec tivamente
Ġint entos
t ta
Ġru g
ĠK ir
Ġr ara
in aron
Ġas im
j aban
T res
ĠR on
Ġgri ega
ĠRey es
Ġesta tales
Ġcuidados amente
ie dades
Ġpu se
cional mente
Ġex ceso
Ġ196 2
ĠÃº tiles
Ġsist em
k ar
Ġbr oma
Ġcam inando
Ġdes van
Ġtra tados
Ġpreten dÃŃa
Ġpul m
Ġcamis eta
Ġtas as
ĠD un
Ġfan tÃ¡
Ġdibu jos
Ġbar ba
Ġre ma
Ġneces ariamente
Ġaloj amiento
Ġpes cado
G O
te lo
fic os
Ġcober tura
Ġexig encias
ĠdiÃ¡ metro
ĠP Y
ion Ã³
Ġdirig entes
Ġhuel las
Ġd arÃŃa
Ġmanifi esto
Ġparticip ado
ĠH om
pul os
uc risto
tn am
ĠQu in
ĠFuer za
Ġdetermin ada
Ġpin turas
Ġconserv ar
Ġapell ido
Ġbici c
Ġavan ces
Ġsum erg
Ġdibu jo
Ġmarch arse
To davÃŃa
ĠA gri
d aba
Ġdi ablo
Ġinteres ados
M ir
Ġcu sto
ĠT ru
er ales
Ġpes ado
ĠAl fre
Ġsab idurÃŃa
Ġrecib en
P S
Ġtro zo
Ġmedio dÃŃa
Ġprov iene
Ġcon cil
gar ia
Ġdestac ado
Ġi b
Ġprac tic
Ġdeci dieron
Ġauto bÃºs
Ġt ribun
ĠCon stan
Ġdest inada
Ġcivil izaciÃ³n
Ġsal as
Z A
ĠDÃŃa z
Ġ19 20
ĠpÃ©r didas
st on
Ġpar Ã¡
Ġher encia
Ġper egr
Ġar gentina
tri co
u ca
Ġ it
der s
Ġcontin Ãº
ĠTex as
Ġactu aciones
ĠMar ia
Ġterra za
zob ispo
Ġsuper vis
Ġpose ÃŃa
Ġmagn itud
Ġperspec tivas
Ġtir Ã³
rede dor
R ob
Ġtra jo
Ġcer teza
Ġdiag nÃ³
es os
can os
et t
ĠCam b
Ġmoder nos
Ġdocument aciÃ³n
Ġinterpre tar
Ġfin alizar
Ã© ricas
Ġ ic
Ġtrans fer
Ġaver gon
Ġv ano
it ch
Ġevalu ar
ĠJul ia
tr ing
Ġejemp lares
Ġ196 3
Ġt ib
Ġjud ÃŃo
Ī Ĵ
Ġvid rio
ĠS O
Ġregist ros
Ġperj udi
ĠÃ©x itos
Ġce jas
Ġcaus ar
cran ia
Ġfru tas
Ġprol on
ĠV ene
ian ismo
Ġe ficiencia
199 3
Ġmodal idades
Ġgan ador
ĠAc ta
. ).
Ð ¾
Ġre to
M ira
ĠB ir
du ra
Ġal mo
ĠcÃ¡l culo
in c
Ġbar rios
ĠD en
ĠhÃ©ro e
Ġutiliz Ã³
Ġesper ado
Ġsust ancia
Ġvuel va
ĠSan t
Ġab iertas
Ġpon ente
Ġen com
Ġveci no
al iciÃ³n
ĠO h
Ġciudad ano
ĠSebasti Ã¡n
ĠHos pital
ab ra
! Â».
Ġper tur
ĠmuÃ± eca
J a
Ġver me
Ġ4 2
ĠP ort
ĠJ as
Ġr usos
Ġopera tivo
Ġfa cul
Ġdej Ã©
ĠFede rico
Ġalim ento
Ġob tiene
Ġan alizar
200 3
S Ã©
Ã© j
Ġor d
vi Ã©ndose
D er
qui Ã©n
Ġpis cina
Ġinterpre tÃ³
Cu Ã¡ndo
Ġgas to
Ġcumpl ido
Ġhec tÃ¡
Ġtr Ã¡ns
Ġo le
Ġdesper tÃ³
Ġres table
r ab
Ġequ ivo
Ġr usa
ing er
tro cin
Ġcer e
at ÃŃa
Ġangust ia
Ġlla ves
Ġinf luy
rue cos
am ar
Ġta x
Ġinmig rantes
Ġev olucion
Ġven ga
Ġgrieg os
Ġte mo
Ġest ir
Ġol vi
ĠSen ado
Ġasoci ado
Ġcondu ce
Ġse pa
Ġejecu tivo
ĠV is
ĠRos ario
z on
ĠAy untamiento
Ġdom Ã©st
Ġh il
Ġpod amos
Ġpo ema
Ġsex uales
a ta
Ġmin as
a unque
Ġcom entÃ³
Ġembaj ador
ĠmÃºs ico
ĠT res
Ġel og
ĠCam p
Ġba il
e h
Ġcaracter iza
Ġga fas
Ġlegis laciones
Ġsal vaciÃ³n
cion ada
z arse
Ġasomb ro
V oy
Ġdel ito
Ġestu viese
Ġperten ecÃŃa
ĠcrÃŃ menes
201 3
ĠLe e
Ġsal tar
Ġmes as
ĠPara guay
ivers ario
ĠU R
ĠMar cos
Ã¡st ica
y es
G an
Ġhistori ador
Ġno bles
Ġnub e
Ġcon tienen
ĠGre en
ĠAu tor
ĠC y
ĠMil itar
Ã¡ndo les
Ġconvir tiÃ©ndose
te mp
C la
ĠMu jer
Ġdirig irse
Jos Ã©
Ġcar n
ÃŃ menes
Ġquier as
inas tÃŃa
m ad
E I
ĠL O
ÃŃcu la
Ġcarb ono
Ġinoc ente
on so
ĠB et
Ġcor tar
ke y
Ġbur gues
Ġarro z
Ġlevan ta
ĠseÃ±al ando
Ġexpec ta
ar les
Ã¡ rez
ĠHum anos
ques a
tor ce
w en
cu b
Ġdesn udo
199 0
ra mento
s or
ĠEs cu
Ġtur no
a jada
tu re
Ġsal iendo
Ġdist ribuy
ĠCar l
Ġdur m
Ãºm enes
Ġcaden as
Ġgust ado
Ġus os
cu sa
Ġpar ejas
Ġapoy ado
Ġri v
Ġpros per
H izo
he im
ĠS ir
Ġ Ï
ĠG ri
bor o
il d
Ġvesti r
ĠcaÃ± ones
Î ¿
ri osa
Ġb is
Ġsatisf echo
ĠFlor ida
cin co
Ġrepu taciÃ³n
ĠE mb
el ia
CuÃ¡n to
Ġaf uera
c ÃŃan
Ġar oma
Ġdom ici
Ġf ores
Ġafro americanos
i ter
ell Ã³n
Ġvir us
diÃ³ s
ust os
or os
Ġin cidente
Ġg ab
Ġjuris di
c Ã¡ndose
ric amente
Ġdescri ta
F R
Ġconsider arse
Ġcal endario
Ġinvit aciÃ³n
Ġcompren dido
Ġasegu rarse
er e
Ġconten ÃŃa
Ġauton omÃŃa
orn eo
A par
in osa
ĠF rente
ĠGuar dia
Ġf lan
ĠelectrÃ³n ica
bi ente
Ġorigin arios
Ġlocal idades
Ġam erin
j ones
Ġdisminu ciÃ³n
Ġdispu tÃ³
ĠX II
Ġd Ã¡ndole
Ġci ma
ti mos
rig ada
Ġrepar to
a z
ec tor
Ġcre yÃ³
ĠgÃ©n eros
Ġrecomend aciones
pole Ã³n
Ġvia jeros
ĠM iss
Ġ1 20
es es
Ġpar ada
Ġrefug iados
Ġd as
ÃŃ tico
Ġad quisiciÃ³n
Ġrebel des
ba jo
Ġintrodu jo
Ġ4 3
Ġtras pas
ĠA L
Ġil usiÃ³n
Ġescuch ado
Ġab rÃŃa
Ġl echo
ĠTo ledo
Ġo ÃŃa
Ġesper anzas
ur al
Ġsill Ã³n
ent u
Ġllu v
Ġsol idaridad
ĠReg iÃ³n
ĠG in
u co
Ġasegu rÃ³
Ġmulti plic
ĠÃ į
Ġsi tÃºa
Ġsuce der
Ġjur ado
in ea
Ġserv ido
Ġca fe
ud al
ĠMir Ã³
Ġtu ristas
Ġpec ul
at an
Ġvi uda
Ġtrabaj ador
Ġri val
Ġtras era
Ġlevan tarse
Ġcre ando
g io
Ġ4 4
ĠS tan
ila ter
Ġp las
Ġec les
ĠBro wn
Ġdescon cer
Ġreun iÃ³
ĠHon duras
Ġestim ada
Ġcastel lano
ĠTo davÃŃa
ĠautÃ©n tica
Ġincen dio
Ġentr aba
Ġab a
Ġlimit ada
ĠN ar
Ġban de
ĠautomÃ³vil es
Ġur ban
in aciones
Ġdes gar
Ġder rumb
br ada
Ġsolici tar
Ġingenier ÃŃa
ĠIn ternational
Ġreflex iÃ³n
Ġinvesti gar
Ġdisf ra
ĠtrÃ¡ns ito
Ġ194 1
Ġgal erÃŃa
Ġbon ita
ĠSim on
Ġdescu bre
Ġdiscrim inaciÃ³n
Ġbru tal
Ġvolv iendo
Ġde ca
Ġcontinu o
Ġorganiz a
ĠC ra
te d
Ġfal so
Ġimp lan
qui ta
Ġensay os
ĠSi ria
al an
e gu
Ġafec tados
Ġp il
Ġensay o
ĠJes ucristo
Ġlater al
Ġemp ie
er aciÃ³n
Ġm ante
ĠS I
ĠLor enzo
Ġenten dÃŃa
Ġinclu ÃŃa
Ã¶ n
m ico
xim as
Ġli dera
Ġa ca
Ser Ã¡
c lo
Ġnar ra
Ġha z
ĠAl ianza
Ġperten ecen
Ġmer ece
Ġf estival
ĠR eb
Ġapar ecÃŃa
Ġb lo
Ġter remo
Ġprote ctor
ĠPh ilip
Ġrefer encias
Ä ģ
ri das
Ġfi eles
Ġdispon ibilidad
201 2
Ġa venida
ĠS ig
Ġbus cÃ³
ĠMin istros
ul t
Ġdi rÃ©
Cu enta
Ã©rcol es
dr Ã©
Ġsecu estr
un t
Ġgig ante
Ġc aba
C N
Ġh echas
Ġmar cado
ver siÃ³n
Ġsup le
Ġcab ellos
200 7
Ġestar Ã¡n
ent almente
Ġmanifest aciones
ĠCab all
Ã³cra ta
Ġsen dero
B as
Ġparticipar on
Ġma chos
Ġpudi ese
ĠLu z
pol is
Ġme tÃ¡
Ġjust ific
w an
Ġ[ âĢ¦
Ġelabor ado
Me di
Ġac ento
Ġpan or
ĠJo han
ĠMunicip al
Ġp ales
Ġcul turas
Ġnaveg aciÃ³n
Ġde terior
ĠH ill
Rec uer
Ġasal to
Ġta xi
Ġtrad iciones
B ajo
Ġdep Ã³sito
M S
Ġmon tar
Ġadvir tiÃ³
Ġro pas
Ġin vo
Ġempres ario
ĠPat ri
ĠperÃŃo dos
Ġn oreste
sh ip
e le
Ġdecir me
Ġmexic ana
Ġapar ecido
c ones
Ġ194 3
ĠC ru
Ġempres arios
Ġu tilidad
Ġch i
Ġembara zada
Ġo las
Ġrestri cciones
Ġej Ã©rcitos
ĠbÃ¡s ica
Ġdes v
Ġenam orado
Ġrad ical
Ġromp iÃ³
Ġarm ados
Ġsub mar
Ġesc asa
Ġcu mbre
Ġesenci ales
Ġson Ã³
Ġal ine
ĠI rÃ¡n
Ġquin ta
Ġpen al
Ġen tien
Ġf ul
ĠPro puesta
ul ado
Ġampl iar
Ġpropie tarios
ĠP Ãºblica
ĠSara h
Ġmis iones
Ġpreocup aciones
Ġmusul manes
ton e
Ġproce der
enci al
Ġc ueva
Ġdi al
Ġmar cÃ³
Ġreno v
ĠU crania
Ġri o
Ġun ido
Ġre vela
Ġk g
Ġcal ent
Ġans iedad
ĠSu pongo
Ġse du
Ġpers ecuciÃ³n
D OS
Ġinter locu
Ġplu ma
Ġestatu a
du la
ĠClar a
Ġcoo pera
an til
Ġpa trocin
Ġad orn
Ġto que
ĠEstudi os
Ġf Ã³s
Ġmenci ona
Ġpre venir
Ġdispon er
Ġc itado
Ġha gan
cri tos
ĠB iblio
ĠH ace
continu Ã³
tri ca
Ġl ine
ĠC Ã³
ĠHum an
Ġam igas
199 1
f ort
Ġbille tes
Ġ194 8
Ġn ace
Ġ5 5
ĠÃ¡r abes
tr ado
Ġenfr ente
M O
Ġba terÃŃa
Ġ195 8
u ch
Ġcomp rado
Ġmir aron
Ġcomple mentar
Ġrealiz aron
b oc
Ġoblig ados
ĠEsco cia
Ġacep taciÃ³n
Ġrecib ieron
ĠK en
Ġsuje tos
ĠZara goza
Ð ¸
Ġart ÃŃstico
h em
ĠAC P
Cons ide
Ġres tring
Ġprev Ã©
ĠFil ip
Ġn eo
Ġrecha zo
Ġpobl ado
mÃ¡ ticos
ĠR elaciones
Ġsent ados
Ġtrop ical
ĠNeg ro
Ġap rueba
Ġor illas
Ġtes oro
Ġretra to
Ġgener ar
Ġaf lu
ĠP Ãºbl
F al
Ġno tific
Ġadj udi
ĠN ie
ĠV oy
ĠIn formaciÃ³n
con oci
ĠCam po
Ġfal taba
dol fo
Ġse d
Ġab arca
Ġestad ÃŃsticas
Ġsac ado
Ġmadru gada
Ġdi min
Ġmuer e
et te
Ã¡n eo
Ġdeb ilidad
Ġestu vieran
in cu
ĠR an
Ġital ianos
ad ro
ÃŃ e
ĠÃ¡n gulo
Ġman dÃ³
Ġsos tener
ĠG or
Ġsegu idores
Ġeti que
ĠON U
Ġpes ada
ta te
Ġse as
Ġsab iendo
ĠaÃ±ad ido
ĉĉĉĉ ĉĉĉ
E T
Ġcora zones
Ġtem er
Ġprove edores
ĠK an
Ġocup aba
A V
ĠCon venciÃ³n
k h
Ġro jos
Ġpreocup es
ĠM uy
Ġde je
cÃ© u
Ġentre gado
Ġpar pa
Ġprovo ca
Ġpres taciones
Ġlimp io
ĠF el
lo va
l s
D an
Ġest er
Ġpopular idad
Ġo ve
la go
o o
H ar
ĠpÃ¡jar os
Ġbon ito
Ġfrecu entes
ĠCas i
Ġperfec ciÃ³n
Ġfu tu
Ġfel ices
Ġamerin dios
Ġrespons abilidades
Ġcier tamente
Ġtr enes
" ",
ec os
Ġorganiz ada
tigu o
Ġurb ana
ec Ã©
ĠA g
Ġbeb ida
ĠtÃºn el
Ġdeleg aciÃ³n
la ce
Ġv inos
z ona
Ġsupon er
k en
Ġsi enta
jes tad
Ġestren Ã³
Ġros tros
Ġdoc ena
Ġmunicip ales
m el
Ġintern et
j unto
Ġcu bre
Ġcr on
Ġrefle ja
Ġrepar aciÃ³n
ci ado
Ġocur rÃŃa
ci encia
Ġf ero
lar aciÃ³n
Ġâ Ĥ¬
J es
Ġcul tivos
di ar
Ġart ÃŃstica
Ġalgo dÃ³n
Ġesper aban
Pre gun
an ta
Ġor questa
Ġor ÃŃgenes
i y
Ġcole Ã³ptero
ur s
Ġs Ã³
Ġmucha chos
Ġinst ancia
Ġdesaf ÃŃo
Ġ196 1
cop io
Ġdispar o
Ġdispar ar
Ġf iebre
Ġpro xim
Ġinm ensa
Ġres umen
Ġver le
Ġde ter
Ġargu mentos
Ġrespal do
da je
Ġdis per
uer tos
Ġt ÃŃm
Ġespec ta
Ġinclu idas
Ġacus ado
ÃŃ fer
Ġextre mos
Ġe f
Ġespaci al
Ġmanifes taciÃ³n
Ġp istas
Ġal turas
tu m
ĠpÃ¡l ido
Ġescla v
Ġconce der
Ġman ga
Ġmir Ã©
Ġhue co
tar iado
Ġmedi r
g ru
ĠSte ph
Ġv ea
dis mo
Ġpres taciÃ³n
Ġb er
ĠPar ece
ĠC I
Pue des
n m
Ġveget aciÃ³n
Ġgan ando
Ġp echos
ĠMar ruecos
Ġprohi biciÃ³n
Ġperteneci entes
Ġcarre teras
T am
ĠS un
Ġ194 2
Ġgaran tÃŃas
g ante
le tÃŃn
Ġpor tal
ĠAten as
Ġhacer me
Ġderi vados
Ġam aba
Ġpermi ta
Ġpreci sa
Ġsup uso
Ġtard Ã³
Ġtra ge
Ġlim ita
pi tiÃ³
Ġ193 7
Ġconfirm Ã³
Ġpar ado
pregun tÃ©
Ä ±
Ġsir ven
Ġf Ã©r
Ġha gas
ĠFer ro
Po drÃŃa
ĠSco tt
Ġserv ÃŃa
Ġgolpe Ã³
Ġfal sa
Ġv am
Ġro l
Ġpoder osa
ĠDi ario
Ġbien venida
Ġprome tido
Ġempresar ial
Ġemi tiÃ³
Ġper ca
Ġco hesiÃ³n
ĠH all
Ġtras ero
Ġcan tÃ³n
econ Ã³m
ĠAn n
Ġmonum ento
onal d
Ġme lan
Ġprepar ados
p ada
ÃŃ v
Ġel e
Ġavan zada
Ġban car
Ġpreci osa
Ġh ondo
Ġcapit ales
Ġlleg aban
ly n
. ),
Ġav iso
Ġacep ta
M is
Ġmodific ar
Ġprev istos
Ġde cl
l adas
lan desa
Ġarm ario
ul siÃ³n
Ġserv idor
ĠBlan co
? Â»
Ġgir ar
ĠC B
Ġan iversario
Ġmo to
Ġperman ece
X X
Ã¡ frica
cien de
Ġcomen zaba
ap ia
Ġcome dia
H acia
Al go
Pro puesta
ĠCatÃ³ lica
ri ll
Ġca torce
Ġsacri fic
us s
Ġbeb idas
Ġadqui rido
la c
Ġma ta
Ġcar denal
Ġcuesti on
Ġinteg rantes
Ġcu rioso
Ġrefle jo
k ins
ĠR io
Ã± ando
Ġcoloc ado
ĠP AR
" :
Ġdedi ca
Ġes bo
Ġdispon ÃŃa
Ġorden ado
Ġh undi
Ġale jÃ³
Ġru tas
Ġexplic aciones
Ġdemon io
Ġresist ir
Ġsan gu
Ġsu ro
Ġtab l
Ġcomis ario
ĠpartÃŃcu las
ĠN aciÃ³n
le Ã±os
ur recciÃ³n
Ġa rist
Ex iste
Ġlimp ia
Ġexp lÃŃ
Ġdes igual
ĠEU RO
ter nos
ed y
Ġperman ecÃŃa
Ġhi per
Ġprecip it
Ġin icios
ĠAl b
Ġdi gas
ĠB at
in ten
Ġtras cen
Ġportugu Ã©s
Ġfil m
Ġcaball erÃŃa
Ġcor o
Ġescuch aba
ĠA venida
bl as
ĠLis boa
Ġrepro ducciÃ³n
Ġasc ensor
Ġven ezol
Ġindi can
ĠaÃ© reo
Ġacon di
Ġtempera turas
Ġfran co
Ġ195 6
Ġprodu cida
ĠN at
Ġsug iere
Ã¡m ico
ĠB il
Ġespec ÃŃficamente
C RE
Ġab ri
Ġrad i
Ġinform ar
Ġlec tores
Ġsocial ista
Ġmort al
Ġsup iera
Ġnegoci aciÃ³n
Ġbarb illa
c ÃŃ
ur go
Ġpor te
ug ÃŃa
Ġest ro
Ġagricul tores
Ġg ent
et s
cos a
ĠPY ME
Ġcas ualidad
Ġin sta
Ġterri torial
se os
ce des
Ġcri terio
Ġcu entos
Ġpu ta
erva torio
Ġdepor tes
ĠL am
ĠDoc tor
ĠA Ã©
ĠcÃ© le
Ġm ales
ĠF an
Ã¡ zar
le ge
Ġver b
Ġcria turas
gu al
ĠM ara
P al
P O
P I
Ġra yo
ĠVir gin
Ġe cos
Naci Ã³
Ġen rique
Ġba uti
ĠMa estro
ri ta
Ġalej arse
Ġconstitu cional
Ġpes os
Ã¡n icos
Ġvie jas
Ġdeb utÃ³
Ġcomo di
ÃŃ das
ĠLlev aba
Ġ193 8
Ġsu reste
In ter
Ġvol ar
Ġpublic ar
gar o
mor e
Ġcigar rillo
on i
p ur
ĠF ort
Ġdispu ta
ĠC le
Ġinici ado
Ġtaller es
Ġpregun tado
Ġp uls
ue vas
ĠP R
ĠS el
ĠV io
Ġabra zo
Ġcla v
Ġe pi
ĠPr ÃŃncipe
Ġmis er
Ġgru eso
Ġen re
ch ill
Ġres tantes
Ġma ÃŃz
Ã¡n donos
ortun adamente
Ġmedi ano
Ġdu ras
ĠEjecu tivo
ell y
st ro
ĠJac ob
qu erÃŃa
o v
Ġrazon able
ĠC ur
g l
Ġr ar
ĉĉĉĉ ĉĉ
Ġprev istas
ĠLi bre
Ġcontinu amente
ĠC ine
la gro
Ġprotes ta
Ġcontras te
Ġequivoc ado
ĠmÃ¡r mol
pon e
y r
ĠJ ord
ĠMus ic
ĠTim es
cion amiento
lo gos
con s
Ġcaus ado
Ġcuar tos
Ġtele comunicaciones
E M
Ġf lam
Ġpas aban
Ġbas ura
! "
Ġen d
ist Ã³
Ġpo emas
ĠComun icaciÃ³n
Ġretir arse
ĠSocial ista
Ġal tamente
Ġgra tis
t Ã¡r
Ġg iro
u vo
Ġa me
Ġru p
ĠespaÃ±ol as
Ġsil las
Ġapoy a
ĠCE CA
Ġafec to
Ġcompeti tividad
Ġmar rÃ³n
Ġmov ilidad
de as
ĠDepor tivo
ci oso
Ã³cra tas
c m
L LA
Ġavent uras
Ġse cciones
Ġform aba
Ġencar n
ier ten
Ġlogr aron
Ġc ica
Ġacu dir
Ã©r pre
Ġrad ic
Ġdenom ina
Ġtre ce
Ġedi ciones
Ġcer rados
Ġcon cepciÃ³n
V ÃįA
Ġins piraciÃ³n
Ġdocument al
ĠAm biente
Ġ7 2
Ġdefin itivo
Ġcomp ras
endo za
Ġempez ando
ĠA Ãºn
Ġsuperviv encia
Ġinfra estructuras
ĠhectÃ¡ reas
Ġsindica tos
Ġcub iertos
Ġesper Ã³
Ġbol so
Ġespan tos
ĠE lec
Ġprior idades
Ġcer ro
f ra
ĠprÃ©st amo
ĠF ron
Ġen se
stru cciÃ³n
Ġ195 9
ar y
Ġllegar a
Ġper cepciÃ³n
Ġartill erÃŃa
ĠVÃŃ ctor
Ġtermin al
Ġsan tos
eric or
Ġconsist ÃŃa
Ġsal tÃ³
Ġcri ti
ĠâĢĶ Â¿
Ġdomin ante
Ġhues o
uer te
Ġcub iertas
ĠC ort
ĠHol ly
Ġ6 4
Ġfa cultad
ĠMi ke
Ġofrec ÃŃa
Ġimp i
iemp o
Ġconden a
Ġdispar os
ĠAgust ÃŃn
ĠD or
ĠT ol
h l
x ia
Ġse man
Ġhom os
ite d
Ġreca ud
Ġtom aba
Ġres al
imen ea
ĠT ony
Ġdefens ores
mple mente
Ġprev ista
Ġ rib
in u
al Ã³
s ur
ĠT rin
ĠcadÃ¡ver es
Ġenm ienda
ĠÃ© tn
ĠEl izabeth
a k
ĠVene cia
Ġexperiment ado
Ġse ver
Ġ195 7
Ġestable cidos
Ġabund ante
Ġdespre cio
Ġrelie ve
Ġmas culino
Ġte orÃŃas
Ġdepar tamentos
ĠE va
Ġextre ma
Ã©ndo la
ĠA par
e jo
ten s
Ġgran ja
Es pero
ris h
Ġjuven il
Ãī ste
Ġadmi raciÃ³n
j Ã©
Ġcolon ial
ent ÃŃ
Ġfundam entalmente
os Ã³
ĠAl onso
Direc tiva
Ġcap as
Ġ4 1
Ġpis os
Ġrecog ida
Ġhomos ex
Ġtra mpa
? "
me dia
ome tra
Ġde presiÃ³n
Ġbus can
Ġrevolucion ario
Ġnie bla
Ġcorre dor
ĠcÃŃr culos
Ġocul ta
Cas i
Ġdesn uda
es tra
Ġma tÃ³
Ġley endo
Ġde le
Ġb Ã³
Ġpresent arse
ĠL il
Ġpreocu pa
Ġmu rieron
lan os
ĠMa h
As unto
g le
Ġgru Ã±
F orm
Ġcorrec tamente
Ġbomb as
Ġparticip an
ĠCon fe
Ġins cripciÃ³n
ber to
________ ________
ĠF ra
Ġlleg amos
I ÃĵN
ÃŃn as
Ġexport aciones
Ġmi x
gu iÃ³
Ġpar cialmente
Ġapar tar
eci miento
Ġextraord inaria
Ġdi arios
tin es
Ġcircu ito
Ġfun cional
Ġcan ad
ĠHab ana
ci mo
Ġsust anci
Ġsemej antes
Deci siÃ³n
re os
i ona
Ġconv iene
ĠR ad
ti fica
Ġto p
is pos
og le
Com isiÃ³n
Ġm ens
Ġa tar
ĠF ac
ĠMe jor
cil la
Ġcont ento
Ġalmo h
Ġmil it
Ġ0 5
e lo
ill ado
Ġd inastÃŃa
Ġch imenea
Ã¡nd alo
Ġterres tre
Ġdesen ca
y er
in di
Ġileg al
Ġante ce
ecre to
Ġder ram
Ġfabric ante
ens es
" ".
Ġru m
Ġrestau raciÃ³n
Ġchoc ola
Ġvic torias
E C
Ġres bal
un ar
Ġre di
Ġcuer das
Parti cip
Ġenfer mos
Ġac cidentes
Ġextraord inario
ĠdiagnÃ³ stico
ĠÃ³ pera
Ġrequier en
Ġde fec
Ġe vo
O l
Ġnav al
H ubo
Ġconver siÃ³n
Ġvic epresidente
Ġpermitir Ã¡
Ġmue ve
ĠmÃŃ os
Ġmedal las
ĠAl ta
ĠTam poco
eb an
ĠquÃŃm icos
ĠLou is
Ġform aban
A cuerdo
Ġinter v
Ġ194 6
Ġpal ma
tÃ¡n ea
du re
Ġech ado
Ġrelacion ada
Ķ Ģ
Ġdesagrad able
Ġ9 6
Ġestu ve
Ġfa tal
N O
ĠT r
htm l
ĠIgn acio
ĠIn gen
ĠCoo peraciÃ³n
Ġajust e
Ġapreci ar
ĠAs h
Ġdepen diendo
ĠNa tional
Ġcuad rados
Ġcomp uestos
ĠComun ista
Ġrealiz ando
Ġsolici tudes
j idad
Ġlle vo
enci o
ĠRo jo
tol Ã³g
Ġpens a
Ġcar gar
ĠAr mada
Ġcertific ado
Ġque de
Ġliber al
Ġsens ible
Ġvuel ven
Ġdi a
tu ales
Ġprom oci
Ġpa ga
ĠS he
Ġdel incu
Ġri Ã³
greg aciÃ³n
ĠF ord
Ġnorm ales
rim ientos
Ġcompu tadora
Ġmar ina
Ġfas es
! Â»
ĠAr thur
ĠCh eca
Ġcomun istas
ĠInst ancia
Ġencar cel
Ġbo te
Ġpre cau
ĠD VD
Ġcri ado
y d
Ġtra yecto
ĠVer de
Ġre torno
Ġv uelos
ĠP l
Ġfarma cÃ©u
ĠsatÃ©l ite
y l
Ġsuro este
Ġcre ce
Ġl enta
Ġcuar tel
c amos
ĠEst adio
Ġ4 9
ĠJe ho
ĠCan arias
Ġdiv ul
Ġfa ti
Ġa zar
Ġbrus camente
Ġpla yas
Ġconclu ir
Å ¡
Ġab ad
eci da
Ġven ce
Su pongo
Ġcarca jada
Ġgubernam entales
Ã³ tico
Ġdecor aciÃ³n
Ġ193 3
Ġc Ã¡
Ġins er
Ġecles i
Ġfantas ma
Ġjurisdi cciÃ³n
Deb e
ist emas
Ġsusp ensiÃ³n
Ġcomp or
Ġintegr ada
Ġfuncion ario
Ġcru j
Ġ195 5
Ġun ir
tan to
Ġli qu
j am
Ġimpro vis
Ġla bio
Ġameric anos
Ġest abas
Ġfis cales
Ġ4 6
ĠÃģ r
Ġoc cidentales
Ġprepar ada
ĠS k
Ġconsider ablemente
Ġlevan tado
ĠtÃŃp ico
Ġv ientos
Ġinter iores
Ġe man
Ġimpresion ante
Ġ25 0
Ġnucle ares
Ġsecu encia
ÃŃ geno
Ġmi el
ĠYu gosla
Ġdu cha
Ġsal iva
ĠEst re
n ing
Ġcrim inal
ĠNa poleÃ³n
M er
Ġsum amente
P U
ĠT ay
or i
Ġinevit able
ĠCh ris
198 9
te to
Ġvol Ãºmenes
Ġta pa
Ġre an
ĠCatal ina
Ġfi jar
Ġc eb
Ġchil eno
gr ados
Ġcontrad ic
ren da
Ġco leg
Ġprofun das
di Ã©ndose
Ġch as
ĠK enn
Ġmane jar
Ġan g
Ġcap ÃŃtulos
a h
Ġexperim entar
gra mas
in amente
g il
Ġmer idi
di ces
Ġd anza
la h
Ġmar quÃ©s
ĠDomin ic
Ġayud ante
Ġmal dito
es is
Ġf ri
Ġf ina
ĠTo wn
Ġretir ado
Ġrenunci ar
ll amente
Ġrespe tar
on s
Ġtra e
Ġconvo ca
Est ados
Ġco bre
Ġatra er
cu las
ĠComis ario
Ġconsum idor
t ter
bo ard
Ġ6 00
o ce
Ġutiliz adas
ĠN ik
dr ÃŃan
Ġsal en
Ġsignifica tivo
Î ½
Ġtranspar encia
ĠAl cal
ag ue
Ġreco p
T AN
Ġe ficiente
ra mente
ĠFuer zas
Ġs how
b iles
Ġnov enta
Ġsecund arios
ĠAD N
Ġemp ap
Ġsobr ino
tern as
Ġcuid ar
Ġe rig
e to
Ġnombr Ã³
ĠA v
Ġprestig io
Ġres ign
g ran
Ġmedicam ento
Ġast ero
Ġsel va
Ġur gente
Â» )
Ġgen era
Ġtrans f
Ġin segu
ici osa
Ġincluy Ã³
Ġbal oncesto
Ġrecha zar
200 4
Ġex cusa
Ġfal da
Ġne er
x a
Ġsol tar
Ġf all
Ġdestac Ã³
Ġm adres
Ġrecom ienda
Ġl ist
Ġhaber le
Ġpubl ica
Ġlle guÃ©
du lo
Ġing re
uro pa
b en
Ġtrib us
ĠEu gen
Ġor n
r Ã©s
Ġaconte cimiento
Ġ9 7
Ġv elas
Ġacer car
ine tes
G R
ĠEnerg ÃŃa
Ġco pas
Ãºs ica
Ġcere ales
Cre es
Ġmanten iendo
A un
Ġcubr ÃŃa
Ġafirm aciÃ³n
ph y
Po demos
Ġoper adores
Ġtitu lada
m un
Ð µ
R ep
ĠN O
Ġtom an
ific aciones
ĠJa ime
Ġb ando
Ġinform ado
Ġrebel iÃ³n
ĠAu tÃ³n
ĠP am
Ġman tienen
201 4
Ġelabor ar
Ġtron co
ĠPrin cip
P h
b ie
ĠA Ã±o
Ġdivi de
Ġrefer ÃŃa
ĠT em
Ġdetec tive
Ġconv iv
l Ã©tico
ï ¿
Ġmone taria
Ġtor res
Ġadolesc ente
Ġde cep
tu osa
Ġclim Ã¡tico
ER A
Ġ194 7
do m
ĠA N
Ġconfigu raciÃ³n
Ġse p
Ġh ones
Ġcolo q
e u
Ġdivis iones
Ġabra zÃ³
Ġconcl uyÃ³
Ġapropi ado
ĠT orneo
rim ido
Ġdro ga
Ġcu Ã¡les
Ġcomple ment
ĠcÃ¡p ita
ci nas
y ac
Ġapar ecieron
duc to
Ġdis cap
ĠJ on
Ġsepar ados
Ġimp u
Ġi mb
Ġca os
ĠPer man
Ġcomun ista
ĠM endoza
ĠPo der
Ġor ejas
Ġexpres iones
D R
Ġe terna
Ġmejor as
ib il
Ġdistin ciÃ³n
Ġelec tr
Ġcre encias
ĠÃ© se
ĠM es
Ġcol inas
Ġocup ada
ĠK u
ĠmÃ³vil es
di al
la ga
ĠLea gue
Ġluch ando
i pos
don de
Ġpo p
Ġperpe tu
ill ones
Ġgal ard
D av
Ġm Ã³
Ġver sos
Ġval iente
je tivo
Ġcre ÃŃdo
Ġtra iciÃ³n
ĠF I
Ġbo de
in oso
ĠJ ar
ist ÃŃa
ĠUnivers ity
ĠTen emos
Ġviol aciÃ³n
ĠSud Ã¡frica
Ġofer tas
Ġacre di
ĠMar ie
Ġliter aria
Ġincl inaciÃ³n
Ġmag ist
Ġdiv ina
ĠcompaÃ± era
Ġtra go
Ġmar ino
Ġlimp iar
Ġcontinu aba
Ġrue da
Ġalterna tivas
Ġdepor tivo
Ġcual idades
Ġqu eso
ĠLen in
Ġpi diendo
ier ro
ĠD icho
ĠlÃ³g ico
Ġrum ores
ens ible
Ġau tos
Ġcam iÃ³n
Ġejemp lar
Ġv iera
ĠV III
Ġsub ray
ent ados
Ġex ha
Ġconsider ados
Ġint Ã©rpre
Ġ8 9
ĠNav arra
Ġo puesto
Ġvar iedades
Ġde jo
Ġexclus iva
Ġfr unciÃ³
Ġmos trando
en io
Ġmi lag
Ġescas os
Ġdedi car
Ġ4 7
Ġd uer
Ġb ul
ĠÃ³r bita
Ġtendr ÃŃan
Ġdese ado
Ġest acion
ĠXI V
Ġal erta
Ġse para
Ġdes orden
pon er
Ġcomunic ado
Ġclar as
Ġejecu tar
ster dam
Ġacostumb rado
to p
Ã¡st ima
Ġartifici al
Ġmate mÃ¡ticas
ĠIra k
F uer
Ġreun irse
Ġse mb
ĠCol lege
Ġconce b
Ġsignifica tiva
ĠA bra
Ġab ol
Ġrem ol
re pitiÃ³
ĠsÃŃmb olos
se a
ĠO x
ĠP ierre
ab al
Ã ²
ĠR in
ĠC H
Ġac tÃºa
ĠOc cidente
Ġinstal ado
Ġ5 2
du m
Ġcor tos
Ġcercan os
ĠScho ol
Ġ[âĢ¦ ]
Ġejerci cios
Ġpla ca
Ġautom Ã¡ticamente
Ġimpon er
Ġinter nos
Ġs h
Ġcumple aÃ±os
Ġalim entaria
Ġfi jado
Ġb l
ĠfenÃ³m enos
Ġsuav idad
Ġmon itor
Ġtras lado
Ġpecul iar
A B
s ky
Ġal berg
Ġpor tada
Ġmuer tes
Ġfrag mentos
ĠH Ã©
ĠAmeric an
el aciÃ³n
S erÃŃa
Ġvul gar
Ġven ÃŃan
Ġpresent ada
ĠH aci
ĠIn terior
Ġmonstru o
Ġro jas
ĠdÃ© biles
Ġsuces os
o cho
Ġestable cida
Ġt Ã³
Ġpro tocolo
Ġreno vaciÃ³n
Ġ195 2
g ena
bili ario
Ġcompe tente
Ġbes os
ĠvÃŃn culo
m amente
Ġtra tan
la je
Ġembara zo
Ġdig no
te os
Ġanf itri
Ġ194 9
Ġrecur rir
Ġarm ado
Ġsuces iÃ³n
R os
Ġobserv ado
d ando
Ġderro tado
Ġro j
p ensa
Ġfirm eza
vi deo
ĠCu ar
Ġpen dientes
Ġmin isterio
Ġmediev al
Res ul
qu ias
ĠÃ¡lbum es
Ġpens iÃ³n
Ġrecor riÃ³
Ġsi ga
Ġemb ri
Î ¹
ï¿ ½
Ġman dar
Ġhere dero
ĠbÃ¡s ico
Ġsecre ta
ĠAn exo
ĠH il
Ġenerg ÃŃas
ĠmandÃŃb ula
Ġcab ina
ĠE res
Ġ9 4
Ġpal p
Ġm s
Ġemo cional
Ġsuces or
Ġllam aban
Ġescu cha
Ġal u
Ġescuch ando
Ġen ve
ro ga
ĠPresiden ta
Ġenv ÃŃo
Ġdeba tes
200 5
ĠHo use
Ġto cado
Ġpla zas
lo w
Ġanci ana
Ġtrans curso
ĠAgri cultura
Ġv uestras
Ġameric ana
Ġmanifi esta
Ġpers u
eci dos
Ġtri go
ĠM iemb
Ġaum entÃ³
Ġexcep cional
or ra
Ġaband ono
ig er
ĠhÃºme do
ĠZel anda
Ġlo bo
Ġocul to
Ġmuch ÃŃsimo
Ġgas es
Ġconside rando
Ġplan os
pu blic
Ġven dido
Ġmodific ada
Ġren uncia
' ,
Ġco bar
p ue
Ġ195 4
Ġfron ter
pti ma
ĠConstan tino
w ar
ĠMe xic
Ġbal as
Ġnacional idad
Ġdist ritos
ĠRep res
Ġvolun tarios
ĠClar o
Ï Ĥ
p ros
ĠRoy al
Ġsin ies
ĠJoa quÃŃn
Ġexper to
Ġincor rec
Ġprovin cial
dos o
ex plicÃ³
Ġesf era
s ar
ĠG eo
Ġarquitec tÃ³n
Ġsusur rÃ³
ĠJ ones
Ġpracti car
Ġestruc tural
Ġhel ic
ĠelÃ©ctri co
ĠA eropuerto
Ġadolesc entes
Ġt ubo
ĠEs cri
Ġaden tro
Ġguer rero
f ri
Ġcre encia
Ġso is
Ġincon ven
ĠP RES
b all
c le
Ġdi ri
Ġinter venir
de za
ta in
Ġacarici Ã³
us as
Ġsober anÃŃa
f le
ĠTo das
x ido
gas e
Ġexp osiciones
cu er
en de
Ġfutu ros
ĠN an
c aciones
ig ma
Ġten dremos
Ġrad iaciÃ³n
ĠE CU
ĠPa ulo
n g
Ġp acto
Ġpresent aba
Ġgust an
c to
dill era
Ġcre ciÃ³
Ġma tan
Ġguar di
Ġdel a
Ġdesp ierta
ĠaquÃ© l
Ġinv as
Ġtem ÃŃa
Ġ9 8
Ġafec tado
Ġcel da
Ġcon tando
A lex
Ġmi lagro
Ġjue ves
Ġse xto
ill y
Ġam antes
Ġavan zÃ³
Ġps ico
Ġmir aban
ĠTor res
S te
ĠGu inea
ĠCar olina
Ġtej idos
r erÃŃa
Ġpu Ã±o
Ġresca te
Ġr ent
Ġinsec tos
ĠL ic
Ġpublic ados
Ġnoble za
so bre
ĠÃ³ p
ĠseÃ±al ado
Ġsos tiene
ĠCon se
Ġcap tura
Ġlim itar
Ġvis ual
ĠT w
Ġme todo
Ġtranquil iz
Ġ195 3
Ġlidera zgo
Ġch al
D icho
Ġale gro
Ġpo zo
ĠaÃ± ade
ĠMay o
Ġplante a
Ġdesempe Ã±Ã³
Ġacu er
E h
ven ido
Ã³ stico
Ġ8 6
e Ã±a
Ġan aliz
Ġcomplic ado
ĠPro tecciÃ³n
Ġlabor ales
Ġpresent aron
Ġabog ados
ter apia
Ġafirm ar
Ġmer ca
Ġanti gÃ¼edad
Ġpose er
Ġvari able
Ġz an
Ġson ar
Ġp enas
Ġtemp rana
Ġindispens able
Ġsub ord
Ġanci anos
Ġlater ales
go tÃ¡
jal Ã¡
Ġcomp asiÃ³n
Ġcir ugÃŃa
ĠCrist ina
Ġencuent re
Ġ193 4
ĠB ene
Ġ193 1
pe ones
Ġdel itos
ĠJo an
Ġhier bas
on de
Ġsi erra
Ġadqui riÃ³
Ġdemand ante
Ġre tom
Ġsan ta
Ġcole ga
ĠAlber t
Ġman ual
Ġox ÃŃgeno
ÃŃ l
ĠCol um
Ġreun idos
Ġencar go
m ens
Ġv Ã©r
c ante
bus es
ĠacadÃ©m ico
Ġe mitir
ol viÃ³
Ġdeclar a
Ġhabl aban
Ġsur ge
id ro
Ġencar gar
di cal
! ...
To da
Ġpedir le
ĠA S
ment al
D ado
Ġayud ado
Ġmon arca
Ġreac ciones
Ġjapones es
or s
f ru
ĠWal ter
Ġconj unta
can es
Ġun idos
c ano
Ġpre vis
ĠfÃŃs icas
Ġch arla
ĠA udi
ur ado
i fer
Ġtecn olÃ³gico
Ġcolec tivo
Ġinm enso
Ġin tra
Ġan ar
Ġinvis ible
her ine
Ġh ÃŃ
Ã¼ r
Ġextra Ã±os
Ġatra vi
Ġefectu ar
Ġconstru cciones
Ġad quier
le os
Ġguar n
Ġ Å
Ġpin tores
ĠAquel la
cu atro
Ġmis a
Ġarro dill
Ġfamos os
Ġtr Ã¡g
Ġadministra tivo
ĠcatÃ³ licos
am ba
i arse
Ġorganiz Ã³
ĠCar ol
ĠMo vimiento
ĠpaÃ± uelo
Ġre e
Ġdefens or
Ġ- -
Ġesc Ã¡ndalo
Ġhi p
Ġa tor
Ġrepresent ado
Ġprision ero
Ġsu ena
ĠA po
Ġdeber ÃŃamos
polit ana
rin cip
Ġl Ã¡p
Ġh Ãºn
ma y
Ġincons ciente
Ġ9 1
Ġir ÃŃa
Ġasegu ra
Ġrodi lla
d ada
Ġcu mp
Ġneu tr
Ġsig las
ĠZ o
Ġregres a
Ġdescar ga
Ġencar gÃ³
ĠEm ma
ĠV ida
Ġexac ta
Ġtrage dia
Ġp ido
Ġag encias
ĠTo k
ĠIn di
Ġab rieron
ĠCÃ³ digo
entar ias
ĠSim Ã³n
Ġlej ano
Ġv Ã©ase
Ġagrade cer
ĠlÃ¡mp ara
te ga
Ġinteres antes
Ġesc alo
Ġdi osa
Ġf es
Ġcrist ianismo
Ġan ex
Ġex terna
Ġmen ciÃ³n
Ġtab las
Ġextra Ã±
ĠSo fÃŃa
G I
di gos
Ġadministra tivas
Ġde grad
Ġprovo cado
Ġterror ismo
Ġch inos
Ġsac o
ĠP ales
Ġpres os
Ġam ado
Ġreda cciÃ³n
Ġrela tos
Ġdep risa
ĠIn s
Ġarm ada
Ġimp o
Ġlim itÃ³
l Ã©
Ġarmon ÃŃa
Ġmis ion
Ġinquie tud
Ġv ener
Ġref ieren
s Ã©is
ĠclÃŃn ica
ĠPres s
ĠenseÃ± Ã³
D ic
u o
Ġl ord
Ġredu ce
g ie
ri k
ic ul
f ÃŃs
Ġcan ta
Ġreconoci da
Ġsa grado
Ã³l ico
Ġp ab
Ġidio ta
Ġ19 17
Ġ9 9
pues tamente
Ġcontinu idad
Ġprofes ora
g icos
Ġru mor
Ġdemas iada
Ġinstru cciÃ³n
Ġcrist ales
Ġsens ibilidad
VI LLA
Ġn acer
ĠbÃ¡s icas
Ġab o
Ġgen io
j ante
P r
Ġdes com
Ġintelectu ales
Ġserp iente
Ġa je
ĠSegu ro
Ġnorte americano
ĠcatÃ¡ logo
ĠK at
ÃŃs imos
Ġdestac ados
Ġp si
ĠCor n
ĠCor ona
Ġdi jera
Ġp ion
Â» ;
Ġfil osÃ³
Ġcaus Ã³
Ġindi cado
Ġm ero
Ġest abil
Ġto caba
Ġis leÃ±os
Ġregist rado
ĠWh ite
ĠCor tes
res as
Ġale jado
Ġimp ed
Ġcomerci antes
Ġhumil de
ĠhÃ¡bita t
Ġc ro
Ġindi o
Ġatra cciÃ³n
Ġdi eta
el ar
Al rededor
terrÃ¡n ea
ĠVie tnam
Ġpre fi
Ġmin erales
ĠZ e
Ġexil io
Ġg ros
g ener
de cÃŃa
Ġpresiden cial
Ġcompe tir
Ġllev arÃ¡
gu esa
Ġenerg Ã©tica
qui riÃ³
Ġprob abilidad
Ġan exo
Ġex clam
Ġsol lo
Ġdemos trÃ³
Ġcal cular
Ġvesti da
uer as
Ġdieci sÃ©is
ĠcÃ³mo da
Ġhor ario
Ġesc and
Ġpod remos
Ġre cip
ĠBiblio teca
Ġo lÃŃmp
Ġperju icio
Ġvol viera
Ġt rim
ĠJ am
Ġalar ma
Ġca deras
Ġbre vemente
Ġpros titu
Ġan cha
Ġvolver se
ĠM ora
Ġco aliciÃ³n
ĠLu ci
Ġchocola te
or ios
ĠG i
Ġllam o
Ġar cos
Ġsin tiendo
Ġinst an
Ġllev arse
f ol
Ġhubi esen
ie te
Ġofre cido
ĠÃ©po cas
ĠS om
Ġfigu ran
Ġenten dimiento
Ġinici ales
ĠacompaÃ± ada
... ]
Ġpeligros a
Ġcerem on
P C
Ã©n ez
Ġrep Ãºblica
ĠJeho vÃ¡
z ara
Ġref uer
ĠD am
T S
a ti
Ġafron tar
Ġreconstru cciÃ³n
on ada
Ġgratu ita
Ġofens iva
Ġcam in
M at
ĠW at
l is
Ġconduc ÃŃa
Ġpartid arios
ĠD ecreto
if as
aci os
T rans
Ġfres ca
Ġapar ente
Ġin us
Ġri gu
Ġconvir tieron
Ġarmon izaciÃ³n
Ġna z
Ġpeda zos
Ġsal ario
Ġvo tar
Ġcomp one
... ,
Ġfr Ã¡g
Ġjue ces
br ar
Ġprohi bido
tÃ¡n ica
Ġsuf re
Ġro bar
Ġver emos
Ġdest ina
Ġeleg idos
Ġfi jo
s burgo
Ġabsur do
ĠVas co
ĠSo uth
Ġafec tan
Ġ5 1
P ese
Ġfues en
ĠEcon omÃŃa
l id
Ġestable cidas
rig ht
Ġpl omo
Ġmec Ã¡nica
ĠCul tural
Ġenferm era
ĠFre d
Ġcolec tiva
Ġcatal Ã¡n
G ener
Ġrecon cil
ĠVirgin ia
Tam poco
Ġcap ri
ĠE vangelio
Ġ5 6
ie ta
Ġcar gas
Ġl ana
Ġtom o
Ale mania
Ġlle ve
Ġape te
Ġv il
Ġar zobispo
ĠenseÃ± ar
Ġas ientos
Ġeduca tivo
ĠJac ques
ĠH y
Ġinst into
Ġa ci
Ġcompon ente
Ġci elos
ag n
ĠCuer po
Ġub ica
Ġdi am
ĠAr t
Ġest ilos
Ġrep lic
Ġrevel Ã³
esti as
iv ar
ĠBa u
Ġtriun f
Ġrepres iÃ³n
Ġcolon ias
Ġempren der
ĠO f
s oci
gu s
Ġrespec tivos
Ġdirec trices
Ġinflu encias
Ġa tes
Ġfr unci
erse y
Ġcans ada
e j
Ġneces itas
Ġasist ente
Ġsup lic
Ð ½
vi al
Ġbatal las
Ġdest inos
ĠR yan
E d
us h
Ġno tables
ĠT eo
Ġda ta
Ġpasa je
Ġhuel ga
f un
mb res
gu er
Ġman chas
Ã± Ã³n
Ġ193 5
Ġde vas
ac re
Ġges tos
Ġdepor tista
Pu blic
Ġg re
Ġcambi ando
Ġcaba Ã±a
Ġco pi
Ġcorrespon dencia
Ġsal ÃŃan
P la
Ġpercib ir
ĠK y
Ġmencion ados
Ġ www
ĠP ic
Ġsu ble
Ġanunci os
ir man
ĠB lo
ĠI ll
Ġexpecta tivas
Ġtu yo
Ġ Ã©n
de re
h ara
Ġfac ciones
Ġg all
Ġex cur
dor o
p lo
Ġdel gado
Ġasum iÃ³
ĠK al
ur ne
che vi
ĠCom pan
Ġarran car
Ġveg e
ĠChrist ian
Ġfabric antes
Ġdepen dencia
Ġden uncia
Ġsosp echa
Ġrode ada
Ġde tenciÃ³n
Ġfu turas
cion ario
Ġser lo
Ġman siÃ³n
ĠFran ces
Ġllor ando
Ġmaravillos a
es u
Ġpo tente
Ġintegr al
Es cu
b Ã³n
Ġdese an
Ġtendr Ã¡s
Ġcomp ut
Ġsil ves
Ġfantas ÃŃa
ĠN et
Ġjun ta
Ġdin Ã¡mica
Ġdomici lio
Ġob vio
ĠB io
Ġson ora
Ġexplor ar
Ġb estia
Ġprogres os
ue ta
Ġref iero
Ġarro yo
Ġ193 2
Gan Ã³
Ġsal udo
Ġcer Ã¡mica
cer ti
Ġlibre mente
Ġhabitu ales
Ġcu lo
Ġten gas
Ġ8 00
Ġescri tas
Ġnu ca
Ġpilo tos
Ġbel ga
Ġ8 8
Ġencan ta
Ġtribun ales
Ġu Ã±as
Ġdos cientos
Ġestad ÃŃstica
Ġpe ores
e an
Ġens an
Ġch ina
Ġante pas
S erv
Ġcr Ã¡neo
G ra
Ġ19 18
dones ia
Ġmundi ales
Ġleal tad
ÃŃ f
ingun o
Ġespecial istas
Ġdieci ocho
Ġinter min
Ã ´
Un os
Ġ19 29
Ġpe dÃŃa
ci llo
ĠDemocrÃ¡ tica
en ciÃ³n
Ġproduc tividad
ĠÃ¡ngel es
Ã¡ vez
Ġcomien zan
n eg
fas is
Ġactu Ã³
Ġfirm ar
ĠMar ta
po t
ĠJack son
Ġfundam ento
Pa ÃŃs
Ġilum inaciÃ³n
In ici
Ġcontribu ciones
Ġmal dita
ire mos
Ġhay as
ĠC e
Ġacog ida
ĠG en
her iff
Ġver Ã¡
Ġsemi fin
ĠSam uel
Ġcan san
Ġal ba
Ġfi jÃ³
Ġrode aba
Ġcomp rÃ³
ĠcÃ¡l ido
Ġenfer ma
Ġtr om
Ġprotes tas
Ġasegu ro
Ġtarje tas
c las
cin di
Ġsosten ÃŃa
Ġnie ga
a e
ĠD ur
T OR
Ġadver tir
Ġvar ones
Ġclar os
V iv
Ġpa quetes
ĠcÃ³mo do
Est Ã¡n
Ġreh abil
Ġtr in
ĠJu ana
ĠpÃ¡jar o
ĠestÃºp ido
Ġfu imos
Me jor
ra te
ist ente
Ġinfan terÃŃa
Ġes cultura
ci sta
ad i
Ġ195 1
Ġb uro
Ġespecial ista
Ġsovi Ã©tico
ĠFilip inas
Ġcelebr ada
Ã¶ r
Ġdescen dientes
Ġ5 4
Ġregu laciÃ³n
Ġpoder osos
Ġlog rando
ĠdÃ© fici
ĠMer cedes
ri t
Ġjapones a
Ġher man
Ġen Ã©r
n or
Ġasesina tos
es p
ur us
Ġmi to
ĠI X
ri as
Ġliber ales
ĠAt lÃ©tico
ĠSe lecciÃ³n
ĠJ ue
Ġmaes tra
v ich
cip es
Ġfra ude
Ñ Ģ
ga ta
pu lo
os idad
Ġan to
Ġsuper visiÃ³n
ol i
ĠLu cÃŃa
Ġterror istas
Ġi m
Ġlec ciÃ³n
Ġcontro vers
Ġcar tera
Ġpros egu
Ġesp l
Ġpar ientes
Ã¡ mb
ĠHern Ã¡ndez
ĠbÃ³ ve
Ġra p
Ġaer ona
Ãº d
P AR
Ġincl usiÃ³n
Ġjo yas
ĠMil Ã¡n
Ġrec ta
Ġc iego
G U
Ġdivi dido
ĠHa w
Ġingres Ã³
ĠdiÃ³ cesis
form es
Ġsen ador
bur y
Ġsi enten
Ġcru ce
Ġre en
Ġpos es
ĠA k
Ġvisit ante
Ġcaracter es
Ġdespre ci
M C
ĠEst os
ĠYugosla via
ĠE v
Ġsorpren dida
Ġconf iden
Ġch e
y u
Ġcay eron
Ġj ar
Ġa genda
B RE
ingun a
am ina
bi mos
et y
Ġsu yas
Fu ente
Ġsup l
Ġaf ueras
Ġcontempl Ã³
Ġdes b
Ġpodr Ã¡s
Ġconoce mos
Ġno ciÃ³n
Ġaprob ada
Ġorgullos o
Ġgim nas
ĠRec uer
Ġms nm
Ġeva cu
D ec
Ġfo tÃ³
Ġinst in
Ġadecu adas
Ġbas ados
Ġllegar ÃŃa
Ġd amas
Ġcent r
ĠPo drÃŃa
Ġconcre tamente
des de
Ġfu rioso
vo z
ĠAlex ander
ĠEURO PE
ĠM ill
min ente
or ient
Ġn Âº
Ġdon cel
Ġru bio
Ã³n ima
er na
form as
Ġtea tral
Ġhal laz
Ġmar x
Ã© ticamente
Ġg alo
Ġn udo
T EN
Ġprote ÃŃnas
eg as
Ġll enas
Ġdefin ido
Ġbande ja
ĠÃ©n fasis
tam e
Ġconv icciÃ³n
ĠS port
Ã³ lica
iz ando
tin as
Ġal tern
Ġambient ales
Ġdej aban
Ġvas os
Ġhabitu almente
Ġref res
Ġverda deros
Ġca ch
Ġhab le
Ġde cenas
Ġpubl ici
udi ciales
Ġaz u
Ã³l era
res e
Ġo la
Ġgris es
Ġdev or
ĠK im
Ġexcl usiÃ³n
Ġreco ge
aman ca
tr y
Ġesta tura
Ġbel lo
Ġfin alizÃ³
Ġveget ales
Ä ĩ
Ġafec tar
Ġinterac ciÃ³n
Ġen trando
Ġpreguntar le
ÃŃfer os
ĠPo dÃŃa
ĠA cu
ĠSupre mo
ĠL on
Ã¡r qu
Ġintim idad
Ã¡ z
Ġ1 000
ĠautÃ³n oma
mi tiÃ³
Ġdej ara
Ġm adu
Ġcel os
Ġesenci almente
ros s
Ġfin ca
ĠAr gent
ĠT Ã©cn
ĠG ib
ĠcomÃºn mente
ĠmÃ¡s cara
de ar
Ġrepresent aba
Ġrean ud
Ġconjun tamente
Ġconce diÃ³
ci ma
tic ano
Ġsue los
g h
ĠS um
ke ting
qu in
Ġpa gado
te ar
Ġsenci llos
ist oria
Ġfru ta
âĢ¦ !
Ġch ill
L lam
ĠPrim ero
Ġdescon fi
Ġinde mn
V ale
de cer
ub e
ĠfÃŃs icos
J ul
g i
Ġenter rado
ins istiÃ³
ĠdemocrÃ¡ tica
r adores
Ġesque ma
ĠI tal
Ġlog ro
Ġf ic
Ġsole m
om en
ut s
ĠG Ã©n
Ġna tivos
ĠBos ton
ĠC las
Ġcompren dÃŃa
Conside rando
Ġinf lam
Ġtern ura
F echa
Ġhum ill
Ġmural la
ent ario
le tos
Ġlimit aciones
Ġrecl u
iz ca
Ġten diÃ³
v ana
Ġdirector a
Ġdescri biÃ³
ĠOb s
Ġalma cÃ©n
Ġdirec tivas
Ġdeter mina
Ġ201 9
ĠAst urias
st al
Ġincre mentar
Ġd orado
Ġmi Ã©rcoles
ĠÂ« "
ĠA la
Ġor al
til los
ĠXX I
Ġparale lo
B en
Ġcu ader
Ã¡ us
Ġarro jÃ³
Ġsustitu ir
Ġemb le
Ġobten idos
Ġinv itÃ³
ĠBo gotÃ¡
do p
Ġcircunst ancia
ĠaÃ© rea
' .
ĠM E
ĠK er
ĠAr gel
p ech
ab ar
Ġsitu ados
Ã¡ ramos
ĠCa tedral
Ġobs es
Ġexpres Ã³
Ġb il
gu los
Ġpeligros os
ĠMat t
ĠRod rigo
ĠGo ogle
Ġreti ro
P R
Ġautom Ã¡tica
Ã «
ion e
A F
Ġcons uelo
ĠBul garia
Ġprim as
mon os
Ġpulm ones
Ġaf ric
Ġexten dÃŃa
Ġin certi
ara Ã³n
Ġllev arÃŃa
Ġatraves ar
ĠB ajo
Ġalm uerzo
Com enzÃ³
m ante
Ġcre cido
Ã¡ i
ĠRos e
Ġre estructura
Ã± an
ĠS S
Dav id
Ġest reno
ĠD I
Ġpien san
Ġgeo grÃ¡fica
Ġus ada
T a
Ġc Ã³lera
oc al
Ġ0 4
Ġmar car
Ġcre ÃŃ
ĠVal ent
G o
Ġobten iendo
Ġamena z
Ġdul ces
Ġcompens aciÃ³n
Ġevidente mente
it Ã©s
Ġman u
Ġme tales
o cup
Ġpudi endo
Ġb Ã¡r
ĠEsta tu
Ġer rÃ³n
Ġcansan cio
Ġdep Ã³sitos
Ġor aciones
Ġenfrent amiento
ĠB rad
Ġintern as
Ġo y
Ġadver tencia
Ġpron Ã³stico
ib a
Ġoblig ada
Ġhistori adores
Ġmuel le
Ġcas ada
Ġsalva jes
Ġtien de
ul la
Ġsome tido
Ġprev al
Ġo tom
ĠFlor encia
ĠfÃ¡b ricas
Ġverti cal
Ġdetener se
Ġpas arÃŃa
Ġescrib iendo
Ġw his
Ġmoder nas
ĠConfe deraciÃ³n
Ġelec tro
Ġser en
ĠelectrÃ³n icos
Ġactiv amente
Prim ero
Ġvia jÃ³
Ġson aba
ches ter
Ġnaran ja
d ÃŃas
F o
g am
ĠReg iones
ĠPas cu
Ġh ura
Ġmar tes
Ġtu ya
Ġper ple
Ġper dieron
Ġnombra miento
Ġpien sas
Ġcoo per
Ġen vÃŃa
Ġten Ã©is
mit en
Ġseleccion ar
Ġcar gado
Ġexig ir
Ġ19 14
Ġre iv
ĠA un
tific ado
Ġ7 7
ĠN orth
Ġf emin
Ġ Ã¡s
Ġ8 4
den a
Ġcons cientes
ĠcatÃ¡ stro
afirm Ã³
Ġcomple jos
Ġr Ãº
ĠHaci enda
Ġmol Ã©
ĠM I
Ġsuav es
Ġd uros
Ġen tran
and Ã©s
Ġcome ter
Ã ¸
Ġton to
Ġpal o
CI ENTE
Aquel la
Ġcre ciendo
br ÃŃ
ba o
w ork
Ġdesp ro
Ġpar ad
Ġnoso tras
ĠSerg io
ĠEst eban
ĠacompaÃ± Ã³
Ġcomp ara
Ġir me
Ġhaber me
Ġdec ÃŃr
Ġparti Ã³
ĠRu iz
Ġlluv ias
se y
ĠÃģlvar ez
Ġdesconoci da
ten a
Ġemple ar
Ġderro tar
Ġgran o
Ġdorm ÃŃa
Ã¡s ico
Ġproven ientes
Ġdes cal
Ġon da
Ġdecir se
om end
in arios
tu ve
ĠM ul
ĠD ig
ĠVal enci
bl aciÃ³n
I DAD
Ġimp ide
M or
ĠRog er
ĠA th
Ġrecha zÃ³
P PE
ĠTo da
ĠÃ©s a
Ġrid ÃŃculo
198 8
Ġas amblea
Ġinterro ga
dez co
Ã¡ ter
Ġ7 6
Ġenfr entÃ³
Ġcamp an
ĠTer cera
ĠLu ke
ris on
Ġconex iones
ĠespÃŃritu s
ĠHab ÃŃan
ĠdiscÃŃ pulos
Ġtor tura
Ġjud ÃŃa
In forme
Ġretras o
' )
Ġno t
Ġle v
Ġveinti cinco
Ġsimb ol
Ġabord ar
N T
Ġab iertamente
Ġco di
â ĸł
ĠBel las
V a
Ġabund ancia
Ġin cent
Ġconcre tas
Ġcom entar
ĠWil son
Ġequi pa
ru dencia
Ġsa ca
di g
Ġin to
ĠespectÃ¡ culos
ĠCar acas
Ġpl umas
t ana
Ġesc ru
Ġproteg ido
Ġextran jera
Ġfa una
Ġguard Ã³
Ġest rib
d arse
oc ado
Tu vo
Ġgras a
Ġsir v
Ġencan to
Ġlog ros
Ġapoy ada
Ġavan zado
Ġtra ma
ĠPro yecto
ion ada
ĠdemocrÃ¡ tico
Ġsu puestamente
A u
ĠC ielo
Ġtor ne
Ġencen diÃ³
ĠmarÃŃti mo
Ġa tur
Ġencu esta
Ġdevol viÃ³
M irÃ³
k an
ĠP om
ĠE p
ĠS U
ĠPo co
Ġexten sa
Ġrecib iendo
ĠChi pre
Ġdej arlo
Ġin est
min g
Ġespl Ã©n
Ġaum entado
Ġdesem boc
Ġclan dest
it ter
Ġmar is
Ġcel ular
ĠA M
Ġterremo to
Ġemple os
Ġincl in
Ġen mar
Ġpreocup ada
Ġris as
gu ra
M Ã©
Ġempu jÃ³
ĠL ong
Ġay untamiento
j ug
i ka
m ia
Ġllen ar
Vol viÃ³
Ġfalle cido
Ġregular es
ĠServ icios
ĠK ate
Å «
Ġinspec ciÃ³n
Ġma trimon
ĠT ienes
Ġesta tus
ĠW ood
Ġllev ada
l Ã³g
Ġdecir te
Ġpos tu
ĠAu gusto
allado lid
Ġvol ante
a tor
ĠL ord
iro t
ĠcatÃ³ lico
Ġsenci llamente
ÃŃc ola
uel tos
Ġestable cimientos
Ġley Ã³
Ġexperim entos
ad ir
Ġfu Ã©
Ġin tac
Ġinf ecciÃ³n
Ġrode a
M arÃŃa
Ġsan tuario
Ġespeci alizado
Ġdiv ino
Ġdem ues
z amos
Qu iere
Ġdi aria
ĠAn ne
Ġafec tadas
cor e
iz aba
Ġpu Ã±os
Ġr uego
Ġavan zando
Ġdiver siÃ³n
dic amente
ĠIn f
Ġano che
Ġentrev istas
Ġsobre pas
ra to
Ġlevan taba
ĠEl los
Ġburgues ÃŃa
ĠsÃ³l ida
Ġpantal Ã³n
Ġpermi tiendo
Ġexp uesto
cer os
Ġtor tur
Ġsimul tÃ¡neamente
Jes Ãºs
ĠA penas
Ġbicic leta
Ġcam as
Ġbu f
Ġliter almente
Ġmol esta
Ã±os a
ĠS tra
ĠBus h
Ġm ina
ĠGal icia
Ġargu ment
Medi ante
Ġpronunci ar
in io
Ġinm ort
Ġrecog ido
fon ÃŃa
! âĢ¦
t ona
pos iciones
Ġauto buses
Ġdis puso
ĠAl icia
Ġreac cionar
ĠfilÃ³so fo
Ġman ta
Ġdespe dida
Ġsus ci
Ġpreci oso
Ġro ta
ĠP IB
Ġles iÃ³n
Ġdestru ido
fer ente
ĠCon tra
Ġbon dad
Ġindependiente mente
ĠEspaÃ± ol
no w
Ġdemos traciÃ³n
Ġrup tura
ti cias
Ġus ados
Ġpar es
ĠCon cepciÃ³n
Ġdi lig
ĠVe ga
hi biciÃ³n
vi ado
Ġros as
ĠcÃ©le bre
ĠCon de
Ġsolici tÃ³
Ġindic adores
Estudi Ã³
si der
iv idad
Ġpie dad
Ã¨ re
ĠGeor gia
h ard
Apro baciÃ³n
Ġcay endo
Ġh ig
Ġmural las
ĠHolly wood
ĠB ig
Ġap aci
A p
Ġpue das
Ġsustitu ciÃ³n
ĠG e
ĠGonz alo
Ġtom e
Ġexist ÃŃan
ÃŃs imas
z y
Ġfortal ecer
Ġvari ables
ĠQu izÃ¡s
Ġconcre ta
Ġtir ar
ci no
ĠvÃŃn culos
Ġlad y
Ġcar tel
ĠK ong
Ġblo ques
Ġaf e
ur ÃŃ
Ã³ bal
Ġpon ga
Ġfinanci ar
Ġar bi
Hab ita
ĠAutÃ³n oma
us ieron
Ã³ rico
Ġcompe tentes
ĉĉĉĉ ĉ
Ġ5 3
i bre
ici smo
Ġdirec tores
ĠS ici
Ġe ru
ul ares
Ġform aron
Ġlimp i
ã ģ
P ien
ĠRob in
Ġlan zada
Ġestar ÃŃan
Ġfle cha
Ġpatr ones
Ġpres tado
ĠAm or
Ġsal arios
ĠindÃŃ gena
Ġcer do
CRE CIENTE
Ġmer ced
Ġhab ÃŃas
Ġconvenci onal
Ġdiscu siones
Ġdesper di
Ġqued arme
Ġe terno
ĠFo x
Ġb risa
ĠEsp ero
Ġhab lamos
ĠB i
Ġmis ericor
CAL LE
Ġdij iste
Ġprotagon istas
Ġindi ferencia
Ã§ o
ĠAr turo
ti e
sh ire
Ġac cion
Ġtro pe
Ġmis eria
Ġconce dido
ĠDic tamen
ĠCÃ¡ diz
ĠobstÃ¡ culo
Ġgrab ar
S im
Ġdetec tar
ĠLa w
Ġdig na
Ġver as
ĠFin almente
ĠFon dos
Ġadop tadas
ĠVa ticano
Ġl Ãº
Ġpas tel
ĠenseÃ± ado
Ġb acter
Ġvig ente
Ġ8 7
ilan dia
Ï ģ
Ġagrade cimiento
Ġflex ibilidad
ĠsÃ³l ido
ĠD ay
ch an
Ġpresent aciones
Ġpa tente
Ã³ tica
Ġne um
ĠUn os
Ġgen Ã©tica
Ġwhis ky
Ġf icha
ĠW es
Ġestre m
Ġdese ando
Â ĥ
Ġcar g
Ġdesf avor
ĠRos s
ĠclÃ¡s icos
Ġco he
Ġalf abe
Ġn ac
Ġtranquil amente
er ial
Ġimag inado
Ġmar inos
ĠMir anda
Ġ19 28
ĠpÃ¡l ida
C l
Ġdes ol
Ġjust a
ris as
Ġqued arÃ¡
Ġincorpor aciÃ³n
ĠV ill
Ġqued arÃŃa
Ġru bia
Ġcon fec
Ġdelan tero
ĠL im
Ġcom idas
Ġredu cida
Ġen tab
Ġhall aban
Ġcu ota
Ġfavor ecer
m Ã³n
198 7
Ġen ven
Ġsalud Ã³
Ġpe d
b ell
ĠTh or
Ġvari aciones
Ġpreocu parse
Ġescon dido
Ġemp eor
ĠC iencia
f amilia
Ġdise Ã±os
D ie
ĠJohn son
ĠChar lie
Ġapar tados
ĠS A
Ġres oluciones
Ġalum no
Ġmal eta
Ġdirig idas
ĠD ick
Ġliter ario
ĠMi ami
Ġgab inete
Ġproduc ÃŃa
Ġmo ch
c encia
Ġs heriff
Ġdesl izÃ³
ĠcÃ³ mp
Ġtex tiles
Ġab riendo
ĠMÃ¡ laga
ti f
ĠAr tÃŃculo
Ġles iones
ribu ciÃ³n
Ġabra zar
Ġ19 19
ĠIn fan
it en
Ġciudad anÃŃa
Ġimpres cindi
tien da
ta ca
Ġdeman das
ec erÃŃa
ĠAl guien
Ġba u
Ġcar ru
ĠBri an
Ġestim ul
Ġtamb ale
Ġconven io
ĠKar l
Ġgan ancias
Ġin al
Ġlec ciones
ÃŃ ticas
Ġja zz
ĠUnivers al
âĢĶ ;
k istÃ¡n
Ã¡p oles
Ġconoc ÃŃan
so cia
Ġprotagon izada
Ġsal vado
Ġapar camiento
Ġh arÃ¡n
gu ila
Ġ6 6
ĠJ ud
Ġprepar ando
ĠCh Ã¡vez
ĠH ombre
lova quia
ĠsÃ³ tano
ĠEE E
Ã¡ce as
Ġfacul tades
Ġg laci
Ġvolver Ã¡
ĠI ba
Ġri tual
fic as
Ġexcel encia
ge la
Ġmir arla
i tim
Ġproduc ciones
T P
Ġca jÃ³n
Ġex quis
Ġllan ura
qu illo
ĠBa ja
Ġfom ento
Ġch am
Ġno taba
eci ente
ti emp
Ġestudi ado
it t
ĠB ang
Ġeti queta
? Â»,
Ġprom ul
and y
Ġve j
vers idad
e Ã³
Ġhab il
Ġre iter
Ġins inu
te xto
ĠLeg isla
ĠgrÃ¡ fico
S il
Ġcomp itiÃ³
Ġe ternidad
Ġdisminu ir
Ġinv itar
Fuer on
ĠparÃ¡ metros
naci do
um bra
Ġsab io
Ġfun da
ER O
ĠIndepen dencia
ab ro
Ġmad ri
d ares
ĠsÃŃn tesis
ĠC lo
Ġob ispos
M AR
Ġfrances as
ĠH igh
Ġlu jos
ĠreÃºn e
ab ul
ĠS pi
gen d
Ġconstitu ir
te z
Ġleg ado
Ġcent ra
Ġconce de
................ ................
Ġsub e
ĠG uy
Ġpropa ganda
ĠprÃ³ ximas
Ġtrop icales
Ġhel ado
f ens
Ġaf ri
Ġri endo
Ġjug aba
Ġinvestig ador
ĠB ron
Ġreun ido
ĠIsa ac
Ġbrasile Ã±o
Ġ0 2
Ġtim bre
Ġaument ando
rÃŃ e
Ã©l ix
Ġinterpre tado
F C
Ġalf ombra
Ġir Ã¡
ry s
Ġdes ar
Ġpes adilla
duc ciones
Ġcam ion
ri an
Ġmarin eros
ĠCompan y
L ib
tor ÃŃa
ĠEmil io
Ġl Ã¡stima
Ġf ino
ĠG lor
ĠP A
Ġavent ur
Ġtera pia
J ug
Ġcomple ja
Ġdeten idos
ĠenseÃ± anzas
Ġu ti
ĠC ora
ÃŃ var
ĠN ico
F OR
g y
ub er
Car los
ĠM Ãºsica
Ġfu ga
Ġguitar rista
T ex
Ġa tro
ĠAl ma
Ġfal s
Ġdar les
Ġca Ã±a
ĠÃºn icas
ĠP ir
Ġprim or
ch u
Ġor todo
tr u
ĠdÃ©fici t
Ġtendr Ã©
Ġimplement aciÃ³n
ĠO tros
par on
Ġmon tes
ĠCol Ã³n
Ġconst antes
ĠtÃŃp ica
ĠMonte video
Ġep ÃŃ
Ġreg ÃŃmenes
Ġcu otas
Ġresul tan
ĠL iv
Ġcog ido
Ġtom ada
Ġimpor tar
Ġb ola
ĠNe ws
Ġre ten
Ġser iamente
ĠG ales
ĠH ong
Ġbar rera
em bol
Ġgri tando
Ġinmig raciÃ³n
ĠPla y
Ġresplan dor
Ġmarch ado
Ġviol enta
Ġenter ado
d ona
Ġau tÃ³
Ġsonre ÃŃa
Ġma pas
Ġescal ones
Com p
te ado
Ġres uelto
Ġcl Ã¡us
Ġus aba
h on
Ġconf ort
Ġcolombi ano
Ã³n icos
Ġsos tuvo
Ġcapital ismo
ri ma
ĠAÃ© rea
Ġcam inaba
rish na
Ġgaranti za
Ġlu chas
ens is
Mad rid
Ġsocial istas
Ġtan ques
Ġescen arios
Ġmagn ÃŃfico
ces iÃ³n
Ġcompr endo
ti bilidad
Ġelig iÃ³
Ġhe bre
ĠMedi cina
n is
Ġrecom pensa
g icas
Ġa tÃ³
ĠHÃ© ctor
ĠRo ja
Ġreestructura ciÃ³n
r ÃŃas
ab ia
Ġcam iones
Ġases inos
p ica
Ġformul ario
so port
TI CA
Ġconse jero
ĠCap itÃ¡n
ĠHon or
Ġres ide
Ġcompar tido
Ġcre ador
Ġmodific ado
Ġespecta cular
Ġmun dos
w orth
Ġg lu
re v
Ã©s imo
on el
ĠG io
ctor a
les s
T C
Ġjug ado
Ġcontra tado
Ġcier ra
Ġpertur b
Ġcanad iense
Ġconfirm ar
Ġenv uelto
Ġconsegu ÃŃa
ific ados
Ġhor no
Ġapresur Ã³
itu des
Ġmaqu inaria
ĠB ell
Ġfran cos
ĠMal lor
Ġp ra
Ġemo cion
ĠE P
Ġ à¸Ģ
re d
ĠhÃ¡b itos
ĠAutor idad
Ġanunci ado
Ġtemp los
Ġmono pol
ĠV Ã©ase
Ġincu mpl
men ia
Ġtu vieran
Ġto cando
irÃ¡ mi
Ġgratu ito
Ġextran jeras
Ġprole tariado
dente mente
Ġmister ioso
Ġfib ras
is sa
Ġestrech amente
Ġt ent
Ġhaci enda
ĠGin ebra
Ġregal os
ĠLo ve
graf os
Ġcons enso
Ġtra tamientos
Ġsem bl
ie v
ci dades
ĠLiber tad
ci siÃ³n
vi la
ĠZ am
Ġla zos
Ġinterpre ta
Ġof en
ĠP O
Ġsal pic
Ġb ilater
st icos
ĠT i
Ġtran se
ĠLO CAL
ĠÃģlvar o
ĠRe ich
Ġmur mul
Ġb izan
ĠI vÃ¡n
Ġregular mente
Ġb udi
Ġgrab Ã³
Ġaut omo
n ica
Ġo ye
Ġe ras
Ġviol ento
Ġpropon er
Ġal mirante
Ġinteg ridad
b on
ĠE ric
ĠestÃ¡ is
Ġy endo
Ġar diente
Ġtro zos
Ġexplor aciÃ³n
C D
Ġman cha
Ġtranspar ente
ven a
id an
ĠN osotros
Ġpol i
ĠL and
Ġprefer ido
Ġy u
ĠCo un
Ġj inetes
Ġinm ens
Ġcon greso
ĠLatino amÃ©rica
br Ã³
rimon io
ĠSoci ales
Ġus Ã³
ĠM eg
Ġavan zaba
Ġenvi ados
Ġtur ÃŃstico
Ġespec tro
h asta
Ġdescar gar
ĠH acÃŃa
ĠSud amÃ©rica
Ġgua pa
ĠAl len
Ġ0 8
cep tible
tar la
Ġterri bles
Ġco ca
gu ard
Ġestreme ciÃ³
Ġ6 8
ĠestÃ¡n dares
ĠÃ© ramos
Ġbol sas
Ġfi del
Ġpos itivos
Ġdirig iÃ©ndose
Ġrespec tivas
Ġvoc aciÃ³n
Ġingre dientes
Ġp ur
Ġbols illos
Ġadop tada
v ero
Ġcar idad
Ġ5 7
Ġcolo ca
ĠA re
ĠCom p
Ã¡ stico
Ġcre an
Ġencontr arÃ¡
Ġcam ina
ll ado
Ġex cus
ĠÃī ste
Ġlevan tando
Ġcolabor adores
Ġenven en
Ġrevis ar
Ġense Ã±a
Ġb ÃŃ
Ġdepor tiva
ch Ã©
Ġer gu
crib e
Ġexcep ciones
Ġpas ara
ez can
ĠCab o
ĠRepres ent
Ġbas adas
Ġp ad
Ġcomba tes
Ġhosp itales
Ġextin ciÃ³n
N L
Ġle Ã³n
Ġfij aciÃ³n
ĠWilliam s
n s
Ġher b
anim idad
Ġtra mp
) "
ĠGol fo
Ã¡ndo las
ĠN uestro
ĠBa talla
Ġpertin ente
Ġcontin gente
Ġinstal Ã³
Ġtra jes
Ġdeclar ar
Ġescalo fr
ĠQ UE
ci Ã©ndose
Ġsan itaria
Ġinfin ito
Ġin soport
et ta
Ġcapaci taciÃ³n
Ġotor gado
Ġempie zan
Ġpan el
Ġseleccion e
Ġcotidi ana
ac ciones
ĠP E
Ġpolici al
ÃŃn cipes
cri ta
Ġeleg ida
li mp
Ġag ro
S ch
ometra je
Ġver s
Ġdue Ã±os
Ġfirm emente
Ġv ÃŃs
Ġ0 7
ĠIV A
Ġexcel entes
Ġpeda zo
Ã ª
Ġdig itales
ĠMa teo
Ġliber ar
Ġais lamiento
serv Ã³
Ġentrev ist
Ġte mpl
Ġllen Ã³
Ġcercan as
Ġce der
Ġcompar te
Ġd c
Ġ5 8
Ġex al
Ġc ep
Ġcondu cido
Ġven as
p rim
ar s
tu almente
Ã¡ logo
ĠA gr
ĠÂ ·
Ġon das
ĠO EA
Ġrepresent aciones
Ġc rÃŃa
ĠÃ© tica
ĠCrist Ã³bal
ĠMon e
ĠprÃ¡c tico
Ġdeber ÃŃas
Ġsosp echas
Ġdesa fi
Ġhorizon tal
Ġcono ces
Ġorient aciones
k el
Ġpo etas
Ġasesor amiento
Ġin vita
Ġemp ecÃ©
Ġpres enci
Ġtem blar
Ġdi vin
Ġllev ara
ch Ã³n
Ar t
ĠV alladolid
Ġrep ort
Ġne ur
ĠCOM UN
Ġencar gada
leg ado
in da
ĠV el
tri cos
Ġ[ ...]
Ġbaj ando
Ġsuici dio
Ġcort Ã³
Ġj esu
Ġpermit an
ĠA man
Ġplan etas
Ġmod alidad
Ġdes di
Ġdesempe Ã±o
ĠSal amanca
Ġast ron
ĠON G
ĠF A
ĠSer ie
Ah ÃŃ
D u
Ġ" Â¡
Ġ19 24
Ġpres ta
Ġdomin ar
pi raciones
Ġpul gar
Ġsu til
" Â»
Ġdesempe Ã±ar
se t
ĠV ia
ĠVic tor
in idad
ĠR ick
Ġdesarroll ando
ĠIngen ier
Ġpas ados
ĠCent er
Ġasign ado
Ġdej arse
C abe
Ġcomple jidad
Ġrob ado
go ci
ĠS to
ĠCon trol
Ġsin dical
ĠBill y
Ġguard aba
Ġse cos
al i
Ġacus aciones
ĠsÃ© ptimo
Ġtu viese
Ġpelo ta
Ã¡st icos
ient as
ĠCh an
aliz as
ĠBur gos
eci era
ĠMich el
Ġrelig iones
Ġcrim inales
Ġah orro
N I
Ġat entado
ĠD io
Ġer mita
ĠN Ã¡poles
Ġacord Ã³
B S
Ġde fecto
Ġest Ã©s
Ġsub ÃŃa
ĠCal le
Ġpas ta
Ġrecog iÃ³
ar ch
Ġafici onados
Ġsemin ario
Ġseleccion ado
Ġcr Ã¡ter
Ġmascul ina
Ġmedi ana
Ġdej arÃŃa
ĠPales tina
ĠA P
Ġdispar Ã³
Ġrecomend aciÃ³n
mple o
Ġagr aria
h ÃŃ
Ġdorm ida
ĠS erÃŃa
ie blas
R om
Ġcar o
Ġdesaf ÃŃos
B ill
Ġpar ezca
ti zar
ĠRa Ãºl
a x
t ento
Ġres pira
Ġnie to
Ġpes ados
ĠH emos
ĠbÃ¡s icamente
ĠPar te
Ġabaste cimiento
Ġexten dido
In cl
Ġmonum entos
Ġadecu ados
ĠF lores
Ġvol cÃ¡n
Ġreserv ado
ĠcÃ¡l culos
ĠB uda
Â« Â¿
Ġcort inas
Ġarch i
Ġdef ien
Ġgo tas
Ġestal lar
Ã¡z quez
E ran
Ġres um
ĠUR SS
Ġlab ores
Ġs ano
g s
Ġadul to
ch ados
Ġapor tar
Ġsecre taria
per as
ĠincÃ³mo do
Ġtal la
n io
ona than
Ġexperim ento
Ġcos echa
Ġinn umer
ĠA lice
Ġloc alizado
J O
ĠGran d
Ġ19 10
dal ena
P lan
ĠBern ardo
ĠS tor
Ġso cor
Ġcons ervan
ĠOr gan
Ġcolabor ar
it ados
Ġcit ada
ĠD y
Ġvia jero
Ġespiritu ales
ĠF lo
Ġcol ap
Ġhici ste
z er
ĠN AS
ĠtÃºn ica
Ġpar to
Ġrealiz arse
dr ome
r ona
Ġvis itÃ³
ĠpÃ¡g s
van cia
Ġ19 27
Ġacus aciÃ³n
Particip Ã³
Ġpri va
Ġpi la
d rez
ĠE X
tr ales
g na
ĠMer cado
Ġ19 25
Ġcos tÃ³
Ġdeber es
Ġvis u
ina je
M il
Ġsuel ta
Ġacab o
Ġfeder ales
Ġcontr aria
Ġcandida tura
ala jara
Ġab uso
ÃŃ rez
ol la
ĠpÃºbl icamente
Ġdel im
Ġcu rar
ĠIn donesia
Ġescritor a
ed onia
Ġgal le
Ġse di
Ġ19 23
Ġgrab aciones
ĠEst aban
peona tos
con tra
ĠMor eno
ĠBil bao
Ġtar ifas
Ġdesenca den
Ġpes cadores
Ġf l
Ġemb ajada
Ġespeci alizada
w ick
j adores
Ġque do
Ġasust ado
Ġintrodu cido
Ġhid rÃ³
Ġpanor ama
Ġove jas
Ġabrir se
Ġce ja
ing ue
ĠVie jo
ĠTrin idad
it amente
Ġbal cÃ³n
Ġcolon os
ĠJohn ny
Ġinsist iÃ³
N C
ĠP el
Ġ0 6
Ġpas arÃ¡
Ġmostr ador
Ġmanifes tÃ³
Ġagrup aciÃ³n
Ġpu ri
Ġap uesta
Ġol vido
Ġenter amente
Ġtra zado
Ġpaisa jes
Ġcon tag
us k
Ġcre ma
Ġconf ron
Ġdelan tera
Ġcar ece
ios amente
Ġseguir Ã¡
Ġven diÃ³
Ġocup an
â ĶĢ
Ġasist entes
Ġab us
ĠEE UU
t ch
Ġne uro
og ado
Ġsepar adas
Ġpul so
alu aciÃ³n
Ġsuel do
Ġgr ad
Ġex Ã¡menes
ĠL lam
de clar
it ÃŃ
Ġafec tada
Ġpar Ã³
ebo ok
st em
ĠIs land
Ġtur co
Ġjust amente
Ġevitar lo
ĠOx ford
ĠS her
Ġna zi
Ġpab ellÃ³n
ĠD re
ĠGobern ador
Ġmu seos
ĠrÃ¡p idos
Ġinstal ar
Ġ5 9
Ġdispon en
Ġdivi dida
Ġpor ciÃ³n
Ġexten der
ell er
Ġre inos
Ġcontin ental
ĠJane iro
i ki
Ġcamar ero
ĠF E
Ġcient ÃŃficas
ti Ã©r
Ġten dido
Ġpor tÃ¡
Ġal boro
Ġres uci
Ġrepresent ada
Ġdes er
Ġsober ano
Ġob rero
Ġescla vo
Ġhos til
ĠestratÃ© gica
ĠC IA
Ġesp len
Ġesca p
Ġfavor ito
Ġsol ÃŃan
Ġde tecciÃ³n
ĠK on
ĠLu isa
Ġescas ez
Ġt entaciÃ³n
Ġfra cciÃ³n
Ġpun tas
te x
ĠCro acia
ÃŃ lica
ĠPr ensa
ĠDec laraciÃ³n
qui al
ĠB un
Ġcor tas
dr Ã¡s
Ġmir arlo
ĠRum ania
Ġv arÃŃa
je mp
Ġde udas
b es
tr all
th y
Ġrev esti
Ġv imos
Ġsolu cionar
is Ã©s
Ġllan to
Ġcontinu aron
Ġtar des
h es
IN A
Ġbru to
iment aciÃ³n
Ġcil ind
Ġdi ablos
ĠEn ter
Ġcorpor al
Ġa erop
Ġest rÃ©s
Pue den
ĠmetÃ¡l ico
Res oluciÃ³n
ide l
Ġimag ino
Ġescog er
Ġres titu
ĠAmb os
Ġtien den
Ġti ra
ĠSteph en
Ġdes in
as ia
qui la
Ġprofun dos
Ġexci taciÃ³n
pu ra
Ġdirig idos
b s
Ġmin eral
Ġreglam entos
Ġma cho
Ġbre ves
Ã±os o
Ġestudi ando
Ġsu ceso
edi encia
W ill
ĠNorte amÃ©rica
ent aba
Ġcom isiones
Ġfun dadores
Ġmete or
Ġtra tarse
Ġcoord in
Ġpol aco
Ġarti cul
Ġhem bra
cri biÃ³
Ġcar ros
Ġaudio vis
Ġdel gada
Ġco do
Ġesp es
Ġ7 3
Ġre cos
Ġad onde
ci osa
ÃŃ sta
Ġlan zaron
S itu
Ġrevolucion aria
Ġelec to
ĠC og
Ġapar tamentos
Ġbo tÃ¡nico
Ġprovo cando
Ġir Ã©
Ġimag inaba
ĠAz ul
ĠPe Ã±a
Ġdesarroll ados
mb urgo
m Ã©
Ġauto pista
Ġpeligros as
P on
ĠOs car
Ġan ces
eci das
Ġprodu jeron
Ġdetal lada
Ġcuad rado
ĠWol f
Ġcons entimiento
da te
Ġnegoci ar
Ġindic aciones
Ġre ta
ir me
Ġqu ise
Ġmilag ros
Ġdesesper ada
V arios
Al guien
Ġcient ÃŃficamente
Ġgradu Ã³
Ġcort ado
Ġconsol id
Ãī sta
ĠHer man
ĠRiv era
Ġobede cer
Ġagu do
Ġcre aron
ĠMor gan
ĠTay lor
ĠSte ve
ĠR ena
Ġpes ta
Ġd uelo
de ando
Ġnorte americanos
Ġah o
Ġagreg Ã³
qu im
Ġide ologÃŃa
A po
sie te
l ab
Ġmon arquÃŃa
ĠHol anda
Ġpr endas
Ġmer ecÃŃa
Ġle ÃŃa
ur ora
Ġpre lim
Ġrepar ar
Ġbotel las
Ġb all
Ġ7 8
ĠM id
ĠIndust rial
Ġarb ustos
Ġis l
Ġveci na
ĠAn te
Ġmon je
Ġtratar a
Ġtom arse
ĠPro bablemente
Ġconsigu ieron
Ġmol esto
Ġoscu re
ĠGreg orio
Ġmar g
Ġda Ã±
Ġdi la
ĠPu blic
Ġlo cu
Ġdes col
gan cia
Ġp Ã³l
Ġestric tamente
Ġmencion ada
w ich
Ġexac to
ĠW ay
de mo
rag ones
D Ã©j
Ġl ent
Ġunivers itario
ĠSe an
ĠS ec
lu la
Ġefic aces
ĠJ ard
Ġreal ista
Ġ19 26
ĠUn iverso
ĠSus an
n l
Ġgen es
Ġpoten ciales
Ġlad rillo
Ġdiplom Ã¡tico
ĠT ab
Ġcolec ciones
Ġtraslad ado
Ġ1 10
Ġinsign ific
Ġs ana
Ġprom esas
ĠEspeci al
pir os
Ġemb al
Ġfi lo
Ġaplic ado
Ġpal m
Ġexac titud
Ġh ur
ĠA lan
gu i
Ġprece dentes
Ġtorne os
Ġpr omin
udi a
ic ar
Ġveinti cuatro
Ġan i
Ġmas iva
t oma
ga te
Ġgust Ã³
Ġocas ional
ve lo
Ġch u
Ġjust ificar
Ġtre m
Ġesc aso
Ġrel u
Ġ19 22
Ġretir ar
Ġhacer la
Ġincerti dumbre
âĢ¦ âĢ¦
Ġcomodi dad
tiÃ©r rez
a ch
de lo
Ġarrep ent
Ġl lo
Ġenfr enta
ci entas
Ġir onÃŃa
A f
Ãº o
Ġale manas
ĠPres u
Ġexplic ado
ĠJ amÃ¡s
Ġsimp atÃŃa
ĠR h
Ġotor ga
Ġesclav itud
Ġtor tu
Ġme tas
Ġdeci dÃŃ
Ġdesarrol lan
Ġver Ã¡s
Ġcercan ÃŃas
Ġmon jes
van ia
f ue
Ġh am
Ġman to
Ġimpaci encia
Ġproteg ida
Ġenla ces
Ġbor des
Ġac era
Ã³m ica
ĠMargar ita
fa z
ph ie
Q UE
Ġexclus ivo
Ġmin ister
Ġhab las
Ġesca pe
Ġalim entar
w is
Ġsi go
ĠN ich
ĠC rim
Ġj uro
Ġrev Ã©s
Ġpresent adas
Ġel ef
â ĪĴ
Ġfidel idad
C in
Ġsuminist ros
Ġrebo tes
Ġcomp laci
ĠAu to
Ġindi caciÃ³n
Ġf estiv
d ora
Ġsue co
Ġborra cho
Ġconj untos
Ġatraves Ã³
ĠSici lia
ĠsÃ¡b anas
ent arios
Ġide ales
Ġaus ente
ig Ã³n
ĠBol ÃŃvar
ĠMar x
Ġin tes
Ġreempla zar
ĠSupre ma
Ġgra v
Ġpen et
Ã©spe d
Ġinver tir
orm emente
Ġactu ando
dos a
Ġindi caba
se mos
ã ĥ
Ã©n dez
Ġsusur ro
H ijo
Ġvenci do
Ġfor o
le m
Ġb lin
T ES
M L
me d
laz amiento
ca te
ĠhÃ©ro es
Ġproxim idad
B O
tar iamente
Ġpersonal idades
Ġ6 7
pu se
ce la
Ġextra cciÃ³n
ĠbÃ¡r bar
di versidad
ĠAt lan
di f
Ġac entu
Ġoport uno
ĠK rishna
Ã Ĥ
Ġdo lores
Ġ7 4
Ġh uy
Ġanim aciÃ³n
ĠO C
Ġahor rar
Ġvuel vo
ĠCol onia
Ġrefer entes
Ġvir tudes
Ġpa ja
na h
ĠTok io
Ġso Ã±
Ġmort ales
Ġtra icion
Ġescrib ÃŃa
z Ã¡n
Ġmi ro
ĠC ic
Ġhue vo
ĠhÃ¡ bito
di eran
s Ã³
Ġalber ga
Ġinnumer ables
Ġes cup
Ġunivers itarios
Ġpres iones
Ġloc alizaciÃ³n
Ġponer me
Ġh im
ier s
con tr
Ġfer ia
ĠDo ug
Ġmig ra
Ġcontempl ando
Fran cia
Ġmi de
Ġdese ar
Ġsup resiÃ³n
Ġpor no
om er
ĠDis ney
Ġdist ante
a to
Ġpu entes
Ġmanu fac
E di
cu ando
Ġsuper ado
Ġconstitu ido
Ġsolem ne
Ġqued ara
gr Ã³
Ġrepu gn
Ġcru ci
Ġleg itim
Ġvin ieron
Ġpodr Ã©
Ġsuje ta
amb ul
Ġcorte za
Ġnaz is
Ġ ida
ĠS Ã£o
Ä į
Ġsu mo
Ġadminist rador
Ġingenier os
v Ã©
Ġre por
Ġtra ÃŃa
âĢ¦ Â».
âĢĻ ,
con tes
M T
f eo
Ġay ude
Ġmus los
er ie
Ġlin terna
Ġel enco
Ġnoctur no
Ġmanus crito
Ġdesesper ado
Ġventan illa
Com pren
n an
Ġfil ial
Ġpla cas
Ġhal lan
G re
Ġextra Ã±as
Ġd orada
Ġgo ta
ĠIn te
Ġcab les
Ġsent iment
p ito
Ġin e
Ġj e
Ġd ragÃ³n
Ġrecib ÃŃa
Ġpre ju
ĠAs socia
Ã¡r s
Ġan trop
Ġinn eces
ch adas
Ġtel es
Ġelim ina
R T
Ġano tÃ³
ĠHan s
fer as
Ġme mb
Ġ0 9
ĠPal abra
rus ia
Ġma triz
inter rump
Ġgua po
Ġmanio bra
ĠBau tista
Ġexpon er
Ġbas Ã¡ndose
Ġglob ales
Ġexpres ado
Ġdoc ente
et ti
Ġconvoca toria
Ġmo le
Ġrec re
piÃ© lago
ĠN BA
Ġexam in
Ġnove dad
Ġdevo ciÃ³n
ĠUn ited
ura tom
Ġotor gÃ³
Ġcru cero
Ġform almente
in almente
Ġenga Ã±
ile y
M en
and ar
Ġsin tÃ©
om bres
Ġveci n
Ġpiel es
Ġpa v
Ġaj ena
f ran
Ġutiliz arse
pe dia
tor iales
Ġtel eno
Ġdiscur sos
ĠDominic ana
Ġdist ancias
ĠAlfre do
ĠMar iano
Ġad her
? âĢĿ
ĠR ib
ĠCh amp
c tos
Ġliber ado
Ġsup rim
Ġpen it
ba ch
Ġampl ias
Ġvir gen
N orm
mit ÃŃa
Ġ8 1
Ġdispu tar
Ġabst rac
Ġmentir as
z u
Ġadministra tivos
Ã© tera
Ġayud an
M in
ir Ã©
ĠV era
Ġdesper tado
Ġflex ible
Ġame trall
Ġar en
Ġre embol
Ġcho que
Ġfavor ables
Ġglo bo
Ġarist oc
se le
Ġsin cero
Ġtir os
Ġdesplaz amiento
V O
ve y
ĠE van
Ġrevel aciÃ³n
Ġcer tificaciÃ³n
Ġhacer te
dic to
Ġen tor
Ġllam e
Ġrecha zado
Ġcor pora
Ġasist iÃ³
Ġconv ierten
Deb emos
Ġpoten cias
ĠObs ervatorio
ĠProvin cial
ar cas
Ġdesempe Ã±a
ĠA G
Ġprome tiÃ³
Ġrecuper ado
Ġpara ÃŃso
Ġprodu ciendo
Ġcomun ica
Ġcertific ados
Ġchil ena
Ġ19 00
ĠAn tiguo
Ġtrans portar
ĠMur cia
Ġbille te
Ġsub di
Ġelim inado
Ġcort ina
Ġsitu adas
Ġman dado
Ġmediano che
ur y
Ġsorpren de
Ã¡ culo
Ġsepar Ã³
Ġprob ado
Ã¡ndo te
Ġartes an
Ġestable cieron
Ġinsec to
ĠEst as
Ġllam aron
Ġasent amiento
ton io
Ġde tiene
Fran cis
ian g
Ġconvir tiendo
jer ÃŃa
Ġejer ce
ion ados
i ko
Ġ6 2
Ġco ch
Ġaclar ar
ur nal
Ġprepara tivos
Ġinoc encia
inar iamente
Ġat mos
Ġac antil
ĠFin anci
Ġil im
Ġch or
Ġgas olina
Ġcar tu
Ġm aci
Ġf lora
Ġdef orm
r Ã¡ndose
Ġpar ques
Ġadu ana
ĠB is
Ġte jado
ĠL ara
ĠBar b
Ġ7 9
ĠhistÃ³ ricas
Ã¡ lti
Ġprodu cidos
Ġeduca tivos
Ġacom paÃ±a
ĠR oc
N uestros
Ġ8 2
J ack
an ca
Lu is
pres entada
No ta
ĠTer ri
ĠÂ °
P ers
Ġcontempl aba
am en
ti ma
Ġpel os
Ġamb ul
ĠAn to
Ġp ÃŃ
Ġtin ieblas
ĠH em
Ġlo go
p ri
Ġaprovech ando
ac ea
ĠDi jo
EL A
ĠestÃºp ida
di stas
Ġdes gas
Ġsembl ante
bl ica
Ġcru zado
Ġten is
Ġconf irma
ea u
Ġhin ca
Ġrem un
Ġcri ados
ĠTele visiÃ³n
r enta
Ġinde fin
ĠDe v
Ġconvenci da
Ġportugu esa
ĠTu rismo
Ġetc Ã©tera
Ġsustitu ido
d aron
ĠPat rick
Ġestro pe
Ġton ta
S ub
Ġcondu cciÃ³n
Ġesp osas
Ġater ror
Ġbo tones
ĠMar te
Ġ% )
pe lo
Ġal iado
Ġextra er
Ġ19 21
van tÃ³
Ġun ieron
Ġimp one
Ġex clamÃ³
Ġdo bles
ĠNo v
tag ena
ĠClar k
Ġla mento
Ġsal ÃŃ
Ġc itar
Ġex terno
f ono
ĠcÃº pula
Ġla guna
Ġmedioambient al
gan istÃ¡n
Ġeconom ÃŃas
l ador
Ġsuperfici es
Ġignor ancia
ĠCar lo
Ġton os
Ġvari antes
Ġgru esa
R ev
u tiliz
Ġtu vimos
ĠAbra ham
ĠT I
Ġmonta je
Ġartifici ales
Ġru tina
Ġsuf ren
Ġpu Ã±ado
in ero
Ġacer cÃ¡ndose
Ġm ech
Ġvan guardia
Ġdecis ivo
ĠEst aciÃ³n
Ġequipa je
ĠB EI
Ġvol ando
Ãºn ez
P D
Ġpeg ado
Ġpodr ÃŃas
ĠelÃ©ctri cos
aci al
Ġtempor ales
Ġingres ar
av al
Ġech aba
Ġderro tÃ³
ĠOl iver
Ġencan tado
Ġaliment icios
Ġsuce dÃŃa
Ġin minente
ĠM iller
Ġprop iamente
Ġpira tas
Ġdescen der
Ġsof ist
Ġrecuper Ã³
Ġhem bras
Ġe ri
Ñ ģ
Ġamar illa
Ġdepen den
ck er
Ġle vemente
G eor
Ġco dific
Ġven drÃ¡
Ġju ramento
Ġconcre tos
198 6
r ara
ĠcÃ¡l ida
ĠÃŃ bamos
tent ri
ĠMar cel
Ġmanip ul
Ġbar es
mp ing
ir os
Ġqu itado
on io
Ġ7 00
il i
Ġaf ortun
Ġrique zas
aliz aciones
Ġv om
Ġencen dido
ĠH ugh
Ð ²
ĠCar ter
ĠA rist
Ġasust ada
Ġconoc ÃŃ
Ġprop Ã³sitos
ĠEmp erador
Ġrecord ando
Ġutiliz aba
ĠC umbre
f ano
N ueva
pregun ta
V ic
ĠCal der
Ġencen der
L legÃ³
Ġenvi dia
Ġinaugu rado
Ġdelic ado
Ġdist or
ĠAndre w
Ġ19 12
Ġcomen zando
ĠW ell
Ġisrael ÃŃ
Ġe u
Ġocup ados
Ġinterlocu tores
Ġantece dentes
Ġsal ga
di l
og Ã©n
Ġcaracter ÃŃstico
Ġvideoj uego
ĠEst amos
Î µ
Ġdiver tida
Ġprosper idad
Ġantepas ados
Ġpreocup aba
Ġesplen dor
Ġexit osa
ĠKenn edy
Ġsu cio
tel la
ĠB erg
ur ar
ĠMu chos
Ġce Ã±
Ġemi tido
Ġcor ro
Ġt ac
Ġpod ÃŃamos
ĠO tra
Ġfero z
Ġpr ÃŃncipes
Ġpers igu
Ġreg imiento
olÃ³g icamente
Ġnega tivos
em ento
Ġrep itiÃ³
Ġfal lo
Ġru bor
ĠOr tega
Ġsan ciones
Ġinspir ado
Pa ul
Ġ1 01
ĠEmil y
P ronto
Ġplane ado
Ġand aba
ĠPra ga
ĠFran cesa
Ġmexic anos
Ġno tificaciÃ³n
ĠGuad alajara
ĠSe x
ĠDu bl
Ġrelev antes
Ġcontemp la
ĠO k
Ġ ),
Ã©is bol
ĠMo der
ĠPens Ã©
Ġven eno
ĠR ÃŃos
ĠfrÃ¡g il
Ġencar gados
ĠcÃ³ digos
it tle
Ġrode aban
rim os
Ġblan que
... )
Cu alquier
v idad
Ġdedi carse
Ġref rig
Ġhinca piÃ©
di sta
Ġarm adura
Ġdurm iendo
Ã¡g ina
cent r
Ã§ a
ĠT os
Ġda to
ĠPa ula
Ġhici mos
Ġme l
ĠMar s
Ġinaugu rÃ³
ĠC erv
Ġampl i
Ġcon fer
ĠG od
ĠacadÃ©m icos
Ġconstru c
Ġpru dente
ĠForm aciÃ³n
! Â»,
que dad
er vo
T RA
ar las
ĠhÃºme da
Ġfalle cimiento
ĠGu tiÃ©rrez
ĠCh o
Ġprivi legio
Ġatrac tiva
ĠSil va
Ġrevolucion arios
Ġacondi cionado
Ġbas tÃ³n
Ġpref iere
Ġc itas
Ġconsist ente
ig re
ĠR as
Ġmanz ana
ce jo
Ġatravi esa
Ġidentific ado
Ġ( -
Ġsome tidos
Ġin como
Ġespeci alizados
ĠSal Ã³n
Ġnorte americana
Ġencar ga
Ġbaj aba
Ġescol ares
Ġapro bar
B er
Ġpon go
ĠIn dias
ĠCh am
Ġre o
amb ri
ĠRam ÃŃrez
Ġe dades
ĠTec nologÃŃa
Ġcr Ã³nica
id able
ĠR iver
Ġment ales
ĠPat rimonio
e urope
Ġdul z
Ġbar ca
ĠAnd rea
s ic
b ri
ĠF Ã©lix
ĠAl ba
Ġofre ciendo
Ġrelev ante
P at
ta h
Ñ Ĥ
Ġrecep tor
Ġenve je
G ar
Ġrep rim
ÃŃb ano
Ġelev ados
us ura
ir ro
Ġcar nes
r ing
Ġqued amos
Ġportu gues
Ġc lam
Ġy er
Ġconf esiÃ³n
Ã ¯
Ġan ualmente
Ġl ien
Ã¡r sela
ĠRo ad
Ġterres tres
Ġfle chas
Ġex ternos
teri al
Ġpro cu
Ġdoctor a
Ġproces iÃ³n
ĠTa i
Ġar rib
ĠL E
Ġenga Ã±o
ay as
Ġaplic an
Ġagu da
Ġpronunci Ã³
ĠH ea
ĠÃºlti mamente
ĠE ast
Ġob tenciÃ³n
Ġfi jos
Ġprome te
Ġint rig
Ġmutu o
ĠE c
br ados
ĠF la
ID ENTE
Ġarm adas
Ġin ces
tan der
Ġescon der
Ġocur ra
Ġpin tado
gu Ã©s
ĠCh e
ĠAm Ã©ricas
Ġconsul tas
Ġme d
Ġencer rado
Ġlo cos
Ġca tedr
Ġbo x
usta vo
sie ur
ĠEU R
Ġmutu amente
ĠhÃ¡b il
Ġtur cos
ĠN u
ĠAquel lo
ril las
Ã ¹
Ġper dÃŃa
Ġurb anas
Ġdis gust
s ent
ĠCamb ridge
Ġestall Ã³
Ġexpe diente
il ado
Ġplata formas
ll Ã³
uel tas
Ġdu reza
car riles
Ġc lor
Ġsecund ario
Ġcompon en
Ġdoctor ado
ĠCon go
Ġest Ã©tica
ĠdÃ© j
Ġdis gusto
Ġcru cial
ĠRu ta
iv al
ĠRes ul
ĠAn der
Ġhab lo
V as
Ġ6 3
Ġpermitir ÃŃa
Ġdirig ente
Ġvoc al
Q U
Ġmodern izaciÃ³n
ã Ĥ
ed ora
Ġval les
ord on
Ġfran que
Ġreun ieron
Ġle e
is m
Ġbru ja
ĠC ris
Ġvay an
Ġconfirm ado
ome trÃŃa
ĠJim Ã©nez
Ġprome to
Ġc Ã©sped
Ġsens aciones
ter ia
te Ã³
Ġtradicional mente
Ġliber tades
us se
Ġmin im
Ġlar g
ĠErn esto
Ġgra vemente
Ġesca pÃ³
Per ten
b ack
Ġmin or
Ġv ice
Ġpens arlo
Ġmucha chas
Ġacord ado
Ġdelic ada
Ġan da
Ġrega zo
Ġperf ume
and ante
Ã¼ n
ĠmuÃ± ecas
Ġsurg ido
Ġpist ol
u ve
Ġli tig
Ġc res
Ġ13 0
ĠJos ef
Ġvari ante
ir re
Ġencom end
Ġde no
Ġan ch
Ġran cho
ĠAm er
Ġg ara
Ġpod Ã©is
que tas
Ã¡n icas
Ġdeci dida
Ġprefer ÃŃa
L AN
Ġreconoci dos
Ġcre ÃŃan
Ġgradu almente
ĠCap ital
Ġdesp lie
Ġefec tivos
Ġtes tamento
ci stas
Ġreempla zado
it re
Ġmar cada
Ġatra par
ĠK it
Ġer rad
L OS
Ġparti das
pi ter
ĠLe v
V is
Ġasign aciÃ³n
las h
Ġvar Ã³n
Ġben diciÃ³n
Ġpos itivas
Ġlogr aba
Ġsuce diendo
Ġalco h
Ï Ħ
Ġf ec
Ġorigin aria
Ġfum ar
Ġj udiciales
Ġesp adas
Ġintegr ar
Ġconsidera ciones
gu erra
Ġcompar ten
ĠC eci
Ġcorrespon dÃŃa
ĠL itu
Ġpertin entes
Ġhuel la
Ġval idez
Ġcontar le
Ġvis ibles
U D
ĠEst ad
Ġcre emos
Ġvideoj uegos
Ġcan tando
ba ta
Ġver ÃŃa
Ġas ilo
Ġregres ado
Â» ),
Ġal ien
ĠDeb ÃŃa
Ġ ond
pros iguiÃ³
Ġrever encia
Ġempe Ã±o
Ġdesp lom
E v
ta t
N E
Ġp Ã©
ĠO tro
Â» ).
ĠJun ior
Ġimpi diÃ³
ĠNorm an
seÃ± or
Ġdesn udos
Ġfac tura
Ġma tri
ĠAr n
li que
Ġmal diciÃ³n
ci rÃ¡
T or
T AR
Ġal er
ter res
Ġinaugu raciÃ³n
Ġnar co
ĠS as
bi as
te ando
ĠJust o
ĠBro ok
Ġpas Ã©
ĠPal ma
ĠTa ilandia
ist ra
Ġca udal
z amiento
Ġaprovech Ã³
Ġpura mente
Ġcircun s
Ġr aras
s ub
tan gular
ĠSo le
Ġen dure
Ġvir tual
ĠAf ganistÃ¡n
Ġir landÃ©s
ĠAn th
Ġrel l
Ġelev aciÃ³n
Ġhom ici
Ġconvertir ÃŃa
Ġun animidad
Ġdemas iadas
Ġjuris dic
el iz
it amos
C os
Ġit iner
Ġdefec tos
Ġesca pa
ĠCon cil
Ġbur l
Ġdesconoci dos
ĠA V
Ġmar keting
Ġac aban
un iÃ³n
Ġpros iguiÃ³
C C
ĠP ala
Ġdar te
ĠEx tre
log s
Ġe vangel
ĠCo le
Ġval ÃŃa
Ġgen Ã©rico
Ġpata tas
Ġimp lac
Ġcomprome tido
Ġdesgra ci
Ġperf or
ĠM esa
Ġri gor
ĠquiÃ©n es
Ġtub os
ĠN Âº
ĠS tone
rad ura
Ġdirec tos
Ġre tos
ĠGra ce
Ġllegar Ã¡
Ġbol chevi
Ġra tÃ³n
Ġale jar
Con tinu
Ġprove edor
s car
Ġalcan zando
Ġba ta
Ġson ro
Ġpsic ologÃŃa
Ġmar ipos
Ġ6 9
Ġenam orada
Ġm era
ĠacompaÃ± ar
Ġb igo
Ġtom adas
ĠBern ard
Ġtecn olÃ³gica
cer ÃŃa
l lam
Ġa ull
ir Ã¡n
D icha
Ġorigin ario
ĠAn des
Ġinm ue
Ġoper ador
qu istas
cu rio
Ġconsigu iendo
Ġpre mi
ĠAndr Ã©
Ġsub ra
ĠI P
Ġma go
ĠGu z
Ġayud arle
Ġfuncion an
Ġex itos
ĠSoci ety
ri rÃŃa
Ġmar e
Ġcub riÃ³
Ġincen dios
Ġcortes ÃŃa
i h
ĠM ana
ac ar
orden Ã³
ĠT ener
Ġbar reras
ĠTo p
Ġan uncia
Ġsub venciones
Ġproporcion an
Ġdu plic
Ġrepent inamente
Ġdes ci
Ġpareci da
ĠFri ed
ĠR em
Ġdesarroll ada
Ġh ambri
gun as
Ġredon da
Ġan tor
Ġo pos
Ġdirig ieron
P ap
ic ado
ste des
ce lo
Ġcom ido
Ġarran cÃ³
Ġreflex ionar
Ġexplo tar
Ġlegisla tivo
Ġadap tarse
ĠcontinÃº an
Ġab ismo
Ã³m ico
Ġmedi ciÃ³n
me dios
Ġurb anos
Ġmir Ã¡ndola
Ġdieci siete
Ġhol an
Ġobs ervan
b ano
d Ã³nde
ĠPu ente
ĠDef ensor
incl u
Ġdesapar ece
Ġaga chÃ³
ĠquÃŃm ico
Ġelector ales
Ġos cil
Ġev olu
Ġdepen diente
ĠH i
Ġcam inÃ³
ti pos
Ġvari aciÃ³n
Ġatre ver
Ġten ÃŃas
Ġcens ura
s ÃŃ
an ista
Ġrele vancia
G er
ĠJ ay
Ġesp ir
arlo tte
Ġe cha
Ġrecom pens
Ġac Ã¡
S ta
S omos
ra me
Ġhun diÃ³
Ġcarru aje
ĠS os
Ġfu g
Ġprepar Ã³
ĠEsta tal
S abe
Ġcaptur ado
Ġobliga torio
ĠCom Ãºn
Ġrec tangular
Su per
tt s
Ġand ando
icul tura
ĠN el
ĠA gua
ĠfÃ¡ ciles
rÃ© st
ĠP S
Ġgubernam ental
Ġde tuvieron
Ġs ensa
Ġsu bido
Ġemp ate
Ġconclu ido
ĠLa ur
Ġnecesit aban
Ġso viÃ©tica
ĠtelÃ©f onos
ĠC A
Ġhu ida
Ġcur vas
Ġcen izas
Ġimprescindi ble
O P
Ġev itando
ren e
Ġdesem bo
ĠPRES IDENTE
ha us
ĠL ady
ĠGol d
t entÃ³
Ġenter arse
ĠRec on
p ÃŃa
Ġescul tor
âĢ ĺ
Ġindu d
Ġdivor cio
gra m
h os
Ġtrim estre
Ġinsoport able
g ÃŃa
Ġac titudes
k et
ĠDO C
Ġdis para
Ġcos taba
Ġconsider aban
Ġdespi diÃ³
Ġavi aciÃ³n
ĠValenci ana
Ġpor tero
Ġdedi cados
Ġgu antes
Ġcir uj
ĠÃį n
Ġsin gle
Ġcont enta
ase gu
Ġacumul aciÃ³n
ci ar
Ġro taciÃ³n
Ġhermos as
Se gun
Ne w
Ġambi ciÃ³n
Ġvege tal
ra tos
Ġla tina
Ġmedioambient ales
Ġpro a
ĠJ en
Ġmal tra
Ġexces iva
it ro
ĠRom ano
Ġauxil iar
Ġentreten imiento
gu almente
Ġpe trol
Ġintelig entes
ĠCar tagena
Ġbus cado
oc ÃŃa
Ġayud arÃ¡
vi esen
iz ador
Ġro ble
je tivos
ĠMo isÃ©s
Ġga tos
Ġperu ano
form ula
Ġfor tific
ĠF un
ho p
Ġhab rÃ¡n
Ġsil ueta
Ġson riente
Ġcontribuy e
ĠMallor ca
Ġ" Â¿
Ġrom pe
Ġsin cera
Ġde pre
Ġpase ar
Ġrebel de
es h
Ġform ular
Ġcin tas
Ġcomerci ante
Ġmir as
Ġdis oluciÃ³n
Ġp irÃ¡mi
Ġun ida
Ġal deas
M c
Ġsocial ismo
Ġpor che
Ġhaber la
Ġ19 05
Ġrevel ar
di ese
Ġnov el
ĠV lad
dor f
ti zado
Ġva queros
Ġmostr aron
Ġe ros
Ġpens iones
ĠC Ã¡r
ĠA ward
Ġtempor almente
ĠMag dalena
Ġbloque o
Ġr Ã¡
Ã¡ u
Ġ8 3
Ġs orte
Ġconcl uy
Ġfic ti
Ġarm amento
Ġre ch
ĠmÃ© rito
Ġbor rar
f oro
Ġaje drez
Ġvar iar
ĠN ig
mentar ia
Ġregist rar
Ġabund antes
Ġprivileg ios
Ġsi entes
tr ad
Ġver bo
p rudencia
an ie
ĠF igu
ĠCh rys
Ġguarn iciÃ³n
Ġcomba ti
ĠC ay
z el
A parte
Ġ6 1
Ġatra pado
ĠBa hÃŃa
Ġfin anzas
Ġata cÃ³
res t
ci ble
Ġsan gri
Ġescog ido
itor al
Ġac Ãº
Ġcontribu ido
Ġsigu iera
Ġsex ta
Ġmin orÃŃa
Ġvay as
Ġsal iera
ĠpuÃ± eta
Ġocul tos
Ġc emento
Ġfin aliz
Ġr ÃŃ
Ġconquist ar
u ga
ĠquÃŃm icas
Ġtor o
Ġag it
mon t
Ã© v
w ig
Ġcre ados
Segu ro
ĠGuer rero
ĠE ver
n ado
to dos
ĠRe public
Ġper didos
ĠK ara
op her
Ġgem ido
Ġsupre mo
Ġdes ech
Ġoper ar
Ġhar emos
ĠfÃ³s iles
ĠWol fe
Ġrode an
Ġces ar
Ġinf laciÃ³n
Ġincl us
Ġadap tar
Ġenga Ã±ar
ĠpÃ¡r pados
Ġgra titud
p io
T RI
ck s
Ġsub cam
Ġsuperfici al
U SE
t Ã¡ndole
ĠDu que
Ġconstru yeron
ĠCu atro
ĠK n
ĠMor ales
Ġsub iendo
al do
ĠÃŃnti mo
Ġpres ion
Ġfabri car
Ġpar lamento
ĠBo w
Ġmelo dÃŃa
f en
ab y
Ġ19 15
Ġejer ciÃ³
Ġestar Ã©
Ġpla zos
la v
ÃŃcu los
Â« Â¡
col n
Ġcla ves
Ġnar ices
Ġautom Ã¡tico
E r
Ġvis itado
Ġdestac ada
Ġacu diÃ³
Ġsug iriÃ³
ch aba
Ġpro li
am Ã³n
Ġllam arse
nes s
Fal le
Ġso pl
T ar
S abÃŃa
Ġdese quilib
H ol
ĠcontemporÃ¡n ea
Ġt acto
I r
Ġest am
ĠJas on
Ġcompar ti
er Ã³n
per tura
Ġeduca tiva
Ġen tier
ig ra
Ġani quil
Ġcir cul
ĠSu Ã¡rez
Ġinform Ã¡tica
Ġincap acidad
Ġcoher ente
ad ia
a a
ĠGran des
Ġpr en
Ġcol gaba
cur ru
Ġsilenci oso
ĠGer mÃ¡n
ĠC ala
z en
por que
Ġfran ja
Ġlum inos
Ġl Ã¡c
ĠImp erial
cis amente
Ġtal entos
al ias
Ġa tado
Ġt inta
g Ãº
Ġsolici tado
. ;
Ġalum inio
Ġdesas tres
Ġimp uso
Ġtermin aron
lin s
Ġprop osiciÃ³n
Qu izÃ¡s
rag io
Ġamar ill
Ġimb Ã©
ĠRa chel
Ġretroce der
uel va
Ġ19 16
s is
Ġal za
Ġconsol idaciÃ³n
dul os
Ġdulz ura
Ġs and
Ãºs culo
Ġimpaci ente
ĠPh il
Ġplan a
Ġdel ica
ĠAlgun as
Ġcomun as
F L
Ġvalor aciÃ³n
ĠM Ã¡r
Ġenf ure
ĠCon st
Ġmedi anas
Ã¡r ma
L in
Ġmor ales
Ġtri Ã¡n
Ġpre dic
Ġcont aban
Ġpersegu ir
ĠcontemporÃ¡n eo
Ġpin tar
Ġrefer ido
Ġbas tantes
ĠestratÃ© gico
4 00
Ġestren ada
Ġdial ec
ĠC lin
y ente
crib ir
ĠPo irot
Ġrepercu siones
Ġentra Ã±as
Ġinver na
Ġsovi Ã©ticos
Ġsab rÃŃa
Ġcau tiv
Ġlevan tÃ©
198 5
tis h
am or
ĠcÃ© lula
v idas
Ġdes mon
Ġcontribuy Ã³
an Ã¡
ĠMed ina
Ġb ord
Di ario
ras e
Ġest amp
k as
r adu
Ġcontra taciÃ³n
ĠMal ta
Ġcenten ares
3 00
Ġaduan ero
ĠPue bla
ĠColum bia
Ġdi lu
Ġre porta
Ġen loque
Ġinm un
ĠAn tÃ¡r
ur bios
is iera
Ġinteres adas
Ġquin ientos
Ġpre ferencia
ĠTown ship
Ġdoncel la
Cu atro
Ġpresupues taria
ĠH isp
Ġmar es
Ġcub ano
iÃ©ndo le
ez co
ĠSer Ã¡
Ġconden ados
Ġcal ificaciÃ³n
ĠB ry
Ġtrabaj aban
ĠIndust ria
Ġmor f
Ġcorre os
Ġhos pe
Ġcre yendo
Ġcor dillera
Ġdue le
Ġen tu
Ġpil ares
Ġg us
ĠCh u
pe tencia
ĠC ub
m icos
Ġrecu b
Ġla p
ÃŃ pro
Ġprop ici
Ġcab ÃŃa
Ġalu cin
ci erto
Ġla va
ÃŃ qu
Ġcla vÃ³
Ġdiag nos
v ard
ĠmÃ¡g ico
Ġ19 13
Ġsem illa
Ġaguan tar
Ġconcent rarse
Ġsal sa
e i
lic ante
Ġviol aciones
ĠF oro
x ie
Ġmante quilla
Ġcontro ver
Ġhar ina
Ġperman ecido
Ġproyec ciÃ³n
en ne
P edro
Ġadecu adamente
AN O
ĠBen ito
Ġex ista
Ġop rim
Ġen ar
ĠL ÃŃbano
vers iones
Ġre ctor
Ġpen umbra
Ġrepent ina
m ÃŃn
ĠF ul
Ġpe gar
Ġso pa
Ġconm emor
ĠAr ro
ĠP ho
Ġen z
Ġano ch
Ġcru zados
ĠSan cho
Ġ7 1
ĠSegu ramente
Di jo
Ġexam inÃ³
Ġau ri
Ġasegu rado
Â ±
Ġgo zar
Ġmeter se
ĠB ale
Ġh ort
ĠTemp lo
Ġpa is
ĠR el
Ġperman entes
Ġcumpl en
in quiriÃ³
Ġquer rÃŃa
Ġenerg Ã©tico
ĠintÃ©rpre te
Ġatribuy e
Ġend Ã©mica
Ġunivers itaria
Ġinter medi
ĠEst onia
Ġpe ga
Ġincor pora
Ġas igna
tÃ³ rica
Ġagu jeros
ĠSegun do
fic aciÃ³n
Ġenfrent an
-- --
ĠCer ro
ĠN as
ĠTec n
Ã¡m icas
ĠbÃ³ve da
Ġcon gres
Ġcuan tita
ho use
Ġre mi
Ġmisericor dia
Ġatra jo
ĠCas tel
an co
Ġmencion adas
im al
In formaciÃ³n
Ġdol ÃŃa
Ġg it
Ġfij an
Ġhelic Ã³ptero
X I
Ġfib ra
Ġmoch ila
Ġpol ar
Ġdesign aciÃ³n
ĠProfes ional
tir se
Ġmac ro
ĠPar is
Ġrequis ito
Ġcon desa
T ienen
cion Ã³
Ġata cado
Ġat entamente
Ġbur bu
Ġgor do
Ġpa gan
Ġri endas
Ġvolv ÃŃan
Ġun en
Ġam as
ta je
Ġemp o
Ġescul turas
Ġbrin da
ĠSem ana
ĠS how
Ġorden ar
Ġens al
ĠR A
L lev
Ġpe dÃŃ
oc ol
Ġleg almente
ws ki
ĠD C
ĠDav is
Ġenf ri
ĠBl ue
Ġinf l
Ġconvo cado
ĠD entro
eg ro
Ġmencion Ã³
dor as
Ġfron tal
Ġs s
Ġcaz adores
Ġinstitu cionales
Ġcomunic ar
Ġrehabil itaciÃ³n
Ġintrodu ce
Ġprov echo
Ġsul tÃ¡n
Ġautor izado
Ġhosp it
Ġab an
ĠseÃ±or as
ĠMan cha
Mu riÃ³
Ġderi vado
Ġinfra cciÃ³n
Ġdescen diÃ³
Ġdis pers
Ġcer radas
M ac
ĠJim my
Ġabsor b
Ġmostr aban
T H
ĠR i
Ġllam ando
Ġob rera
ĠjurÃŃ dicos
Ġinteg rante
ĠK ra
rar me
Ġases inados
Ġriv ales
Ġbrill aba
ĠCla udio
am ent
Ġdeci den
z uela
ca o
ĠRus s
Ġobliga toria
ĠsÃ³l idos
ĠU s
Ġperf um
Ġmeridi onal
ĠTes tamento
Si gu
Ġson rÃŃe
b Ã³
Ġin a
st icas
Ġmagn ÃŃfica
Ġt h
Ġb y
Ġjorn adas
Ġcal lar
cla tura
Ġar ra
Ġras tre
ru st
Ġinici aron
pa ta
ĠLu cy
Ġhici eran
Ãºn ich
me diatamente
G B
Ġsobr ina
Ġdem ol
Ġ~ .
Ġdesconfi anza
Ġindi ferente
ig en
Ġtem Ã¡tica
ĠJes s
Ġdefender se
ĠO ctubre
Ġloc alizar
Ġarchi piÃ©lago
Ġform aciones
landes es
ĠGuz mÃ¡n
gen os
c ron
Ġorden adores
vers a
ĠGro up
Ġexperiment al
Ġmemor ias
Ġconform an
Ġlic enci
Ġon line
Ġdisim ul
c ario
Ġenf oc
Ġcalle jÃ³n
ĠB Ã¡r
Ġpermi ti
Ġand alu
ĠFu ente
Ġplan tilla
Ġcomple mento
Ð »
Com un
Ġproces amiento
Ġincom pa
Ġf araÃ³n
Ã©l ico
ar l
Ġab ras
Ġdisim ular
Ġaliv iar
Ġso bra
Ġcom ando
ĠT ed
ĠCh il
ĠseÃ± as
El lo
roso ft
Ġrev ol
Ġque jas
av iera
ĠdiseÃ± ada
d ing
Ġpresent ados
Ġmig raciÃ³n
ta Ã±o
tar o
Ġ19 11
Ġautor iza
Ġcorreg ir
Con cl
San ta
I talia
Ġl istos
Ġentre c
h as
Ġtermin aba
ĠCam ino
Ġrode Ã³
Ġle gend
cien ce
ĠL iz
Ġpreserv ar
ĠYo ung
ĠT ib
Ġsospech oso
Ġinesper ado
Ġdepor tivos
Ġocur riendo
Ġinte gra
ĠP ilar
terrÃ¡n eos
Ġindign aciÃ³n
Ġcomb inado
ci ano
Ġenfad ado
d ano
Ġsignifica tivamente
ten se
ĠBr uno
ud or
Ġqu im
Ġviv imos
ĠcÃ³n sul
h ay
on t
ru c
Ġrepublic ano
S am
y un
iz arse
Ġbio diversidad
F ab
dr ÃŃas
Ġpeti ciones
an dos
ec ca
Ġam on
Ġadminist rar
Ġsens ibles
ĠS pr
Ġdu dar
Ġol iva
Ġtra ici
Ġen ormemente
do mo
tri cas
Ġd ados
ĠP uerta
f rad
ron ter
Ġnombr ar
ĠL yn
Ġregist rÃ³
Ġf ech
ĠMujer es
Ġa curru
ĠI zquier
ĠI gual
ĠV it
Ġro t
Ġinci dencia
ĠacompaÃ± aba
Ġgolpe ar
Ġdejar la
se x
Ġrevel ado
Ġfantas mas
Ġgrande za
Ġ oso
Â» :
Ġli tros
Ġpres um
do le
ĠDi ana
Ġdi rÃ¡
Ġimpuls ar
C iudad
Ġasoci ada
% ),
Ġaplic arse
Ġtum bas
Ġator ment
cl ip
D ich
in f
tiv idades
ĠT Ãºnez
Ġale gra
ĠBu ena
Ġprede ces
Ġesper amos
Ġsepar ada
Ġt all
ri z
Ġes pu
ac ruz
Ġtestimon ios
o cu
Ãºr pura
ĠNat han
ĠEstatu to
U L
one y
Ġalmoh ada
Ġtranscur rido
Ġlad rÃ³n
ĠArgel ia
Ġadquier e
p to
Ġlic encias
R ef
Ġpermi tieron
Ġcontrol ada
ĠHer rera
Ġcer rando
Ġactu alizaciÃ³n
la o
Î »
ur Ã³
ĠM AR
Ġbar ran
Ġor i
Ġdepor tivas
Ġh ard
Ġd Ãºo
ĠJu ventud
Ġembar caciÃ³n
qu ismo
pi la
ion s
Ġtradu cir
Ġsemifin ales
da y
ĠI an
fic ado
Ġref uerzo
mes tre
Ġcompa tible
Ġacces orios
Ġar ca
Ġgar ras
ĠTer cer
m und
S tar
l um
z ano
ĠH orn
Ġimp le
ĠVol viÃ³
Ġvig ilar
Ġsent aba
Ġdes al
Ġgol f
ue v
Ġpor quÃ©
Ġle Ã±a
Ġca ver
Ġampl ios
Ġperio dos
ĠCor pora
Ġpres o
Ġguer rill
ic en
ĠF R
ĠGo od
ĠFil osofÃŃa
Ġgas tron
Ġembar caciones
A cab
Ġf os
Ġdeb ida
Ġsincer idad
Ġdefin ida
Ġconserv ado
Ġcor e
In s
Ġcrey entes
teg orÃŃa
Ġlent itud
olog y
Â» ?
Ġocupar se
Ġabandon ada
Ġperten ecer
Ġases inar
ig e
Ġgen ial
Ġtelef Ã³nica
Ġl ici
Ġen vas
Ġsuperior idad
ĠJul iÃ¡n
Ġhu Ã©r
Ġcompar ar
Ġtur ÃŃstica
Ġconfirm aciÃ³n
Ġdomin ios
Ġnav ÃŃo
Ġcons piraciÃ³n
Ġmar ea
Ġbara to
Ġfrust raciÃ³n
Ġca zar
Ġreper torio
pres s
Reg res
Ġlevan tamiento
Ġcar dÃŃa
Ġcor rÃŃan
igh ts
Ġten sa
Ġpas illos
ĠBro ad
Ġjef a
t Ã©n
ĠP OR
Ġsu bl
ĠP ÃŃo
Ġtrans forma
ĠH ub
C L
Ġorient ales
Ġanch ura
ia c
Ġtransform ar
Ġcereb ral
ab u
ĠH ard
ĠS ky
Ġle ma
Ġtex til
Ġecu aciÃ³n
Ġmu dÃ³
Ġpre texto
Ġla gos
fin anci
Ġpreocu par
ĠDipu tados
Ġdue Ã±a
Ġagra dezco
Ġgri taba
ĠJ onathan
ĠSan tander
Ġcobr ar
Ġdar Ã©
Ġver duras
Ġcontrol ado
Ġpronunci ado
Naci do
ven o
Ġdemues tran
ĠG an
ub io
m ÃŃ
Ġba Ã±os
Ġexca v
ĠB ag
Ġtard ar
Ġresplan de
Ġap Ã³st
Ġsor bo
ĠOl iv
Ġseg mento
Ġtras tornos
Ġnega tivas
ĠacadÃ©m ica
Ġla ber
Ġju icios
Ġprovis iones
Ġdu do
Ġper if
Ġcapital ista
p ie
Ġcamion eta
Ġrec ÃŃpro
ĠG im
ĠhÃŃ gado
ay s
Ġh ilos
c ana
Ġcomp la
Ġingen io
ĠCort Ã©s
Ġfra c
Ġneg ado
Ġmar cos
Ġdeci mos
r ino
Ġman tuvieron
ĠO limp
Ġpus iera
ĠfÃŃs icamente
Ġmiser able
Ġsal idas
Ġespeci alidad
c ena
S ir
is fer
ĠHo ward
P an
Ġch ir
c ente
Ġten ue
Ġrev uelta
Ġade mÃ¡n
Ġhall ado
Ġfr ÃŃos
tr en
Ġmec Ã¡nico
ĠÃŃn dices
Ġjuz gado
Ġrad icales
Ġte Ã±
ĠAl ban
Ġnot ablemente
Ġretra tos
Ġnaveg ador
ĠS ecciÃ³n
Ġco co
Ġmen Ãº
un cias
ade cu
Ġrec al
ĠPer ten
ien ses
tin e
Ġcompos iciones
Ġbas tar
Ġfres cos
Ġamar gura
ĠOb ama
ĠGio van
Ġma tr
ĠG R
Ġor iente
Ġexces ivo
ĠIn Ã©s
Ġsurg ir
Ġag ru
Ġm entes
Ġinfan tiles
Ġago tado
Ġcau tela
Ġagu ja
por aciÃ³n
Ġat ento
g encias
ĠM ER
Ġob viamente
Â» [
dr ÃŃamos
Ġcri ada
Ġmotiv aciÃ³n
Ġex termin
Ġcol lar
Ġretroce diÃ³
ce ae
Ġapar iciones
ĠkilÃ³ metro
G al
Ġse mestre
Ġc una
Ġreconoc en
Ġlevan taron
Ġmister iosa
ic ero
ĠP ronto
ĠCalder Ã³n
Ġfal sas
Ġrecib ida
Ġestatu as
!! !!
ĠB rig
Ġfu riosa
ac on
L im
s che
ĠMar c
Ġexpres amente
p ido
Ġmam ÃŃferos
mer al
Ġmis iles
A penas
Ġcal mar
mus itÃ³
Ġcarca jadas
Ġferrovi aria
Ġe mail
Ġredu jo
F ern
Ġpre ver
Ġpl ie
cion ista
ĠMauri cio
if i
Ġayud ando
Ġten siones
Dan iel
Ġgo le
Ġproducir se
Ġa trop
ĠCaball ero
Ġgobern ante
ĠL og
Ġconsider adas
ino is
on to
ust on
Ġinst ancias
Ġver so
Fu era
Ġadministra ciones
Ġestim ular
Ġb ull
Ġpa tentes
ĠAm ar
Ġimpre gn
Ġen umer
Â ®
ĠAs unciÃ³n
Ġb ea
Ġjer arquÃŃa
O rig
ĠPa kistÃ¡n
Ġsegu imos
Ġto alla
Ġta tu
re l
ĠAl Ã¡
Ġir res
ĠBen jam
Ġepi dem
ja te
ĠV ig
ĠL Ã©
Ġtres cientos
ub le
ĠBea triz
Ġ18 0
Ġu cran
Ġtransform Ã³
x on
Ġsu cia
Ġsilenci osa
Ġab alan
Ġla c
Ġquer idos
val os
Ġofrece mos
ĠCon tin
B la
ti t
Ġg ro
Ġca udi
Ġinterpre tada
Ġrepos o
Ġapoy ando
Ġvolun tario
Ġdeterior o
Ġserv idores
Ġz um
Ġase dio
Ġintent an
S ara
Ġacces ible
Ġtransform ado
ĠC es
ĠJ enn
Ġver los
Ġhermos os
Ġdisfru tando
Ġa ero
Ġotor gar
Ġmutu a
ĠVil lar
% ).
Ã© cia
ĠJ enny
Ġterror ista
In stitu
Ġsuces ivamente
Ġara Ã±a
Ġrec to
Ġgol fo
Ġadop ta
Ġacor de
Ġtem ores
ĠM Ãºnich
Ġpos icion
Ġquie to
ol las
Ġintent aron
Ġpol lo
americ anas
Ġaterri zaje
Ġb las
Ġcons ign
Ġcontam in
ĠG ustavo
ĠArgent ino
Ġd amos
Ġme tab
Ġrepublic anos
ĠcuÃ¡n tos
ud Ã³
Ġdelica deza
Ġmedi oc
Ġeleg ancia
ĠA ran
Ġrep i
Ġexten so
Ġdesh ac
ĠN ev
Ġfun eral
Ġprefer encias
Ġdeb idamente
ĠMon tes
Ġocup ando
v ora
ĠnÃºc leos
Ġcusto dia
ic he
J ac
ca t
Ġpre ma
s able
Ġque das
Ġmal e
ĠW all
Ġpobl adores
Ġasum e
ÃŃf ero
ex clam
J ean
Ġpene trar
da z
Ġtir ado
j ec
ĠEle ctor
Ġjub ilaciÃ³n
Ġven drÃŃa
Ġre tener
Ġca ta
Ġacep table
ra je
lo t
ĠtÃ¡c tica
Ġaerop uertos
SO E
Ġcorre dores
ef acciÃ³n
Ġconstru idos
T RO
Ġdolor oso
Ġde stitu
Ġedi tado
o h
ĠAm y
Ã³ f
Ġbar ras
Pro bablemente
Ġinter faz
Ġcirc und
Ġpas adas
Ġfal sos
in ista
Ġnom en
Con sejo
Ġestu pe
Ġpan eles
ÃŃ metro
ci tamente
tu viera
f Ã³nica
ĠK as
Ġdespe dir
ĠromÃ¡n tico
Ġimped ÃŃa
ĠRom ero
Ġinesper ada
Ġcompeti ciones
Ġasom Ã³
la va
ĠFin al
Ġse cas
Ġ" (
te dra
Ġneg aba
Ġan hel
Ġperman ecen
ĠsÃŃn drome
Ġbode ga
estr ÃŃa
Pregun ta
Ġdist ingue
inter vino
Ġdi le
Ġpac ÃŃfica
Ġins ol
b oy
Ġsangu ÃŃn
Ġque ja
ĠM et
ĠAma z
Ġn ido
Ġd rÃ¡
Ġpre h
H u
Ġhar ÃŃan
Ġaflu ente
Ã± ones
Ġmon tado
Ġmov iendo
ĠG ru
Ġcu bo
Ġron ca
Ġl Ã¡s
Ġinsu ficiente
Ġcafe terÃŃa
Ġdesp leg
ĠAr menia
Ġf este
ĠM A
Ġaf Ã¡n
Ġestruc tur
p pe
J E
ĠO TAN
Ã© lica
AR C
ĠS ul
ĠdiscÃŃ pulo
Ġanterior idad
Ġaj eno
tiemp o
Ġacab aron
Ġw ith
ĠC all
ĠF le
Ter min
Ġresul taron
Ġqu ita
Ġlimit aciÃ³n
ĠGlor ia
ĠCa to
ĠBar tol
declar Ã³
tos a
U tiliz
Ġ( )
Ġextin gu
ĠM emor
dr en
ĠMar sh
Ġpues tas
Ġprob abilidades
ĠSer bia
Pe ter
Ġmom ent
ĠS pe
im b
Ġcom itÃ©s
d t
Ġcos m
Ġelev Ã³
Ġcrea tividad
ĠCons ul
Ġd adas
al quiera
ĠG un
Ġbacter ias
ĠgrÃ¡ ficos
Ġmercan cÃŃa
o va
Ġh ÃŃb
Ġagre gar
Ġrecord ado
ent er
Ġ1 18
Ġal mor
Ġperio dismo
Ġexist ido
Ġdif unto
Ġa ires
Ġy acÃŃa
ĠcontemporÃ¡n eos
ĠBo u
Ġha za
Ġcontrovers ia
Ġprosegu ir
Ġpensa tivo
ci era
Ġencontr ados
Ġcons on
Ġvel ada
vi ente
Ġaband ona
Ġpropor ciones
Ġprofundi dades
ĠCin co
r Ãº
omend aciÃ³n
Ġmejor ado
ĠTh om
Ġencan tadora
ĠArm adas
Ġpe di
Ġautor a
Ġsuf riendo
Ġapropi ada
Ġca ÃŃan
Ġdisco grÃ¡fica
ill on
Ġvac as
Ġvac ÃŃas
Ġconst ancia
Ġos ci
Ġley endas
Ġesca pado
ob ia
Ġsep tentri
Ġbenefici arios
Ġkil os
Ġmurmul lo
ĠJ Ãº
ur sos
Ġtro pa
ĠRo jas
Ġsup era
st ad
Ġdici Ã©ndole
Ġsalud able
Ġbrill aban
Ð º
ÃŃ ticos
Ġser Ã©
Ġv ist
ĠIn c
Ġval ioso
ĠZ ona
Ġre apar
Ġencu b
Ġd ÃŃg
R ich
Ġorden a
ĠPre gun
Ġo cio
itor ios
l us
Ġb ue
ĠMu chas
Ġtitu lares
Ġsa ga
o pl
Ġprev ent
Ġmal dad
ĠcatÃ¡stro fe
Ġdesen f
M AN
Ġconec tar
Ġexha ust
Ġren dir
LI CA
lo ck
Ġevent ualmente
Ã³n imos
Ã© e
Ã± anas
Ġsab ore
P SE
Ġcombust ibles
ĠCh ap
Ġsorpren der
ĠmarÃŃti ma
Ġmer cen
Ġconver gencia
Ġdes mor
ĠLin coln
ĠFac ebook
f ul
ĠPro ce
Ã§o is
ĠB omb
d ro
ĠA ren
Ġten gamos
ĠOr questa
Ġcolec tivos
Ġex hibiciÃ³n
Ġalcan zaron
Ġdeleg ados
Ġsu deste
f ÃŃn
Ġcon lle
Ġver tic
d le
Ġtras torno
M amÃ¡
Ġvir rey
Ġexp uestos
Ġmanten ÃŃan
O O
Ġvenci Ã³
Ġlo bos
Ġsepar ar
Ġco ge
Ġgran os
ĠMargar et
Ġcasti gar
Ġdes centr
ĠG am
Ġmi tologÃŃa
Ġaf irman
Ġbe biÃ³
par tida
Ġcau te
Ġequip amiento
Ġestatu to
p y
Ġsac ando
Ġnombr ada
Ġen unci
Ġdesp ierto
b los
Ġtra mos
Ġgeo grafÃŃa
ĠAh ÃŃ
om el
Ġcercan ÃŃa
I gualmente
Ġen cla
Ġcas cos
ĠCon dado
Ġopera tivos
Ġsignific ar
ĠR T
ĠRes erva
Falle ciÃ³
ĠPue do
A ust
te ur
ce mos
im ar
Ġileg ales
ĠH ip
ĠB BC
ĠNeces ito
Ġparticip ando
Ġca en
Ġgu iar
Ġnar raciÃ³n
ĠSal ida
ĠlÃ¡mp aras
ĠU SA
Ġdemas iados
Ġru ina
Ġdispar ado
Ġin Ã©
Ġpuntu aciÃ³n
ol l
ĠelÃ©ctri cas
ric aciÃ³n
Ġsac aba
ĠMa xim
IS IÃĵN
ĠA bu
Ġexp ulsiÃ³n
Ã¨ s
Ġcuader no
B ro
ge lo
Ġdesv enta
A A
L an
vis ion
ĠFis cal
tain ment
Ġpol Ã©mica
Ġhorm igÃ³n
rÃ¡ ul
ĠaÃ© reas
Ġmic rÃ³
Ġfrag mento
Ġproven iente
Ġab ren
Ġsupre ma
Ġo h
Ġincom pr
Ġlad rones
Ġnoctur na
Ġde cepciÃ³n
ĠT anto
Ġsin tiera
Ġanim ada
ti ces
ing en
Ġindi cios
t Ã¡menes
ĠCh ur
Ġnaci da
S ue
B al
ĠBru ce
ĠhidrÃ³ geno
x el
Ġadolesc encia
ĠL lo
ĠN ora
Ġsolici ta
Ġodi aba
tec nologÃŃa
f et
Ġab usos
Ġla dera
Ġanim ado
Ġcaptur ar
Ġcar peta
Ġmanz anas
Ġhaci Ã©ndose
Re ino
Ġla var
di damente
Ġho guera
Ġcic los
R S
n aciÃ³n
Ġa tÃ³n
Ġescu dos
Ġcruel dad
< <
Ġin ad
Ġcri tic
ĠPe tro
osa u
Ġescalofr ÃŃo
H istoria
Ġinteres aba
ĠW y
Ġconcer n
Ġconces iones
Ġfortal ecimiento
s abes
ĠBr un
Ġme ti
Ãºr gica
Ġsuperviv ientes
Ġcomunic arse
Ã©ndo les
Ġestim aciÃ³n
Ġbar ri
Cu Ã¡les
le te
Ġ19 08
p lica
ĠHa itÃŃ
Pos ee
D ER
Algun a
ĠCat herine
Francis co
Ġexten siones
Ġtem eros
ĠDeb e
b able
ĠH ur
ĠT on
Ġri fle
ĠL ÃŃnea
ĠF ÃŃs
Ġal udi
m erÃŃa
Ġtoler ancia
P RO
Ġcre di
Ġalmacen es
Ġcomplic aciones
v iste
D ar
Ġcol gado
Ġanfitri Ã³n
ĠF amilia
Ġape tito
Ġcaus ando
ĠConstantino pla
Ġdes us
ĠP ien
k ÃŃn
Ġcap tar
Ġsent ÃŃan
Ġcapri chos
Ġllev ados
ĠOc ta
cos o
bl ado
Ġcer raba
Ġinter rup
cil los
se gÃºn
Ġcan ci
tern al
Ġadelan tÃ³
Ġqu ir
Ã±o z
ĠbritÃ¡n icas
V i
h oy
Ġcampes ino
Ġmur murÃ³
ĠC ri
Ġrep as
Ġsent Ã©
Ġasent amientos
ĠIng lÃ©s
Ġalber gar
M ag
ĠT iempo
ĠN ep
cip lin
ĠPos t
el Ã©ctri
Ġol ÃŃa
Ġempresar iales
Ġha cha
cur s
re ll
Ġimpu gn
Ġbeb Ã©s
Ġcomprome ter
Ġtab erna
Ġatar decer
ĠOl d
ĠJ r
Ġexig encia
Ġinoc entes
Ġcoinci de
Ġce diÃ³
um ento
Ġgana derÃŃa
Ġhel ada
Ġcomprob Ã³
bit amente
ĠLa go
k ers
Ġformul ada
Ġadivin ar
Ġconf iado
Ġaust rÃŃa
ĠSal om
ĠBos nia
Ġfores tal
l ista
' t
v ista
Ãģ N
ĠÃĵ scar
Ġcl Ã©
Ġob ediencia
Ġacab aban
Ġaut oma
Ġrec ort
Ġreprodu cir
ĠNatural eza
T ran
Ġsust an
Ġtabl ero
E uropa
Ġtom Ã©
ĠmetÃ¡l ica
Ġmar cador
Ġren unciÃ³
qu ist
aliz an
Ġvende dor
Ġen gan
Ġde tes
Ġma Ã±anas
Ġmu che
Ġllev arlo
Ġhab ita
ĠNi Ã±o
Ġen te
go b
ante mente
IN E
Ġtembl aba
Ġin dul
aci Ãĥ
Ġfu iste
p Ã¡
Ġmanip ulaciÃ³n
PaÃŃs es
s im
Ġcolabor Ã³
ÃŃr culo
Ġcol gar
ĠB aviera
Ġto tales
Ġma tor
ĠMiemb ros
Ġinterpre taciones
ĠCu enca
Ġsin te
ĠS id
Ġn as
Ġenfrent amientos
ĠautÃ©n ticos
ĠAl var
d amos
ĠPens Ã³
Ġno tado
Ġvic tor
Ġs ta
ĠS ob
Ġor b
ĠSe de
gu b
Ġalquil ar
Ġdecis iva
ĠincÃ³mo da
Ġe d
OR ES
Ġtra gÃ³
ĠCh er
Ġconserv ador
Ġin cidentes
ĠSe a
Ġcobar de
Ġaceler ar
ĠR ap
Ġtam bor
Ġejecu tado
Ġestall ido
Ġrepresent ando
fa to
Ġmayor domo
Ġdoc tr
Ġsol ares
Ġam ada
Ġre zar
Ġfuer e
Ġdismin uye
Ġmadu rez
ĠAm sterdam
Ġcora je
Ġemp i
Ġtir ando
ĠMas sa
ĠGuar di
al las
Est uvo
Ġvi deos
ĠNav al
Ġencontr arÃŃa
ĠP av
ĠOl ivia
ĠP it
Ġseren idad
es tad
n ada
il ados
Ġad mite
Ġtri ple
| |
on na
ĠB ad
Ġtrans acciones
rial dad
alu pe
Ġpu p
Ġil usiones
Ġadj unto
Cer ca
ĠSa j
ĠÃŃn dole
Ġorn am
ĠÎ Ĵ
Ġinconven iente
ĠU p
ĠHuman idad
In tern
ĠCla ire
Ha ga
Ġrel i
ĠI mag
Ġtransf ronter
ĠPar tes
Ġconce dida
Ġvincul ados
Ġre ÃŃa
Ġcontrad icciÃ³n
Ġenro je
el t
ĠJ ersey
Ġacab arÃŃa
Ġexten s
an se
ĠPa ch
Ġolvi de
ona to
in dic
F a
ĠhÃºme dos
ĠFran ce
ĠMa Ã±ana
Ġra tific
Ġpes te
ĠA ga
Ġinund aciones
om or
Ġarbi tr
Ġpr enda
ĠRe f
O n
ĠL ine
cu entro
D UC
Ġprogres iva
Ġresca tar
ĠZam ora
L AS
Ġinter cep
Ġquit arse
Ġapete ce
Ã© ricos
Ġsub especi
Ġcar ecÃŃa
Ġhon ra
Ġo puesta
ĠT ech
Ġcor bata
m ier
ĠmolÃ© culas
ma cul
Ġindemn izaciÃ³n
ĠG ala
Ġf rialdad
ĠH at
Ġab ertura
j ÃŃa
Ġorgullos a
Ġver ificar
ĠO ne
Ġrel len
o fici
Ġsacri ficios
Ġpe didos
Ġconec ta
Ġproductor a
Ġen ju
Ġgara je
Ġin vi
Lo u
Ġenter os
Ġce dido
Ġilum inado
p ico
Ġor to
Ġlabora torios
ĠHe in
Ġcumpl iÃ³
ĠLeon ardo
Ġan Ã¡
Ġrecor re
Ġt ime
Ġar men
Ġlu cro
vi de
Ġpu reza
Ġarte fac
Ġment almente
Ġcompa tri
Ġdifun dir
ĠSu Ã©cia
Ġbr ome
Ġsab Ã©is
Ġremon ta
Ġexit oso
ĠO br
Ġprogres ivamente
Es pera
Ġcap itu
Ġir rump
Ġserie dad
Ġprove er
W eb
Ġdepen dencias
ĠP uesta
Ġagres iÃ³n
ĠSin tiÃ³
ĠB las
tas te
Ġf Ã¡rma
ĠIs l
Ġo yeron
Ġpo pa
Ġ9 00
Ġiden tifica
Ġfres cas
Ġma tando
Ġj ab
Ġtre men
Ġlan zando
Ġincen di
Ġco e
Ġl inaje
ĠNeces itaba
om an
r ÃŃo
Ġconsi dero
Ġescol ta
Ġperman ecieron
Ġej es
Ġproporcion ado
pol i
ĠCora zÃ³n
ĠMar cus
Ġgir as
Ġconcent raciones
Ġac ta
Ġbara tos
Amb as
Ġac tÃºan
b ÃŃ
Ġole ada
Ġe rÃ³
Ġreflex iones
Ġcos tillas
Â» âĢĶ
Ġam abilidad
Ġanunci ar
am par
Ġres pirÃ³
Ġri g
F i
Bar celona
Ġrev iv
ia t
Ġâ ĸł
Ġconver tÃŃa
Ġcaz ador
Ġcomb ina
ĠW o
Ġvia ja
Ġde mor
Ġbre cha
Ġsu d
Ġconstitu ÃŃa
ĠPeter sburgo
Ġplante ar
dr omo
Ġyo u
erv os
Ġna tur
s s
w itz
ĠRev olucion
Ġmara villa
ĠeconÃ³m icamente
Ġech ando
ĠJ al
Ġresul tante
Ġtembl ando
pl ona
Ġun d
Ġcontra tar
Ġdefens as
an unciÃ³
Ġparlam entaria
Ġcal cula
Ġmulti later
Ġcircu itos
cul tural
Ġast rÃ³n
Ġcigar rillos
ĠE mpleo
Ġascen der
Ġe uf
Ġimpon ente
ĠAmer ica
Ã©c do
Ġp om
H en
Ġdirec tas
ĠsÃº b
ĠK am
Ġvac uno
ĠL ista
Ġcos tar
Ġmov ido
Ġposes iones
r ÃŃamos
Ġas co
ĠAb el
c ta
ad illas
Ġconf uso
Ġder re
Ġvac ÃŃos
Ġpru dencia
Ġdesb ord
ĠG ram
Ġconstitu yÃ³
Ġpales tinos
Ġafri canos
Ã©r selo
ĠFo ot
Ġpresiden ta
ĠG ordon
Ġ19 06
Ġsol ista
Ġast ill
ĠCu entas
Ġmedi taciÃ³n
Ġva ca
Ġte ologÃŃa
Ġag itaciÃ³n
ĠCam pos
ĠMar ian
Ġdescub ierta
Ġan illos
ĠLitu ania
Ġcomis arÃŃa
g Ã³g
Ġvelo z
ĠCol orado
Ġp Ãºrpura
Ġcor al
Ġsuces ivo
ĠMag n
D oc
Ġcomun iÃ³n
Ġpro fec
Cu adro
Ġpon iÃ©ndose
Ġp ub
Ġdivi dir
Ġhol andÃ©s
Ġpa tada
Ġdoc entes
Ġin adecu
Ġsur gen
Ġcal lado
ĠTom my
Ġs ales
Ġgrab ados
Ġadelan tado
iz aron
Ġais lado
Ġna va
ĠCh arlotte
Ġcoin ciden
ĠA licante
Ġdo cenas
Ġprof eta
Ġpal mas
par ti
Ġab rum
Ġcu en
Ġmoto ci
isfer io
ĠTra tados
Ġpers a
? âĢĶ
R C
tes e
Ġconv inc
ĠA ce
Ġmor diÃ³
Ġtes oros
Ġrel Ã¡
Ġtermin ada
Ġconseguir lo
ĠS qu
Ġprecau ciÃ³n
Ġamon ton
Ġgu ÃŃas
ĠAssocia tion
h y
as tri
Ġpel u
g antes
Ã© stico
S iendo
Ġpasa porte
Ġsurg ieron
Ġrepent ino
lo b
Ġdi ab
Ġunif ormes
ĠM ala
P T
la ta
Ġapar ecÃŃan
Ġrespon dÃŃa
Ġestim ado
el amente
T ur
Ã©s ima
ga pur
ol ar
Ġintens amente
Ġcar gada
Ġalcan zan
Ġpele ar
Ġescuad ra
Ġpropor cional
Ġcamp ana
Ġlu chÃ³
zz i
Ġinsist encia
ĠIn v
ĠfotÃ³ grafo
Ġv iste
** *
Ġsindica to
] ],
Ġcinemato grÃ¡fica
ones a
ĠN Ãº
Ġbi olÃ³gica
ĠÃ©l ite
ĠRe forma
Ġbar Ã³n
he ad
Ġdestac ando
Ġpas amos
Ġdese e
ĠAri zona
Ġdeca dencia
r encia
Ġac cidental
Ġabandon aron
ĠF i
Ġlegisla tivas
ĠOr le
Ġredon de
AR I
it ante
ĠCar re
Ġfirm es
ĠCon f
Ġu til
m icas
Ġincorpor ado
Ġab uelos
Ġsuper mer
Ġascen diÃ³
Na turalmente
Ġp ilas
ĠPÃºbl ico
Ġv estig
Ġaf iciÃ³n
acea e
G T
ĠCas s
ĠacompaÃ± ados
Ġ âĢ¦
Ġren om
es tado
Ġnaci dos
Ġhisp ano
por to
Ġval enci
Ġrin cones
ĠA qu
ĠH is
M os
Ã± al
Ġco Ã±o
Ġquer iendo
Ġceremon ias
? ...
ĠLe wis
Ġinverna dero
ĠPo p
Ġdefens iva
V an
Ġconvenci onales
B ra
mul as
Ġten so
Ġu ruguay
ĠJa ke
Ġmic ros
Ġvar ÃŃan
ĠEd gar
Ġcru za
Ġespu ma
ĠCla udia
j amos
Ġllam amos
ent ando
Ġpin ta
qui cia
ĠC ient
Ġremo del
Ġad yac
Ġmales tar
ver y
ĠCentro amÃ©rica
Ġcomprob ado
ĠmÃ¡r genes
st one
Ġloc aliza
qu io
Ġcu riosa
ba te
ĠDoug las
Ġ1 19
Ġelev adas
ĠA van
Ġcasta Ã±o
ĠW W
uy a
Ġhig iene
Ġpresiden ciales
rig iÃ³
e ira
Ġast ro
ĠBea ch
Ġsob rena
Ġfor zado
se udo
Ġinter medio
ĠIn no
ci so
Ġpas iones
Ġterri toriales
ĠV all
ĠEdi torial
Ġsobreviv ido
Ġcambi an
ĠdÃ© cimo
Deb utÃ³
âĢĵ Â¡
Ġinterrump ir
ĠMic rosoft
Ġfor zar
u raciÃ³n
Ġrecha za
Ñ ĥ
Ġapren diÃ³
Ġa ir
Ġsi der
il lar
Ġcon g
Ġ( +
Ġdej amos
Ġsu puesta
p un
Ġtor os
Ġpo table
Ġdeb u
Ġas fi
ĠH izo
Ġmanifes tar
Ġprece dente
ĠC ara
Ġe vangelio
on Ã³
respon de
Ġcom iendo
Ġ19 07
Ġconec tado
ĠPer Ã³n
Ġcom a
Ġco gn
Ġfo co
ĠEst Ã¡n
ĠM olina
pa tri
Ġfir mas
Ġperio d
Ġau ge
Ġmor dis
ĠLiber al
x is
Ġsal vÃ³
Ġsub ida
es tes
ĠD ES
Ġadver tido
st ra
Ġquier an
ĠSy l
Ġpens amos
Ġcompeti dores
Ġavan za
Ġr ond
ĠP ur
ER S
Ġdiscipl inas
D ES
F und
ue vos
ĠlÃŃqu idos
Ġcamar adas
Ġis lam
Ġdesci f
e amiento
esti al
z oso
re b
Ġestudi a
ian zas
Ġsa grada
Ġemple ada
???? ????
Pol ÃŃtica
w i
Ġ16 0
Ġla zo
ĠF BI
Ġinf il
Ch rist
Ġarti culo
ĠvÃŃ deos
C og
Ġal gor
Ġor ques
CE CA
gu r
Ġmar inas
ĠKe vin
Ġgener oso
D S
re al
Res pecto
Ġsole mn
Ġn Ã³m
dul idad
ĠLor ca
ĠP erio
cion ados
Ġel ocu
Ġfu gaz
ĠHel ena
ĠP olo
Ġmul tin
b rica
i tis
Ġtron cos
Ġgrab ada
ĠmÃºs culo
Ġin venciÃ³n
il io
Ġindi cando
h abÃŃa
Ġ ora
Ã¼ e
AT T
Ġpar iente
Ġun Ã¡n
yec tos
Ġlej ana
ĠR aci
ĠI glesias
Ġcontra jo
Ġagu ar
ĠGran t
Ġentre cer
Ġan taÃ±o
Ġsepar arse
ĠL ife
Ġcomple jas
Ġtum or
ĠC i
Ġpr osa
Ġdan Ã©s
ĠIs lam
vi dentemente
Ġres e
Ġdomin gos
Con tra
Ġgimnas io
Ġan orm
dos as
Bu enas
sos pech
Ġrefle jan
ĠBel la
ĠdÃ³ lar
Ġcal efacciÃ³n
Ġren cor
Ġarquitec tos
ig no
Ġdespren de
Ġprom et
her e
Ġbel las
Ġgesti onar
ocol mo
Ġb ac
ĠMac edonia
ĠportÃ¡ til
Ã¼ h
B e
em an
Ġviol entamente
as ÃŃ
Ġcamp us
ĠCons erv
Ġger ente
Ġconte x
Ġton terÃŃas
Ġvincul ado
pen h
ĠBale ares
ust ro
Ġfur gon
Ġcoleg ios
Ġsab ios
Ġan Ã©cdo
Ġab ro
Ġgobern ar
ĠEsp acio
ĠIll inois
Ġmin orÃŃas
Ġrepresent Ã³
ĠIngenier ÃŃa
H el
Ġavan zados
Ġestu pidez
Ġresul te
ĠB ut
ĠD ese
Ġcar tÃ³n
Ġac lam
Ã¡st icas
Tex to
car ia
ĠI t
Ġreal ice
ĠPes ca
r un
Ġb Ãºl
Ġtradu cido
Ġjugue tes
Ġhort alizas
so via
Ġ18 90
ĠreÃºn en
d ney
Ġan ul
ile a
ĠHo t
ĠH ubo
Ġbus caban
Ġinform al
Ġinme di
Ġdesesper adamente
Rec ord
ĠromÃ¡n tica
C S
[ [
or de
Ven ga
tr ada
Ġamb ientes
Ġescas as
Ġra tas
ĠmÃŃn imas
Ġal usiÃ³n
bi an
ĠN ight
ĠB ona
Ġba terÃŃas
ĠMa jestad
Ġmanif ies
Ġcol gÃ³
ĠPerman ente
Ġperder se
Ġord inario
ĠV ÃŃa
Ġinter vino
Ġegip cios
Ø §
Ġil ÃŃ
Ġy aci
N U
Ġc era
ier na
Ġmir arme
T ri
Ġdej es
al lo
il vania
ĠO pen
ĠPen ÃŃnsula
Ġban ca
Ġinflu ir
Ġreglam entaciÃ³n
ĠAn tio
Ġtecn olÃ³gicos
Ġvam piro
Ġsor do
Ġseguir ÃŃa
ĠfantÃ¡ stico
Ġtan que
Ġobserv ador
Ġdescub rimientos
pens Ã³
te gra
Ġenter Ã³
Ġca pu
hat tan
che t
Ġllev arla
ĠVar gas
H um
ĠtÃ³ x
b ec
Ġmov ÃŃan
Ġsignifica tivos
ĠHar t
ĠN T
c f
Ġinterpre tando
o zco
Ġdeclar ada
ĠHam burgo
Si mplemente
ĠhuÃ©spe d
ĠM isiÃ³n
Ġincorpor arse
Ġic ono
Ġex hal
ĠVer acruz
Ġecu ator
Ġcica triz
F re
ar to
ps ia
Ġenvi ada
f is
g Ã³n
Ġimpos iciÃ³n
Ġfacil ita
Ġbur la
Ġocta vo
quÃŃ vo
Ġmonstru os
Ġor gas
Ġdescub rieron
Ġdeleg ado
Ġfati ga
na val
ĠD IS
Ġexig ÃŃa
Ġsecu estro
ĠN am
Ġfal la
c ru
Ġsepar aba
Ġcos ech
ĠL U
Ġman gas
ren ce
Ġprote ÃŃna
B M
e ti
di tas
Ġex enciÃ³n
Al l
Ġpublic adas
Ġas ciende
Ġmas co
Quer ÃŃa
Es os
Ġre car
r arÃ¡
? âĢ¦
in n
Ġcon des
Ġrestri cciÃ³n
F lor
Ġcl ero
Ġcal m
Ġdestru ida
ĠK elly
Ġgan aron
Ġre vo
idal go
Ġignor ar
Ġintentar lo
Ġab rup
Ġproteg idos
Ġgem elos
Ġre goci
Ġdivi den
us co
Ġcre p
f lu
Ġarrastr ar
Ġ3 50
Ġconserv adores
Ġhuman itaria
Ġcoinci dencia
Ġdiscul pas
ĠL ab
ĠDol ores
Ġ14 0
u i
Ġpens aban
P uesto
Ġcomp uso
Ġimpac tos
Ġfestiv ales
ĠVI H
ĠVen us
Ġa diÃ³s
Ġinter rupciÃ³n
Ġfores tales
Ġun idas
un os
Ġteleno vela
O GA
ĠR al
ĠCo ord
E m
Ġextra terres
Ġma taron
Ġplacer es
Ġan he
Ġpresupues tario
Ġagrade cido
Ġtribu to
ad illo
Ġreal istas
ĠHen ri
ĠtÃŃp icos
Ġac ome
ĠR y
ĠCap ÃŃtulo
to v
ĠvÃ¡l v
Ġele va
Ġmuche dumbre
as tas
omel idae
Ġgen u
ras burgo
Ġadvers ario
Ġprepar aba
Ġascen dido
ĠdomÃ©st icos
r adora
itar iamente
em ora
tal o
Ġde ton
Ġ( âĢĶ
Ġser ios
as i
Ġsocio econÃ³m
D T
r ina
f Ã©rica
Ġbrin dar
vie do
Ġla vado
Ġincorpor ar
ĠA ut
Ġdo tado
V ia
Ġencu estas
ĠJul ie
M el
il s
Ġ19 09
Ġdec ora
ĠChrys omelidae
ĠMunicip io
D en
ĠPre mios
Ġdistribuy e
ĠPAR A
ĠNo bel
I L
Ġargent inos
penh ague
Ã³p teros
ĠE uros
CuÃ¡n tos
Ġren diciÃ³n
Ġl itoral
Ġja ula
Ġfun er
ĠMu Ã±oz
de dor
Ã ¥
vi ra
trodu cciÃ³n
A na
ĠEx per
Ġapor ta
om ento
Ġban deras
Ġdescon oce
ĠdiseÃ± ados
Ġante mano
or ganizaciÃ³n
ĠJo urnal
Ġvenezol ano
Ġampl itud
ĠC R
ĠG l
ĠT ir
Ġma ch
Ġcor ral
m acia
ro co
Ġhura cÃ¡n
Ġmort alidad
ĠD ante
sospech oso
ĠPar ker
Ġalcan zaba
Ġres urrecciÃ³n
at aciÃ³n
Ġge omÃ©
Ġad Ã³nde
Ġentre ab
ci rÃŃa
Ġartes anos
Ġatre vido
Ġceleb ran
V o
Ġa ch
Ġin da
Ġsosp echos
ĠNeg ra
ort on
Ġaerona ves
ĠP rado
E jemp
Ġsosten ido
Ġdiam antes
ad izo
ĠlÃ¡s er
rue be
ĠOc Ã©ano
ĠimbÃ© cil
Ġca dera
Ġma quilla
Ġdespe dido
s ec
Ġ19 04
Ġloc alizada
ĠDun can
Ġmetodo logÃŃa
Ġr entas
J ames
Ġcomun ismo
Ġportugues es
Ġviv as
Ġinsist ir
Mu cho
U AN
Ġest ip
ĠL ie
Ġusu almente
Ġreo jo
du mping
Ġbombar deo
Ġo je
Ġestan que
Ġdefin en
Ġvoc alista
Ġacer camiento
ĠTh eo
Ġmater na
S oci
c ord
Pas Ã³
Deb o
ĠL ang
g ers
Ġpres cin
ĠK le
ĠSaj onia
pe tas
ĠS Ã¡
cos as
Ġhid rÃ¡ul
CI O
Ġvulner able
Ġfran quicia
Ġal b
Dis fru
h acer
Ġser Ã¡s
Ġapag ado
Ġsubmar ino
Ġdescrib en
ĠjurÃŃ dicas
lan es
Es peci
Ġinyec ciÃ³n
ros os
Ã©n ico
Ġencan tador
ide a
Ġob se
Ï ĥ
et he
bo x
J uega
ĠL oc
Ġg oma
Ġir an
Ġb estias
ĠT in
Ġale jaba
C entro
Ġdes cripciones
il y
ĠV Ã©
Ġnorm alidad
ĠS ho
at t
Ġest il
ĠK re
Ġcomb inada
Ġc Ã©n
Ġret ablo
Ġdi ariamente
ver g
Ġinto ler
Ġcontro la
Ġacus ados
ĠAlfre d
tern amente
duc ÃŃa
Ġtrans n
Ġfal se
Ġvis iones
ĠA plic
Ġbatal lÃ³n
Ġviol ÃŃn
ĠGob iernos
Ġal zaba
Ġrep ite
Jo der
Ġverda deras
ĠMal asia
den as
ĠGuad alupe
Ġgener osidad
Ġa tras
Ġsu mar
h ue
ĠVer dad
Ġma jes
Ġpon ÃŃan
Ġinfin ita
Ġob tuvieron
Ġajust es
d ale
ĠnÃ¡ use
Ġmelan cÃ³
xim adamente
ĠGiovan ni
Ġflu ido
Ġm im
Ġdes echos
V E
Ġbio grafÃŃa
L ea
ĠPatri cia
Ġman tas
Ġma jestad
ĠPro f
Ġconcent rado
Ġcor ren
Ġcont un
Ġbol iv
Ġacep tada
Ġcompar ado
Ġamist oso
Ġjugue te
z io
Jug Ã³
Ġencuent ras
Ġcamar ada
ĠEst Ã¡s
Ġpel irro
Ġbas an
Ġen gen
Ġconfun dido
Ġcenten ar
di st
Ġsatisf echa
Ġserv ÃŃan
Ġdes ac
Ġve an
Ġas fal
Ġabor to
Ġjo venci
Ġton terÃŃa
Ã¡c tica
Ġgo zo
MI EN
Ġllev as
Ġfavor itos
ĠGar den
er ado
Ġalterna tivo
ici onal
ĠAr abia
Ġsal vador
en di
ĠCor onel
Ġaplic ada
em ia
Ġexpuls ado
Ġorg Ã¡nica
Ġc ac
ĠEstre lla
ĠF ED
Ġdra mÃ¡tica
an ge
ĠSy stem
ĠI T
ÃŃm ulo
fÃŃs ica
ch or
Ġanti ci
ĠO R
Ġcor recciÃ³n
v ic
ap as
Ġsab rÃ¡
abe tes
Ġconce jo
Son riÃ³
Ġarres to
Ġb eca
Ġdo g
ag as
ĠTraba jadores
ĠPlan eta
Ġpos ada
Ġacer caron
Ġenten diÃ³
ĠPor to
Ġarro jar
ci tas
Ġrece ta
Ġse vera
Ġdedi caba
ĠIndepen diente
Ġtrist es
le a
Ġcoher encia
ul osa
ĠlingÃ¼ ÃŃstica
Ġinjust icia
Ġsemin arios
Ġastero ide
Ġdist anci
ĠReg istro
ĠRecuer do
D ist
d ll
ĠZ ar
Ġvest ÃŃa
ĠV ent
Ġcuad rada
ĠAnder son
Ġbeb iendo
Ġcomple tÃ³
Ġinfec ciones
co tt
ĠOr tiz
ch use
Ġcent rado
Ġdi me
Ġgener ado
Ġvelo cidades
Ġexpon e
ĠR eci
Ġfuncion aba
Ġliber alizaciÃ³n
del ante
Ġmir Ã¡ndolo
Ġdemo cra
a hora
Ġes cur
cu mb
Ġdedi caciÃ³n
ĠmÃŃn imos
ĠOb ras
Ġinv ol
Ġ á
ĠF itz
ĠGlo bal
ad me
ĠS av
Ġconfun dir
Ġsent imos
Ġdefen diÃ³
Ġa te
Ġregist rados
Ġtermin ando
ĠâĢĶ Â¡
con tin
Ġprote ge
di oso
Ġinmedi aciones
Ġeleg antes
Ġform ados
ĠK ent
Ġafirm aba
ĠL isa
Ġras go
ĠmÃ¡ ximos
ci alidad
ĠQu ito
al los
ĠA dolfo
ĠO p
Ġsuje tÃ³
Ġnove dades
to wn
ĠMon ta
Ġpos tre
Ġimag ina
Ġdom Ã©stico
Ġalgor it
Ġacer quÃ©
Ġpres tÃ³
Ġauxil io
ĠSh ar
ĠNel son
Ġnomen clatura
Ġgan arse
Ġconf is
ĠMc C
ĠOb ispo
Ġinclu ÃŃan
ĠL et
Ġc aci
Ġfamos as
Ã¤ n
ĠAnti gua
cu les
ĠS ri
col os
tÃ¡n eo
x x
Ġ18 70
Ġtra idor
Ġâ ĪĴ
Ġsal imos
respon dÃŃ
la y
ĠAr quitec
ĠS pa
ĠP ia
Ġgan adores
Ġdur ar
ĠA vi
ific Ã³
Ġc ÃŃ
Ġatraves ando
Ġpasa jes
K a
Ġdesapar ecieron
chuse tts
O ye
Ġdar nos
Ġin hib
gub ernam
B ri
M ON
ĠO tto
Ġasoci adas
Ġproteg idas
Ġt ÃŃ
ĠJÃº piter
Ġdiscre ciÃ³n
ab ras
Ġdirig ÃŃan
Ġciruj ano
Ġatre viÃ³
Ġrecor rÃŃa
ce o
ĠMER CA
Ġpatr ulla
Ġincap aces
Ġrel aci
Ġdedi cadas
ĠDo cu
ci entemente
Ġdetal lado
Ġincom ple
Ġfal los
ĠbaÃ± era
Ġc eg
Ġque mar
ĠAp olo
Ġin her
ĠD G
Ġayud aba
ĠlegÃŃti mo
ĠinÃº tiles
Ġaf lo
Ġdesarrollar on
Ġb rigada
Ġnave gar
ĠAngel es
Ġdu dÃ³
Ġcual ita
Rob ert
ĠGa za
iden tes
Ġcoord inar
ĠlÃ¡p iz
Ġguard ado
Ġri cas
ĠmÃ¡g ica
ĠT ob
Ġ12 5
seÃ± alÃ³
ĠLon don
if ormes
lec to
Ġpul gadas
Ġdejar me
ON ES
ĠS ing
fi la
Ġmol estia
c ala
ĠdiseÃ± ar
Ġrenov ables
Ġradi ante
Ġast u
Ġconven iencia
ĠP un
H A
Ġconten ida
Ġpriv acidad
Ġmir an
Ġhon ores
Ġsegu ÃŃ
Ġincu mb
ĠPam plona
res s
Ġro daje
Ġemb os
Ġempez aban
Ġline al
B ur
ĠE ri
Ġri tuales
Ġporta voz
ĠgruÃ± ido
ha i
ona je
Ġsent encias
Ġvol viÃ©ndose
ĠDe portes
Ġt ÃŃos
Ġra ya
Ġmol de
Ġconven ios
Ġir rad
Ġestablecer se
Ġcaus ada
Ġdiscap acidad
Ġcal ientes
Ġsu izo
Ġ ]
Ġimp lÃŃ
Ġconcl uye
EL C
G a
Ġinus ual
Ġmir ado
ĠgrÃ¡ fica
Ġfue gos
ĠSin gapur
ros as
Ġexplic aba
Ġcre cÃŃa
ĠHar vard
Ġsegu idos
qu itos
ĠPon ente
G E
Ġs ho
ĠCom ple
ĠÃŃnti ma
ĠaquÃ© lla
Ġemple an
ĠRes oluciÃ³n
Ġver du
Ġs un
Ġocul taba
Ġmens ual
emas iado
tal os
l on
ti gua
Ġequiv ale
Ġpas tores
ĠRo ca
icios os
ĠS entÃŃa
ĠTer min
Ġdig amos
Ġpor venir
Ġjuven iles
ĠO mar
ĠEx tra
Ġintegr Ã³
Ġexplo taciones
ck y
m ero
Ġsuf rÃŃa
Ġclasific ado
Ġ18 80
Ġadul ta
ĠTrans porte
Ġes bel
ĠLa guna
Ġad misiÃ³n
Ġmilit antes
D irecciÃ³n
tr aron
ĠAman da
Ġpier den
Ġimplac able
is en
Ġdesarroll adas
Ġaut ent
Ġegip cio
ĠseÃ±al aba
ĠUN A
Ġp ino
âĢĵ ,
Ġque j
Ġformul aciÃ³n
Ġreg ener
Ġmatan za
Ġapun tÃ³
Ġas o
ĠBar rio
Ġjue gan
Ġfinanci amiento
Ġap unta
ĠG h
Ġimpresion ado
Ġcombati entes
Ġf Ã©
ĠCu alquier
ĠG av
ver de
Ġmor ada
Ġregist rada
Ġintermin able
Ġdiscap aci
Ġh uyÃ³
Ġcompens ar
Ġest ran
Ġocup aban
Ġarras trando
Ġob tienen
J A
Ġcara vana
gu eras
Ġcam aro
u dad
De jÃ³
Ġexces ivamente
Ġreconstru ir
Ġactiv istas
ĠP unta
Ġdin am
Ġdis puestas
Ġregular idad
Ġcam peonatos
ĠTh ea
MÃ© xico
d Ã³s
Ġaport aciÃ³n
Ġni Ã±ez
ax aca
Ġesco cÃ©s
ĠVar sovia
Ġquer ÃŃas
ĠT R
Ġmon jas
Ġemis ora
pÃ© u
ĠO per
ig ne
ig i
ion arios
CA S
Ġtemp er
Ġl on
Ġsin cron
Ġseleccion ados
ama ica
Ġmostr arse
Ġt enta
Ġres opl
ĠV on
Ġamp aro
Ġver nos
Ġesp esa
Ġcr omos
Par te
Ġmaquilla je
ĠEst ra
Ġpregun tando
Ġincl inado
Ġvence dor
... ?
Ġinvol un
ir d
Ġmo zo
Ġcontribuy en
Ġpes quera
tom os
i aba
Ġgobern antes
Ġregres aron
mb erg
Ġdomin aciÃ³n
ĠA pÃ³
Ġdespre ocup
ĠAnth ony
Ġcar icias
ĠL ac
Ġo v
ĠEst ocolmo
Ġclasific ados
ĠP et
ĠDan ubio
Ġ1 12
Ġco dos
Ġproli fer
Ġutiliz aron
ines s
Ġvolver Ã©
in stitu
Inici almente
ĠPo demos
ĠCa iro
Ġestre chas
ĠB rigada
ĠT E
ĠR ea
L ES
Ġ19 03
Ġmanifes tado
ĠIzquier da
Ġmoles tar
all en
Ġart ÃŃsticas
Ġinclus ive
ĠP RI
Ġpes etas
ĠCas tell
Ġdecl ive
Ġc enta
tas is
Ġorganiz ados
gru Ã±Ã³
Ġvej ez
Ġins pirÃ³
Ġvoc ales
Ġacostumb rada
Ġescon di
Ġ( ||
Cin co
M y
Ġpes a
ide o
Ġful min
Ġvulner ables
ĠU SE
ci Ã©
ĠrelÃ¡ mpa
ĠS ong
Ġcuer nos
ĠChrist opher
Ġesca Ã±os
Ġmister ios
Ġdes crip
Ġrespon dido
w ald
Ġexig en
ĠP L
Ġper las
Ġcon tienda
ĠT ime
ĠHel en
Ġh uyendo
Ġcru zando
Ġco j
ĠK ath
Ġlist ado
Ġj inete
telig encia
Ġprev ios
Ġcomplic ada
Ġche que
Ġbol as
Ġapos tÃ³
Ġemp lazamiento
Ġcont abilidad
Ġplante amiento
Ġfund ar
Ġdedu cir
ĠLeo pol
ĠCOMUN IDAD
Ġen t
Ġpres as
Ġjuris prudencia
Ġperegr inos
Se a
âĢķ Â¿
ĠC S
Ġimplan taciÃ³n
an na
Ġedu cado
Ġllen aba
t Ã¡ndome
Ġinstal ada
Ġcon tuvo
Ġeduca tivas
J usto
Ġu se
era to
ud Ã³nimo
ĠMan hattan
Ġmanio bras
ul d
Ġecos istemas
ĠG ian
Ġpos tal
Ġgust os
ĠtriÃ¡n gulo
Ġdu quesa
em on
Ġtur ÃŃsticos
Ġequi pado
Ġ !
ĠMar i
Ġmensa jero
Ġinquie to
Ġrefuer zos
D io
Ġden sa
Ġacce de
Ġpantal las
Ġcicl ista
Ġneces ite
tiz ados
Ġmanus critos
Ġ ÃŃdo
Ġtrav esÃŃa
Ġjust ificaciÃ³n
Ġrefle jaba
Ġtre gua
og ÃŃa
Ġre querÃŃa
P M
Ġarre ci
Ġimpo tencia
Ġacab ara
Ġsistem Ã¡tica
Ã©n dum
Ġreconoc ÃŃa
ĠF uego
Ġexten dida
w al
Ġsus pir
Ġperman encia
Ġgas tar
S igue
ĠCo penhague
Ġviol entos
Ã± era
Ġenv uelta
Ġcor rup
tal gia
es tros
Ġdiri gen
Ġconstru ye
G RA
al th
ĠM ÃŃ
Ġser ena
Ġreempla zo
Ġinvit ada
Ġmate mÃ¡tico
Ġayud arla
Ġarras trÃ³
B el
Ġde port
C R
de x
ĠP Ã¡
ĠteÃ³ rico
Ġres ol
ran d
Ġdesign ar
Ġsospech ar
par able
ĠO ce
Ġintu iciÃ³n
S r
b is
Ġre mor
po ol
Ġmu riendo
ĠV ers
ĠW el
V Ã©ase
tien den
Ġubic ados
ĠÃ¡n imos
Ġred ondo
Ġcondu ctores
in stein
ĠSi mp
Ġastero ides
ĠElector al
olo ca
ĠI rene
ĠMa astri
Ġaer ol
ĠBan k
Ġpareci era
Ġacer caban
Ġelev ar
F er
o f
ĠP iz
Ġres idente
Ġesp ÃŃa
ĠSi mplemente
ĠSh in
ĠSa tur
Ġisrael ÃŃes
W h
v ens
ĠEs par
Ġdise min
ĠEmp resa
ĠC ard
Ġin quis
Ġvolun tariamente
Ġcoloc aciÃ³n
TER I
min as
Ġapag Ã³
ĠJ udi
Ġatre vÃŃa
Ġtener lo
Ġbr omas
omb ras
cip aciÃ³n
Ġincon di
Ġbo das
ĠBartol omÃ©
Ġcu char
Ġapas ion
F or
Ġl Ã³
Ġat leta
Ġpr Ã³s
Ġprecios as
Ġcomple tado
f eld
CA R
ĠB ara
Ġtrans vers
Ġgust aban
ĠRu th
Ġguion ista
ci mos
Ha z
Ġen ton
Ġreco lec
198 4
ci b
ĠP N
Ġcomp ensa
Ġconstru yendo
Ġdolor osa
Ġpa Ã±o
Ġpase os
ĠpuÃ± al
Ġa cademia
Ġb Ã©isbol
u des
Ġllam amiento
ho u
ĠReg imiento
ĠGener ales
Ġcub ren
Ġcomp l
ĠK in
Ġsup rimir
Ġrecep tores
Ġob sta
Ġocur ren
ĠMo ore
Ġman dos
ĠO S
Ġpar Ã¡s
Ġadv ierte
M ichael
ĠsatÃ©l ites
m ados
ĠT as
Ġacog er
Ġdes mante
Ġvis l
Ġayud arme
Man uel
iÃ©ndo me
Ġhar to
ĠMon ter
ĠE g
Ġadqui rida
Ġapo do
Ġn ÃŃ
Ġest ÃŃmulo
Ġal ab
Ġencuent ren
ĠMin n
Ġcol abora
Ġmul ta
l iga
Ġgal erÃŃas
Ġconten edores
ĠS ombra
c antes
ĠO viedo
Ġenvi aron
ti tas
if orme
Ġsin dic
Ġreconcil iaciÃ³n
Ġimp rim
Ġdec orado
ha w
ĠacompaÃ± ante
m ino
Ġllor aba
Ġcons pir
ĠBel g
Ġsirv ientes
Ġcocin ar
y ug
ĠUS D
ĠG las
ion istas
id u
ĠPue des
ĠdecÃŃr selo
8 00
asegu rÃ³
Ġentier ro
Ġhablar le
Ġparro quial
ib o
di Ã©ndole
6 00
Ġcar ecen
tic s
ĠB es
Ġconvenci Ã³
eb e
Ġdeb iera
g ana
de cir
Ġhaber te
Ãį S
Ġex ternas
Ġenter as
u ce
Ġconsol idar
F orma
Ġba jado
Ġpublic aron
tr Ã¡n
ĠNo ticias
Ġestu pen
Ġc esta
ĠÃī sta
Ġhici ese
ĠA las
Ġs Ã¡
Ġb iÃ³
Ġdeshac erse
Ġapreci aciÃ³n
Ġas piraciones
Ġmarin ero
hem ia
Will iam
Ġg in
Ġprolon gado
ĠConcil io
Ġesc ab
Ġconstru idas
ĠP P
ĠM uerte
Ġfr om
Ġespec ul
dell ÃŃn
land s
Ġflu jos
Ġarreg los
Ġexperiment Ã³
ĠclÃ¡us ula
ĠEs os
Ġanti dumping
ĠPe kÃŃn
Ġdes inte
Ġinvent ario
ie w
ten iente
Ġproce den
Ġcir co
ĠA Y
Ġins iste
Ġps ÃŃqu
ĠCom andante
ĠLa ke
Ġinterv alo
ĠAr ti
para ÃŃso
ender os
Ġ18 98
Ġfal tan
âĢĻ .
g et
Ġap er
ĠepÃŃ teto
Ġmir Ã¡ndome
âĢĻ ).
Ġtransmi tido
Ġpropon ÃŃa
Ġgeo grÃ¡fico
isco pal
ĠvÃ¡l ido
go via
ĠR amos
Ġprimor dial
ĠJ urÃŃ
n ec
Ġes feras
Ġdesemboc adura
Ġmor ÃŃa
Ġhay amos
Ġconsider ables
ĠJard ÃŃn
ce diÃ³
Ġcons ent
Ġf aro
ĠB eth
ijo te
ĠS eg
ac ete
Ġmu da
Ġimpres iones
Ġfor zada
ĠLy on
Ġobserv adores
ĠEnter tainment
ĠPerten eciente
Ġrealiz aba
Ġoper an
ES CO
Ġ19 02
ĠAle mÃ¡n
Ġinflu enci
Ġcie ga
is as
Ġtera pÃ©u
ch arse
ina to
Ġgru esas
Ġesca para
Ġterrible mente
Ġhall Ã³
Ġpref iero
Ġproce dencia
ĠF ol
Ġconside re
ĠOrle ans
Ġdesigual dad
Ġac el
ĠN inguno
Ġro dar
Ġsug ieren
Ġform ales
Ġ( '
Ġplante ado
ĠF ores
Ġata Ãºd
Ã ¦
ĠJue z
R ed
ĠC rÃ©
ĠFried rich
Ġconf usa
Ġpr nl
in aban
ĠD ice
ĠBÃ¡r bara
ĠC is
ĠSig lo
Ġhim no
ĠD amas
ĠH idalgo
Ġl ÃŃo
Ġcomunic Ã³
ĠSo phie
Ġhor ri
T AS
Ġtrans mite
kes pe
um i
Ġfavor ita
ĠPo wer
C las
Ġmaravil las
vi dencia
Ġarres tado
ul f
Ġlas tim
Ġmus lo
omb ros
Ġconse jeros
er ba
ĠJu Ã¡rez
que Ã±o
Ġfran cis
Ġafric ano
Ã¡lti co
ĠEsper anza
ĠhÃºn garo
ĠÃ¡ guila
ĠMexic ana
Ġlaber into
Ġmate mÃ¡tica
Ġus adas
Ġentr Ã©
Ġsal ones
Ġe mite
Ġllev amos
z al
Ġc uevas
tr Ã¡
Ġcol gando
tu res
Ġremo to
Ġserp ientes
ĠT ran
Ġconde cor
Ġla titud
Ġpresent ando
ĠpÃ³l vora
Ġsinies tro
Ġactu ado
l adores
Ġincre dulidad
ĠfÃ³r mulas
Ġban quete
Ġcultiv ar
pro testÃ³
s ug
Ġpes adas
Ġconfi aba
Ġsent aron
pe a
car as
Ġinmo vil
Ġar ren
lic es
Ġacep tadas
Ġpal os
Ġdecir les
omb o
Ġpresiden tes
v idos
Ġsuger encias
ĠOl ga
Ġval entÃŃa
il Ã³
Ġgras as
Ġb log
Ġcan tantes
que t
lam entos
ĠK or
ĠUn ion
ĠK ol
Ġmod ales
ch era
Ġsuel to
Ġc Ã³s
ĠD Ã©
Ġver dades
Ġbar an
ĠP ino
B asta
ĠMon tre
ig res
ĠAd Ã¡n
ĠSalom Ã³n
Ġs enos
Å Ĥ
Ġinvoluc rados
Ġanti cu
Ġinvers ores
ĠRub Ã©n
ĠN acionales
ĠPascu a
Ġconfes ar
Ġn al
ĠC U
à ¤
An tonio
ĠL ud
polit ano
Ġrestable cer
Ġre za
ĠTrans portes
Ġra cismo
ĠVol ta
Ġesp inas
ĠaquÃ© llos
Ġin can
Ġcer radura
Ġdes apro
Ġcre cen
d Ã©n
ĠAb ril
atan Ã¡s
Ġhebre o
D ime
Ġbiblio tecas
Ġalim enta
Ġcoca ÃŃna
!! !
Ġpreocu pe
Ġla gunas
Ġsuger ido
Ġes quinas
Ġex as
ĠmÃ© ritos
Per man
S ur
Ġsometer se
Ġdi arias
Ġmuer en
ĠFI FA
ĠP SOE
ĠrÃŃ t
Ġinteres ada
Ġadi ciÃ³n
Ad Ã³nde
ĠC ob
Ġcor rido
Ġl iv
Ġmon Ã³
ĠUE FA
1 01
Ġp ana
Ã© semos
Ġmes ita
ĠRo dolfo
Ġfil me
Ġsombr ÃŃo
Ġdepen der
ok s
Ġg Ã³tico
Ġpan tanos
Ġbarro co
Ġvam piros
? !
ĠolÃŃmp ico
ĠO peraciÃ³n
Ġsan idad
con cl
p rincip
qui po
Ġun ÃŃa
Ġlog ran
ĠGra ham
iÃ©ndo la
Ġencontrar Ã¡s
Ġre tumb
Ġest ancias
quil las
Ġconstitu ida
cas e
Ġch amp
p ones
Ġcre adas
Ġagreg ado
igu ra
ĠApÃ³ st
u za
am in
Ġanim Ã³
Ġhaci Ã©ndolo
ĠBa ch
Ġclas ificar
Ġcr Ã³nicas
Ġdespe dirse
ĠO axaca
ind Ãº
ĠÃ³p tica
Ġpers on
Ġinf lex
ĠF ila
Ġmadri le
Ġsal tos
J ust
Ġenfad ada
la te
Ġmal etas
mas car
ob servÃ³
Ġb in
ĠCorpora tion
Ġocasional mente
quÃŃ es
Ġcol chÃ³n
gr adas
traba jo
Ġcomple tos
Ġcomp ac
Ġus aban
Ġrad iac
Ġbi ologÃŃa
Ġdeb ieron
ar Ã¡s
EN A
Ġatrac tivos
ĠâĢľ Â¿
ĠK id
Deb er
Ġrecib idos
Ġdefin idos
Ġestar emos
Ġdetermin an
Ġduer me
Ġb oc
fici encias
on da
ĠFran z
bo urne
or cio
Ġpel da
l lar
Ġequi ta
Ġimplic ados
Ġestric to
end ar
Ġsentiment al
ĠAs es
Ġorden aciÃ³n
Ġponer le
U stedes
Ġprim itivo
ĠGeor g
Ġpi anista
ĠMo tor
Ġest ri
Ġcub anos
Ġin er
Ġtercio pelo
Ġcort Ã©s
Ã¡ce os
Ġj ac
Ġdeliber adamente
L ar
Ġlament able
Ġentien des
Ġfurgon eta
or ias
Ġser ias
Ġcanci ller
ĠaÃ±ad iendo
Ġpsi quia
di rec
Ġm esti
Ì ģ
Ġauxil iares
ĠC N
frad ÃŃa
p lor
ĠWa ter
ĠB ond
198 3
ĠHist Ã³rico
Ġref ieres
ĠJun io
n ueve
Ġetique tado
W al
Ġderi vadas
Ġmill on
ĠA du
Ġsuger encia
Ġolvid Ã³
Ġarran que
E fec
ol lo
Ġven den
ĠPe te
Ġpre m
Ġtec lado
Ġconviv encia
Ġtra taron
Ġposib il
Ġsosten iendo
Ġrib era
Ġtra taban
Ġtrad uc
Ġcos teras
ĠNav arro
b logs
Don de
h im
ĠN A
Ġtir Ã³n
J ef
Ġtermin ales
Ġestru endo
Ġapa gar
Le y
Ġmig rantes
ĠP ep
Ġtermin an
Ġtama Ã±os
Ġcono zca
ĠA B
Ġpo quito
Ġech aron
ĠfilÃ³so fos
ĠpolÃŃ ticamente
ĠAs i
ĠacompaÃ± amiento
Ġan aliza
at s
Ġadap tado
ĠMag gie
Ġpi ados
ĠCo p
Ġmon os
Ġdiscul pa
Ġin co
po der
Ġvolun taria
Ġdes ob
el and
Ġfr ÃŃas
Ġconven ciÃ³n
Ġalegre mente
Ġy e
Ġrepe tidas
Ġferrovi ario
Ä «
Ġdeci da
Ġquer Ã©is
Ġbilater ales
Ġcon greg
Ġaproxim ada
M iguel
Ġhabit an
ĠsÃº bitamente
Ġelig e
Ġun ificaciÃ³n
ĠprÃ¡c ticos
ĠAy uda
w o
Ġdes may
Ġabur rido
Ġaf lig
ral tar
Ġescrib a
Ġaudiovis ual
Ġl ino
ad ra
ul lo
Ġtal ones
T re
W e
Ġcas ados
Ġbau tismo
im ir
Ġprim itiva
Ã¡r melo
v ente
Ġhom Ã³nimo
Ġinsignific ante
Ã³r mula
tras e
Par ecÃŃa
ĠAb riÃ³
Ġreclam ar
Ġrazon amiento
pa tÃŃa
Ġintegr ados
Ġespantos o
Ġresist ente
Ġcons ciencia
Ġafici onado
ĠB ras
Ġinex plic
Ġab rÃŃ
Ġmur mur
ĠInstitu te
Ġautomo vil
ur ada
ĠC ES
ir as
Ġpon drÃŃa
Ġsu puestos
Ġsuces ivas
ĠLeon or
ust er
Ġcar ac
Ġilum inada
ĠK ur
Ġproto tipo
ac ent
Ġdescu brÃŃ
Ġende re
Ġespir al
g Ã¡is
Ġsens or
cer es
ĠConstitu cional
s Ã©
ĠY an
the w
Ġextra va
N ic
Ġpresu puestos
Ġpor cel
Ġja de
ig g
j Ã¡
Ġgru esos
g icamente
in do
ĠFerro carril
bl an
Ġlleg ados
e jos
Ġla van
j ano
ĠAu gust
Ġrecibir Ã¡
cer n
Ġsuper st
CE S
E Z
Ġinc rust
Ġpla te
ĠTener ife
Ġdon aciÃ³n
Ġabad ÃŃa
ĠAlcal Ã¡
Ġllev Ã¡ndose
Ġculp ables
Ġinv entado
Ġpa gÃ³
ĠAl i
Ġk ilo
Ġdefien de
ech e
Ġc imientos
Ġa tis
Ġen ig
log ÃŃas
Ã³ teles
Ġle tr
ĠRec og
Ġpreju icios
I ZA
Ġs enda
Qu isiera
Ġdor ados
tu osos
ĠmÃ³ dulo
Ġprevis iones
Ġasi Ã¡tico
ĠSta te
ĠMassa chusetts
Ġcu Ã±ado
amil ton
Ġcamp anas
f ana
Ġten or
Ġlan zas
ti tos
ĠSe th
Ġcer dos
lti ma
ĠS at
P rincip
ue Ã±o
Ġflan que
Ġprecau ciones
Ġdomin ado
Ġasist ido
Es as
Ġdese as
Ġsol itaria
ĠAmeric ana
gos ta
Ġprov ienen
Ġir ra
Ġencan taba
Ġmetro politana
ĠB ud
Ġnos talgia
De ja
n ell
m all
is es
ĠMa ch
Ġapoy aba
Ġperman entemente
Ġefectu ado
Norm almente
Ġimp ec
Ġcar teles
CI AL
Ġpen ales
ĠLar ry
z Ã¡ndose
Cla ude
ĠO ut
ĠYu ca
O fre
Ġsome tida
Ġce lo
L i
de le
kespe are
EN ER
Ġdi abetes
Ġprim os
Ġle guas
Ã³ licas
ist ir
Ġreta guardia
Ġec olÃ³gica
p ina
Ġtrans por
Ġimpos ibilidad
ĠAl pes
Ġtelevis or
ĠHo uston
Ġparlam entario
Ġnad ar
Ġtelef one
Ġbrasile Ã±a
Ġan chas
Ġdej arÃ¡
Ġautor izados
ĠFoot ball
ĠV egas
ĠHerman dad
ĠB y
Ġgent il
ĠUnivers itario
ĠP aco
Ġdes il
cer ca
ĠÃ¡n gulos
ĠAle jan
Ġdedi can
Ġsemej anza
B LE
qu ien
Ġfan s
ĠP y
Ġmin eros
ĠL ola
Ġprev ias
ul es
Ġanoch ecer
Ġrefer Ã©ndum
S or
Ġflo tando
ĠIn versiones
Ġfrunci do
Ġm osa
Ġevi dencias
ĠE uratom
Ġdescen diente
Ġarrodill Ã³
Ġp iden
ĠMen or
Ġestric ta
m adura
Ġayudar te
Ġt est
Ġmor ena
Ġap orte
Ġca f
Ġindi a
Ġprotes tar
Ġdel icioso
Ġdesf ile
Ġbe bido
Ġsi ti
Ġmar ti
Ġcual ificaciones
ĠA pertura
Ġproteg erse
ĠJer Ã³nimo
Ġindis cu
Ġest emos
ten ible
ĠEx cel
F e
ĠMe tal
Ġobs esiÃ³n
Ġ |
ĠLe tras
Ġhor arios
incl uyendo
ĠF all
ĠD iÃ³
Ġmatar lo
Ma Ã±ana
ĠP ese
d ge
Ġcor pul
D IS
Ġcaracter izan
Ġsustanci al
Intern et
Ġpermit ÃŃan
ĠNich olas
ĠPÃºbl icas
Ġal ianzas
Ġpi dieron
Ġsens ibil
CU LO
Ġentrec ort
ĠSu ite
Ġinnov aciones
ĠF und
ĠTu vo
Prim era
iv an
f ut
Ġsub st
Ġus ur
Ġrepresent ados
Re almente
ra cia
Ġcontrar res
ĠG estiÃ³n
Ġapoy an
ĠMar celo
Ġfus ion
Ġsospech aba
Ġopon e
ĠBo letÃŃn
Ġjurisdic cional
Ġace ites
Ġn udi
no v
T iempo
ĠMaastri cht
San tiago
ĠBla ke
f uer
ĠO la
it arse
Ġfal das
Ġpro clamÃ³
Ġatraves ado
Ġfol cl
Ġtorm entas
P L
ph ia
Rich ard
ĠR ural
Ġcam peones
Ġbo tÃŃn
Ġos t
Ġfro tÃ³
Ġp ica
Ġsilves tres
Ġond ul
Ġna tivo
Ġcub ana
Ġgrad ual
m undo
p ra
Ġval iosa
Ġseg mentos
Ġmovil izaciÃ³n
Ġelectr ones
oc Ã³
s ecciÃ³n
Ġag onÃŃa
cu mÃ¡n
it Ã¡
Ġfin as
Ġmonopol io
Ġenca den
iz adores
Ġenf ado
Ġcolap so
Ġsos tienen
Ġrelaci ona
Ġac al
Ġunif orm
ĠrÃŃg ido
omb ar
Deb erÃŃa
Ġroj izo
Ġconce bido
Ġcru zaba
ĠÃ¡ tomos
vi Ã©ramos
ĠMar tha
Ġcaracter izado
Ġsub ieron
p est
T ro
Ġque mado
Ġaso cia
Ġafirm aciones
Ġvel ar
Ġofrecer le
ĠCas as
H or
Pro yecto
Ġconven ciones
Ġreal idades
Ġperci be
Ġsan itarios
Ġguardi Ã¡n
ĠC Ã¡n
ĠSal va
Ġcompren dÃŃ
ĠQu ijote
ĠpuÃ±eta zo
m uy
Ġcor dero
m id
Ġparale la
Ġrecip iente
Ġc ano
Ġconsigu en
Con f
tan ia
Ġregist ra
ina e
Ġcontac tar
v ento
Des cripciÃ³n
ĠÃŃn tegra
Ġcas cada
Ġatra cciones
ĠA mp
E j
N inguna
p rin
Ġcru zada
Ġfuncion ando
ĠMac ro
Ġtermin e
Ġben Ã©
Ġestudi an
Ġimplic aciones
ĠG ame
Ġimp renta
P AL
ve do
Ġinvoluc rado
Ġest irÃ³
ĠM em
Ġper gam
Ġpon drÃ¡
Ġim itar
Ġse vero
Ġespec tador
Ġsincer amente
it adas
ĠHisp ano
Ġlad rillos
Ġin cul
Ġdesplie gue
jos a
Ġag itÃ³
Ġat enta
Ġcatal ana
Qu ien
Ġdem ora
V II
Ġc adu
Ġab er
Ġtor rente
ens os
ĠBob by
Ġsignifica tivas
ĠBri tish
Ġesque leto
Ġinc rÃ©
Ġam argo
Ġlien zo
ĠO tras
Ġf erv
Ġu va
ips is
Ġaban ico
Ġdegrad aciÃ³n
Ġconfes Ã³
Ġrad ios
ĠLil y
Ġmas ivo
ic om
Ġdesempe Ã±
Ġrepeti ciÃ³n
K e
Ġcuad ra
ti car
Ġespaci ales
Ġh oc
Ġutiliz aban
Ġdest er
Ġimple mentar
de se
le tismo
Ġmue ven
Ġcompos itores
A dop
ĠGÃ©n ova
Ġla ta
ĠNa zar
Ġ18 00
Ġbolchevi ques
la yo
Ġimpuls ado
Ġgust e
Ġh eg
c entes
ric ana
Ġdescen dencia
V ir
Ġproporcion Ã³
Ġinquie ta
Ġpersegu ido
Ġculp abilidad
Ġburo cracia
Ġescuch Ã©
Ġvig encia
ĠL ittle
Ġad orm
Ġprelim inar
ĠS ie
ĠPar anÃ¡
Ġtraslad ar
Ã¡ce o
ad mitiÃ³
Ġnervios ismo
Emp ezÃ³
ĠInfan terÃŃa
Ġpresent arÃ¡
ĠsÃ© ptima
bur os
ĠCla y
fec tura
Ġhom Ã³nima
Ġplante Ã³
Ġneer landÃ©s
Ġcomput adoras
Ġais lados
Ġacarici aba
Ġhon rado
ĠN ilo
Ġdev oluciÃ³n
an ismo
Ġpa t
ĠÃ¡ cidos
Ġferro carriles
Ġatribu tos
Aquel los
Ġcreer lo
ĠNew ton
Ġ15 00
ĠDa ve
ĠRen Ã©
Ġinquie tante
Ġdic tador
ĠRo th
Ġimag inÃ³
col ÃŃa
uf ra
Ġaus p
ÃŃ bal
ĠOC DE
al go
Ġsenci llas
Ġequivoc ada
ten ido
Ġenga Ã±ado
Ġsuf rieron
ĠHar ris
son riÃ³
ecre tario
Ġhallaz gos
ĠBo ca
Ġgu iÃ³n
e ando
Ġsu da
Ġref in
ĠAc ab
Ġcos tera
U B
tab ria
ĠTw itter
Ã¡ monos
Ã¡m icos
ĠEx posiciÃ³n
Ġilum inÃ³
d d
Ġest elar
ĠL abor
ist entes
Ġtri an
ĠA urora
fa ga
, âĢĿ
Ġcru zaron
Ġespe jos
Ġgor ra
Ġasom brado
ĠÂ §
ĠS omos
V III
Ġpregun tarse
S iento
Ġatra e
ĠP ad
ton o
Ġafirm ando
ĠJef f
Ġloc omo
Ġcelebra ciones
Ġcon gregaciÃ³n
ĠLib ia
Ġmusul mÃ¡n
Ġelectr om
ĠJess ica
Ġdu daba
Ġenf ati
Ġdepen dÃŃa
Ġtir as
ĠC Ã³mo
Ob serv
D C
Ġesc ombros
Ġadap ta
eg al
Ġar cilla
Ġprim arias
Ġsens ual
Ġmis m
Ġdesarrollar se
ada gas
A di
Ġ ).
Ġdescu ento
Ġequival entes
ĠWh it
c Ã¡zar
sen al
C ab
Ġgra cioso
Ġquie bra
Ġfal taban
r entes
Ġde ro
Ġmin Ãºs
t d
ti zada
Ġli tera
Ġapun tando
do men
Ġbigo te
Ġpar ecieron
Ġvas co
ic on
Ġbas ti
Ã©r cules
t ten
Ġn Ã³r
ĠEs lo
Ġbancar ia
Ġmor ib
Ġtel as
Ġital ianas
Ġfing ir
Ġofici os
Ġ19 01
Ġnom inal
J or
Ġproce dÃŃa
Ġmas acre
ĠYuca tÃ¡n
ĠS tr
âĢķ .
Ġrestaur ar
ĠMu se
Ġprodu cidas
Ġvag ab
Ġinvad iÃ³
ĠH ero
Ġdirec tivos
Ar gentina
B ol
c eno
im ento
Ġvig entes
Ġimpres o
Ġacus Ã³
Ġapoder Ã³
Ġbas taba
Ġlib rar
Ġperf iles
ĠVin cent
Ġla m
Ġgener Ã³
Ġsan itario
Ġhar Ã¡s
ĠMic ro
Ġ q
ĠcuÃ¡n tas
Ġresul tando
Ġperci biÃ³
Ġsentir me
Ġcome tidos
Ġmel ena
Ġfabri cado
Ġfirm aron
ĠF amil
Ġestim aciones
ĠAudi encia
Ġno w
es co
Ġinter valos
ĠBea t
Ġgran ito
Ġp icos
Ġdin osau
ma c
Ġlib rarse
Ġro llo
ĠProfes or
Ġsub je
Ġmez quita
ĠSil ver
ea th
Ġes quÃŃ
ap an
Ġcomb inar
Ġrepercu siÃ³n
ĠPar ti
Ġto b
ĠG r
tor as
as intiÃ³
Ġdis u
Ġgolpe ado
Ġ" .
Ġhub ieras
An d
MA CIÃĵN
Ġresid uales
Ġaclar Ã³
Ġ18 60
ĠDe jÃ³
Ġcalent amiento
Ġcolabor ador
Ġexcep cionales
os ev
Ġrecor riendo
Ġcomport amientos
Ġfemen inas
Ġaco ge
ĠMar ch
Ġmes eta
Pro grama
Ġacce diÃ³
des es
ĠlÃ¡c teos
Ġfrecu encias
ĠD ion
ĠCh ia
Ġcompl icidad
ĠTor onto
Ġperman ecÃŃan
ĠClin ton
ran e
Ġestre chos
Ġtrem endo
Ġcar gados
D omin
ĠTe am
Ġrep rimir
Ġinaugu rada
Ġconform ado
Ġabsur da
ki es
Ġregres aba
ĠP ay
Ġto po
verg adura
Neces ito
Ġencontr ara
Ġdivor ci
us ia
Ġpe tro
Ġbal anza
ĠSer rano
Ġsecu encias
Ġatra ÃŃdo
ĠDeb erÃŃa
Ġc ese
ĠC F
Ġpo Ã©tica
Ġans ioso
Ġpro dig
198 2
T radu
âĢĶ âĢ¦
Ãģ n
Ġsust o
Ġorient ada
Ġprecios os
Ġconm emora
Ġascen dencia
Geor ge
te m
Ġmo biliario
tiz aciones
Ġinnov adoras
Ġtal los
Ġino fens
Ġri ego
Ġas in
Ġinmo bili
Ġtor so
Ġj arra
ts ky
ĠNet work
ĠAl f
ĠA dela
Ġtran ce
Ġtib ur
Ġanhe lo
ĠA pro
ran as
Ġmin erÃŃa
ĠG ATT
Ġam ores
Ġenci er
Ġgo za
Ġna tiva
do este
ĠRuss ell
Ġfrag ment
Ġcompr ens
ĠFre e
Ġpre visiÃ³n
Ġmon tura
Ġserv irÃŃa
Ġat entados
ĠUl tra
ĠRio ja
Ġper ra
ista des
Ġdesa per
Ġcompon er
ĠPen al
Ġsilves tre
Ġp esti
ĠMo ham
Ġle o
Ġcambi aron
Ġfis i
ĠOh io
Ġsuje taba
Ġcomb inaciones
Ġ10 5
Ġo igo
adagas car
b ulos
Ġcal zado
los a
Ġaten u
Ġtea tros
cu Ã¡n
Ġreno vado
t l
Ġhaci Ã©ndole
Ġmez c
ĠDo ce
Ġa ven
Ġl itu
mp e
B ea
d Ã©s
Ġcer tamen
Ġreiv indic
ĠNig eria
r gia
in arse
Ġreh us
Ġmar chas
et ano
Ġb ob
Ġinterroga torio
Ġcoopera tivas
Ġcon tÃ©
Ġlig eros
o te
ĠL ive
Ġm ÃŃas
ĠCo urt
Ġcoloc ada
ĠPat ria
I l
Ġconsecu ciÃ³n
Ġen gu
cu ent
un dos
Ġdescon tento
ies en
ĠPas o
Ġabst ra
Ġcompr ue
Ã©m ico
ĠG rim
Ġref iri
Ġtab ern
ĠF rede
Ġres tante
Ġmaris cal
Ã¡zar o
Ġmoment Ã¡n
Ġextraord inariamente
Po bre
ĠRes pon
G ab
Ġcrist ianas
Ġsir vieron
Ġapoder arse
Ġen vergadura
ĠIl ust
Ġcur s
Ã©p lica
D AS
ĠCor uÃ±a
Ġan a
Ġdis ip
Ġprepar arse
SeÃ± ora
Ġhubi Ã©ramos
Ġpreten den
Ġcar pin
Ġamar illas
x os
Ġata caron
Ġquitar le
Ġg am
ĠV Ã¡zquez
ĠbÃŃ bl
x ton
el s
ĠH ud
p ice
gu sta
ĠDie z
mit as
Ġmanifest antes
ĠC OR
ĠPie dra
Ġorgas mo
J im
Ġestre chÃ³
C M
Ġexist iÃ³
Ġlegisla tiva
Ġego ÃŃsta
Ġinf ante
Ġque br
Ġdistribu ir
est Ã¡
ĠRon da
ine os
ĠS ent
Ġcontinu ado
Ġconce didas
Ġrealiz arÃ¡
ĠJ oy
Ġtub er
Ġbl usa
era triz
je to
Ġven didos
ĠP ier
Cre e
di um
Ġtransform aciones
Ġproble mÃ¡tica
co pa
Ã °
Ġrom ance
ĠsÃŃn toma
Ġestupe fac
Ġespeci alizadas
ise Ã±o
Ġgan adora
Ġinterrump ido
Ġf eo
E P
Ġden uncias
Ġhu ido
Ġhumil dad
Ġr ÃŃe
ĠSh ang
qu ÃŃas
k is
Ġdo mina
ĠPens aba
G as
Ġconvir ti
ĠR ug
ÃŃc olas
Ġplen itud
Ġexp uesta
Ġseptentri onal
Ġse llos
abul ario
Ġacar re
De pen
Ġbenefici arse
Ġcomple tas
Ġcomp i
Ġcontin entes
Ġcapit anes
Ġcla ustro
p Ã³n
Ġmu do
Ġinm er
Ġmer ecen
Ġconsidera mos
Ġneg aciÃ³n
Ġra yas
iÃ©ndo lo
Ġsal ar
R en
v iene
Ġfoto graf
Ġexpe diciones
Ġcual idad
ĠES TA
Ġh indÃº
pec tiva
Ġt able
Ġap uestas
Ġpes quero
B R
Ġop tÃ³
Ġgigantes co
ĠRen acimiento
D ice
Ġdenomin ados
Ġid Ã³n
ĠMe dellÃŃn
Ġcom ÃŃa
ĠD im
Ġentr aban
Ġcelebr aron
ĠB M
Ġdra mÃ¡tico
Ġabsor ciÃ³n
enci ales
Ġapla udi
Ġhallaz go
ĠC AR
Ġestable ciendo
Ġel udi
Ġimpul sos
S ac
ĠSan dra
n ik
Ġven da
Ã µ
Ġhabl Ã©
Ġempren diÃ³
Ġtom ara
Ġclas ifica
ĠAlejan drÃŃa
di mens
Ġimp as
ĠEst rasburgo
Ġdesn ud
M ay
Ġcom enta
aran tÃŃa
Ġ18 95
Ġrecuer dan
uer tas
th o
Ġcompar tida
ĠA lar
Ġla deras
ĠVal paraÃŃso
Ġra mi
Ġsalud ar
Ġcomplementar ias
M ur
qu ir
Pens Ã©
ĠT O
Ġden so
Ġv asta
Ġten s
Ġagrup aciones
F rente
Ġmuer tas
Ġle ones
C at
ĠD onald
Ġto ur
Ġn ec
Ġfich Ã³
Ġtemblor osa
M iemb
cor dia
ĠSha kespeare
Ġdec ente
j illo
Ġaguard aba
Ġban dos
Ġma estrÃŃa
Ġder ra
Ġpermitir se
Ġllev adas
Ġlegitim idad
Ġmad ame
an ces
Ġaduan era
a jes
tin i
Ġ00 1
Ġs as
ĠMÃ© rida
Ġprim ario
Ġmotoci c
Ġactu alizar
m ales
oy le
Ġcent rÃ³
ĠCerv antes
Ġarch iv
ĠKan sas
p son
Ġsub terrÃ¡neo
tre o
ĠMur ray
Ġedific aciÃ³n
Ġinsegu ridad
ÃŃfic e
Ġtar ifa
Ġop uso
Ġment alidad
Ġest i
Ġpol o
Ã³cra tes
l ina
ĠO pera
Ġquie ta
j ales
cer se
del fia
Ġdest ello
Ġconstitu tivo
tiv es
lan ca
Ġjab Ã³n
Ġrequer ido
Ġredu ciendo
Ġdes ma
Ġhacer nos
ĠtÃºn eles
Ġv itales
Ġinf iel
Ġimpe di
Ġgalo pe
ĠB Ã¡ltico
Ġver bal
Ġcal am
Ġapre cia
ist es
Ġdetermin Ã³
Ġdisfru taba
ĠEugen io
Ġdi d
ĠCarol ine
Ġg ene
ĠMr s
Ġcamaro te
ti cismo
ĠS iento
Ġtom as
j udicial
Ġt onal
Ġr Ã©plica
ĠEst ruc
Ġcolombi ana
Ġfin os
ĠreÃŃr se
ĠCam peones
Ġignor aba
Ã³ rica
Ġcru do
Ġcalcul ado
Ġpl ur
Ġnie ta
ad ar
E u
vi ales
ĠA ctu
Ġpoder osas
ti cal
Ġsi em
blogs pot
Ġdo taciÃ³n
Ġins cripciones
Ġdrama tur
ĠEdu ca
ĠK os
Ġsup lement
. ]
Ġfra y
Ġac ora
Ġhun dido
th or
ER I
ĠT ito
V io
ĠB all
Ġar dor
Ġcomprome te
Ġexcur siÃ³n
ĠMontre al
Ġevalu aciones
Ġv istos
ĠpirÃ¡mi de
w Ã¡n
Ġdes esti
Ġdilig encia
ĠvÃŃs pera
Ġauto de
Ġcubr ÃŃan
ti ro
Ġarque olÃ³gicos
ĠC um
Ġindic ador
ĠI o
ĠUn as
Ġcohe tes
n ico
Ġal aban
que Ã±a
Â». [
Ġdistribu idos
n u
Ġrela j
Ġc ÃŃv
Res pon
Ġrit mos
ens as
Ġetique tas
Ġgener an
Ġmedi terrÃ¡nea
s ig
Ġso Ã±ar
Ġconsul tivo
ĠSil via
lam o
Ġyaci mientos
Ġpre cep
ĠAn dy
Ġhil era
K ar
Dis pon
Ġarries gar
Ġlib rerÃŃa
col ar
ĠEdi mburgo
Ġb its
Ġra mo
Ġal zar
Ma x
Ġper ez
Ġencen dida
Ġoblig aba
ĠseÃ±al an
ut ch
Ġcay era
Ġlle guen
Ġarra ig
Ġais lada
Ġ% .
ĠNo tas
Ġplan taciones
Ġmezcl ado
Ġcorrespon da
Com par
ĠAlban ia
Ġrepresent aban
c omb
tific ar
ĠCons um
ĠTu cumÃ¡n
om al
Ġesc Ã¡n
ĠN y
ton ia
Ġneum Ã¡ticos
Ġreconoci das
Ġseman al
Ġf reno
Ġprom ueve
Ġre bos
ĠrÃ¡p idas
Ġac ech
Ġque ma
Ġfren ar
Ġdon aciones
Ġbru jas
Ġmelan colÃŃa
I M
r arÃŃa
Sal iÃ³
Ġtraduc ciones
Ġacep tan
Ġago tamiento
m illones
Ġtraslad arse
Ġvacil Ã³
p iedad
se e
Ġprecipit aciones
Ġregu la
Ġcumpl iendo
Ġenfrent aron
Ġda ga
Ġperu ana
ĠCam bio
Ġintent Ã©
Ġcica trices
Ġb rig
Ġlic or
in gu
ĠMa te
Ġdistingu ido
Ġreplic Ã³
cu m
car buros
mas cul
ĠtÃ©rm ica
Ġgala xia
Ġsuspen der
t ton
ĠO wen
Ġpers igue
Ġfus iles
Ġb ecas
im an
ĠP ed
ĠAp ple
Ġlitig io
p istas
ĠAri as
Ġindirec ta
ĠP rusia
ĠEl is
Ġ18 97
R epres
Ġre organ
Ġg l
Ġne to
Ġevi den
Ġfas tidi
Ġcomp as
Ġop resiÃ³n
Ġnie tos
Ġpeda gÃ³g
Ġd Ã¡ndose
Ġal zando
p ino
ĠEd die
Ġso Ã±ado
Ġpa to
ĠautÃ³ c
ĠAnto ine
Ġcom esti
Ġremo ta
Ġdic tÃ¡menes
Ġindi cio
Ġcon je
ĠT oma
ĠHa z
Ġtradu ce
Ġdieci nueve
V arias
ĠC res
Ġemp ar
ull Ã³
Ġfracas ado
ĠP ul
Ġale a
ĠAb ogado
Ġautor izada
ĠMar quÃ©s
Ġapar eciendo
Ġserv irÃ¡
Ġincumpl imiento
ol s
ĠB ase
Ġrad ar
ĠNan cy
198 0
O jalÃ¡
ĠG ris
Ġefec tividad
Ġconserv aba
Ġresiden cial
ci ent
Ġcolon izaciÃ³n
Ġ18 96
Ġcusto di
dera ciones
tin al
ĠK urt
Ġreno var
Ã ®
ĠPas tor
Ġesqu iv
Ġoc cidente
ĠF Ã³rmula
ĠQu inta
ĠFrank lin
Ġaden tr
Ġrela jarse
F S
Ġfundam entos
Ġcit ados
Ġesbo zÃ³
ier ras
Ġpeg Ã³
or ros
Ġcar encia
Ġsue ca
Ġto x
ĠmÃ© dicas
Ġdepor tistas
Ġproce diÃ³
Ġtr ÃŃo
Ġhi to
Bu ena
Ġcas ual
Ġporcel ana
Ġdispu tas
ĠR ue
Ġpre ve
Ġconf e
Ġenter rar
Ġtra gar
Ġdisminu ido
ac Ã¡n
ĠF Ã¡
ĠRaci ng
Ġresul tarÃŃa
Ġen cor
ru g
Ġirri taciÃ³n
Ġaustral iano
Ġter cios
Ġprovo caba
ĠR O
Ġmar cando
Ġan ulaciÃ³n
bu ce
ĠLiber aciÃ³n
Ġdestro zado
CuÃ¡n tas
ĠGib raltar
Ġavan zadas
Ġcel este
Ġlog ÃŃstica
Ġbal Ã³n
Ġmon tones
Ġmer amente
inter pre
et ÃŃn
Ġadmir able
[...]
