{"<|endoftext|>":0,"!":1,"\"":2,"#":3,"$":4,"%":5,"&":6,"'":7,"(":8,")":9,"*":10,"+":11,",":12,"-":13,".":14,"/":15,"0":16,"1":17,"2":18,"3":19,"4":20,"5":21,"6":22,"7":23,"8":24,"9":25,":":26,";":27,"<":28,"=":29,">":30,"?":31,"@":32,"A":33,"B":34,"C":35,"D":36,"E":37,"F":38,"G":39,"H":40,"I":41,"J":42,"K":43,"L":44,"M":45,"N":46,"O":47,"P":48,"Q":49,"R":50,"S":51,"T":52,"U":53,"V":54,"W":55,"X":56,"Y":57,"Z":58,"[":59,"\\":60,"]":61,"^":62,"_":63,"`":64,"a":65,"b":66,"c":67,"d":68,"e":69,"f":70,"g":71,"h":72,"i":73,"j":74,"k":75,"l":76,"m":77,"n":78,"o":79,"p":80,"q":81,"r":82,"s":83,"t":84,"u":85,"v":86,"w":87,"x":88,"y":89,"z":90,"{":91,"|":92,"}":93,"~":94,"¡":95,"¢":96,"£":97,"¤":98,"¥":99,"¦":100,"§":101,"¨":102,"©":103,"ª":104,"«":105,"¬":106,"®":107,"¯":108,"°":109,"±":110,"²":111,"³":112,"´":113,"µ":114,"¶":115,"·":116,"¸":117,"¹":118,"º":119,"»":120,"¼":121,"½":122,"¾":123,"¿":124,"À":125,"Á":126,"Â":127,"Ã":128,"Ä":129,"Å":130,"Æ":131,"Ç":132,"È":133,"É":134,"Ê":135,"Ë":136,"Ì":137,"Í":138,"Î":139,"Ï":140,"Ð":141,"Ñ":142,"Ò":143,"Ó":144,"Ô":145,"Õ":146,"Ö":147,"×":148,"Ø":149,"Ù":150,"Ú":151,"Û":152,"Ü":153,"Ý":154,"Þ":155,"ß":156,"à":157,"á":158,"â":159,"ã":160,"ä":161,"å":162,"æ":163,"ç":164,"è":165,"é":166,"ê":167,"ë":168,"ì":169,"í":170,"î":171,"ï":172,"ð":173,"ñ":174,"ò":175,"ó":176,"ô":177,"õ":178,"ö":179,"÷":180,"ø":181,"ù":182,"ú":183,"û":184,"ü":185,"ý":186,"þ":187,"ÿ":188,"Ā":189,"ā":190,"Ă":191,"ă":192,"Ą":193,"ą":194,"Ć":195,"ć":196,"Ĉ":197,"ĉ":198,"Ċ":199,"ċ":200,"Č":201,"č":202,"Ď":203,"ď":204,"Đ":205,"đ":206,"Ē":207,"ē":208,"Ĕ":209,"ĕ":210,"Ė":211,"ė":212,"Ę":213,"ę":214,"Ě":215,"ě":216,"Ĝ":217,"ĝ":218,"Ğ":219,"ğ":220,"Ġ":221,"ġ":222,"Ģ":223,"ģ":224,"Ĥ":225,"ĥ":226,"Ħ":227,"ħ":228,"Ĩ":229,"ĩ":230,"Ī":231,"ī":232,"Ĭ":233,"ĭ":234,"Į":235,"į":236,"İ":237,"ı":238,"Ĳ":239,"ĳ":240,"Ĵ":241,"ĵ":242,"Ķ":243,"ķ":244,"ĸ":245,"Ĺ":246,"ĺ":247,"Ļ":248,"ļ":249,"Ľ":250,"ľ":251,"Ŀ":252,"ŀ":253,"Ł":254,"ł":255,"Ń":256,"de":257,"Ġe":258,"Ġde":259,"Ġl":260,"os":261,"Ġp":262,"Ġa":263,"Ġc":264,"er":265,"en":266,"Ġs":267,"ar":268,"on":269,"as":270,"es":271,"an":272,"ci":273,"or":274,"ue":275,"Ã³":276,"Ġm":277,"ad":278,"Ġla":279,"un":280,"Ġen":281,"re":282,"in":283,"que":284,"ÃŃ":285,"al":286,"Ġt":287,"Ġy":288,"st":289,"Ġel":290,"Ġque":291,"ent":292,"Ġh":293,"Ġun":294,"do":295,"di":296,"ab":297,"Ġcon":298,"Ã³n":299,"Ġn":300,"ĉĉ":301,"om":302,"Ã¡":303,"ra":304,"ro":305,"ti":306,"Ġse":307,"Ġf":308,"Ġv":309,"ri":310,"Ã©":311,"am":312,"Ġsu":313,"Ġlos":314,"ÃŃa":315,"aci":316,"âĢ":317,"Ġes":318,"ic":319,"te":320,"le":321,"ado":322,"Ġo":323,"Ġdel":324,"to":325,"Ġre":326,"Ġest":327,"Ġin":328,"Ġpar":329,"Ġal":330,"ol":331,"ta":332,"Ġcom":333,"âĢĶ":334,"Ġpor":335,"res":336,"ente":337,"Ġlas":338,"Ġb":339,"id":340,"ĠC":341,"ĉĉĉĉ":342,"Ġuna":343,"ec":344,"is":345,"Ġdi":346,"Ġg":347,"Ġno":348,"Ã±":349,"lo":350,"la":351,"aciÃ³n":352,"Ġd":353,"mp":354,"qu":355,"ĠE":356,"cu":357,"il":358,"ĠS":359,"tu":360,"Ġcu":361,"Ġpara":362,"ch":363,"ĠA":364,"Ġsi":365,"ada":366,"Ġ1":367,"aba":368,"ĠP":369,"ir":370,"Ġpro":371,"ĠM":372,"ter":373,"gu":374,"Ã¡s":375,"Ġlo":376,"Ġper":377,"Ġdes":378,"ran":379,"io":380,"ones":381,"Ġme":382,"da":383,"Ãº":384,"ier":385,"ciÃ³n":386,"el":387,"tr":388,"go":389,"it":390,"ia":391,"Ġhab":392,"ca":393,"ĠL":394,"ist":395,"ando":396,"se":397,"ien":398,"Ġ(":399,"bre":400,"ma":401,"ie":402,"Ġcomo":403,"ac":404,"Ġmu":405,"cia":406,"ient":407,"co":408,"ĠD":409,"Ġi":410,"jo":411,"us":412,"Ġex":413,"Ġle":414,"Ġto":415,"iz":416,"ados":417,"mo":418,"iÃ³n":419,"ĠmÃ¡s":420,"Ġ2":421,"Ġac":422,"ales":423,"tiv":424,"ici":425,"ĠÂ":426,"ĠB":427,"tos":428,"Ã¡n":429,"ĠT":430,"Ġpo":431,"idad":432,"bi":433,"ĠR":434,"Ġso":435,"ru":436,"tes":437,"Ġan":438,"ras":439,"ero":440,"ul":441,"den":442,"ĉĉĉĉĉĉĉĉ":443,"pe":444,"tor":445,"era":446,"ues":447,"ĠN":448,"Ġsus":449,"Ġj":450,"tra":451,"dad":452,"El":453,"ce":454,"ig":455,"Ġqu":456,"Ġap":457,"im":458,"tro":459,"em":460,"Ġser":461,"ĠâĢĶ":462,"iv":463,"dos":464,"Ġ\"":465,"amente":466,"ay":467,"Ã©n":468,"Ġres":469,"ĠG":470,"ida":471,"ez":472,"ten":473,"orm":474,"ica":475,"pa":476,"tar":477,"ĠI":478,"Ġ19":479,"uer":480,"du":481,"des":482,"gun":483,"Ġas":484,"En":485,"ĠF":486,"Ġar":487,"ib":488,"per":489,"ante":490,"ido":491,"Ġca":492,"tre":493,"ĠH":494,"Ġten":495,"00":496,"mente":497,"ĠhabÃŃa":498,"um":499,"ios":500,"los":501,"La":502,"Ġpre":503,"po":504,"con":505,"ĠJ":506,"der":507,"Ġman":508,"Ġpr":509,"ur":510,"Ã©s":511,"rim":512,"lar":513,"iento":514,"ento":515,"Ġte":516,"ico":517,"Ġfue":518,"gar":519,"Ġsobre":520,"je":521,"ÃŃan":522,"Ġpero":523,"bl":524,"Ġsin":525,"ens":526,"Ġr":527,"Ġpue":528,"Ãºn":529,"ora":530,"mb":531,"Ġcas":532,"Ġpa":533,"ara":534,"Ġimp":535,"tas":536,"ores":537,"Ġcomp":538,"ĠÃ©":539,"ambi":540,"ces":541,"Un":542,"adas":543,"aciones":544,"Ġab":545,"ver":546,"ĠV":547,"Ġha":548,"encia":549,"ĠaÃ±":550,"Ġmis":551,"Ġera":552,"lan":553,"las":554,"za":555,"me":556,"Ġlle":557,"Ġentre":558,"vo":559,"Ġor":560,"Ġob":561,"Ġhac":562,"ust":563,"Ġmo":564,"Ġver":565,"Ġcar":566,"les":567,"Ġpas":568,"Ġinter":569,"onal":570,"tros":571,"ga":572,"ana":573,"ina":574,"Ġson":575,"Ġcons":576,"das":577,"lam":578,"Ġco":579,"ĠÂ¿":580,"aban":581,"Ġpres":582,"ort":583,"Ġtr":584,"Ġtra":585,"ech":586,"Â»":587,"ambiÃ©n":588,"Ġdis":589,"Ġma":590,"ino":591,"fer":592,"Ġmi":593,"Ġmedi":594,"Ġsol":595,"tÃ³":596,"ĠO":597,"Ġtan":598,"par":599,"Ġsal":600,"Ġcam":601,"cho":602,"fic":603,"iÃ³":604,"Â¿":605,"ano":606,"Ġprim":607,"able":608,"tal":609,"endo":610,"Ġemp":611,"aron":612,"eg":613,"ciones":614,"..":615,"asta":616,"ĠEst":617,"min":618,"Ġam":619,"pu":620,"Ġdeb":621,"ros":622,"Ġfin":623,"Ġmar":624,"Ġlu":625,"Ġcre":626,"amos":627,"pon":628,"ĠCom":629,"cl":630,"Ġesc":631,"Ġdos":632,"no":633,"mos":634,"enta":635,"Ġeste":636,"Ġcor":637,"Ġtodo":638,"cciÃ³n":639,"Ġcuando":640,"ĠÂ«":641,"Ġpos":642,"ĠUn":643,"ÃŃn":644,"entes":645,"fici":646,"ĠtambiÃ©n":647,"ub":648,"ĠY":649,"ve":650,"ario":651,"ÃŃs":652,"Ġdu":653,"eces":654,"ĠÃ©l":655,"almente":656,"Ġesp":657,"ona":658,"Ġtien":659,"Ġhasta":660,"čĊ":661,"va":662,"Ġpers":663,"car":664,"enci":665,"cas":666,"Ġba":667,"oy":668,"ĠEl":669,"Ġpe":670,"Ġesta":671,"Ġinf":672,"cip":673,"Ġhom":674,"paÃ±":675,"tado":676,"jos":677,"Ġprop":678,"Est":679,"01":680,"Ġya":681,"ista":682,"ja":683,"ĠCon":684,"No":685,"ÃŃas":686,"cos":687,"dr":688,"Ġparti":689,"Ġgran":690,"ĠLa":691,"oci":692,"Ġnue":693,"ĠestÃ¡":694,"ed":695,"ador":696,"arse":697,"Ġdo":698,"udi":699,"mas":700,"Ġ3":701,"Ġcab":702,"Ġvez":703,"rib":704,"Ġmuy":705,"ias":706,"Ġni":707,"Ġestaba":708,"man":709,"aliz":710,"Ã±o":711,"uro":712,"antes":713,"ven":714,"Ġter":715,"jer":716,"ton":717,"ĉĉĉĉĉĉĉĉĉĉ":718,"cha":719,"Ġdeci":720,").":721,"unto":722,"ren":723,"tura":724,"isiÃ³n":725,"iemp":726,"esti":727,"tivo":728,"lic":729,"ĠaÃ±os":730,"itu":731,"),":732,"âĢ¦":733,"Ġfuer":734,"na":735,"til":736,"Ġcos":737,"Ġtraba":738,"Ġreg":739,"vi":740,"gra":741,"ĠIn":742,"ĠEs":743,"Ġexp":744,"eci":745,"Ġparte":746,"zo":747,"Ġmay":748,"rante":749,"Ġdon":750,"cer":751,"ena":752,"Ġella":753,"quel":754,"ĠK":755,"Ġhaci":756,"Ġnos":757,"uel":758,"Ġtu":759,"Ġtiemp":760,"Ġcol":761,"puÃ©s":762,"âĢĶ.":763,"Ġpol":764,"Ġsegu":765,"ba":766,"tica":767,"Ġsab":768,"Ġdesde":769,"gr":770,"Ġcal":771,"âĢĶÂ¿":772,"Ġmun":773,"ĠNo":774,"gan":775,"Ġ200":776,"Ġprodu":777,"ĠSe":778,"Ġvol":779,"Ġcer":780,"mi":781,"iones":782,"pos":783,"Ġcual":784,"so":785,"Ġcan":786,"tin":787,"Ġhacer":788,"Ġfu":789,"Ġad":790,"Ġsent":791,"tiva":792,"Los":793,"ud":794,"ob":795,"Ġci":796,"itar":797,"Ġra":798,"ĠAl":799,"Ġtiempo":800,"Se":801,"Ġmen":802,"Qu":803,"Ġau":804,"ĠEn":805,"Ġpuede":806,"idades":807,"ĠW":808,"idos":809,"uso":810,"Ġaquel":811,"Ġro":812,"orma":813,"Ġtodos":814,"iera":815,"Ġ201":816,"Ġalgun":817,"can":818,"Ġbien":819,"ener":820,"Ġcontra":821,"Ġdonde":822,"av":823,"rec":824,"eb":825,"emos":826,"ÃŃo":827,"qui":828,"fec":829,"ĠMar":830,"peci":831,"Ġnues":832,"Ġtran":833,"ing":834,"ior":835,"ĠasÃŃ":836,"Ġmismo":837,"ĠquÃ©":838,"echo":839,"Ġmir":840,"tras":841,"lti":842,"eros":843,"tur":844,"Ġpu":845,"entos":846,"Ġch":847,"Ġmej":848,"Ġincl":849,"Ġhay":850,"stru":851,"Ġhacia":852,"por":853,"Ġneces":854,"ill":855,"ĠÃ¡":856,"Ġsig":857,"ĠâĢ":858,"ris":859,"Ġllam":860,"ÃŃcu":861,"cion":862,"adre":863,"Ġprin":864,"Ġher":865,"van":866,"Ġform":867,"ea":868,"cur":869,"ble":870,"Ã³lo":871,"Ġespeci":872,"arios":873,"iden":874,"Por":875,"Ġfun":876,"Ġvida":877,"ĠCh":878,"Ġuno":879,"ientras":880,"Ġcap":881,"Ġdej":882,"Ġciu":883,"Es":884,"uego":885,"diÃ³":886,"ĠRe":887,"\",":888,"Ġtiene":889,"Ġapar":890,"Ġlugar":891,"argo":892,"Ġhi":893,"mÃ¡s":894,"amiento":895,"ĠseÃ±":896,"acional":897,"Ġprincip":898,"Ġah":899,"Ġyo":900,"Ġrep":901,"che":902,"ĠdespuÃ©s":903,"dÃŃa":904,"emp":905,"gos":906,"Ġdist":907,"cias":908,"Ġnom":909,"oc":910,"Ġ-":911,"Ġdurante":912,"siÃ³n":913,"Ġconf":914,"Ã±a":915,"Ġmayor":916,"Ġhan":917,"Ġinv":918,"Ġrel":919,"eza":920,"Ġsido":921,"erv":922,"Ġve":923,"gua":924,"at":925,"Ġ.":926,"Ġ199":927,"anos":928,"arro":929,"ĠSan":930,"ible":931,"gen":932,"iciÃ³n":933,"Â¡":934,"Ġllev":935,"20":936,"ĠpaÃŃs":937,"Ġcomun":938,"ord":939,"Ġantes":940,"icos":941,"Ġemb":942,"miento":943,"ĠEuro":944,"ĠÃº":945,"adores":946,"if":947,"et":948,"Ġencon":949,"cul":950,"Ġpens":951,"Ġmom":952,"ĠAn":953,"Ġbu":954,"Ġmon":955,"Ġ4":956,"Ġtrans":957,"stitu":958,"Ġese":959,"Ġbas":960,"Ġu":961,"ĠtenÃŃa":962,"Ġimport":963,"ĠaÃ±o":964,"Ġden":965,"Ġlib":966,"Ġotros":967,"Ġpal":968,"Ġalgo":969,"pues":970,"chos":971,"Ã©r":972,"unque":973,"Ġmujer":974,"Ġciudad":975,"iendo":976,"Ġforma":977,"dido":978,"Ġporque":979,"Ġotro":980,"Ġti":981,"19":982,"Ġtoda":983,"Ġmie":984,"eron":985,"Ġcada":986,"pec":987,"Ġgener":988,"Ġconsi":989,"ctor":990,"Ġ18":991,"Ġinform":992,"icas":993,"ste":994,"Ġpes":995,"ĠdÃŃa":996,"Ġencontr":997,"onas":998,"uy":999,"ion":1000,"Ġay":1001,"Ġpues":1002,"tir":1003,"ard":1004,"Ġtom":1005,"Ġsoci":1006,"Ġrec":1007,"Ġreci":1008,"eo":1009,"ito":1010,"Ġfr":1011,"ĠpolÃŃ":1012,"Ġmientras":1013,"ĠÃºlti":1014,"ĠÂ¡":1015,"og":1016,"alidad":1017,"Ã³mo":1018,"Ġeso":1019,"Ġ5":1020,"Ġplan":1021,"tico":1022,"Ġsigu":1023,"Ġacu":1024,"Al":1025,"ita":1026,"Ġtanto":1027,"ĠPar":1028,"llo":1029,"lor":1030,"amil":1031,"zar":1032,"Ġotra":1033,"Ġmejor":1034,"ers":1035,"ĠU":1036,"Ġparec":1037,"iente":1038,"Ġencu":1039,"tonces":1040,"Ġri":1041,"br":1042,"quier":1043,"Ġprof":1044,"Ã±os":1045,"eno":1046,"Ãºbl":1047,"Ġref":1048,"Ġven":1049,"Ġviv":1050,"Ġestado":1051,"Ġcasa":1052,"Ġqued":1053,"Ġhombre":1054,"De":1055,"Ġju":1056,"erÃŃa":1057,"Ġmomento":1058,"Ġnada":1059,"ĠsÃ³lo":1060,"bres":1061,"Ġfi":1062,"all":1063,"ientos":1064,"ĠComisiÃ³n":1065,"Ġtras":1066,"Ġcent":1067,"Ġpla":1068,"ĠDe":1069,"ĠAr":1070,"ĠMe":1071,"nos":1072,"Ġmundo":1073,"Ġpoco":1074,"quÃŃ":1075,"Ġtres":1076,"ĉčĊ":1077,"ĉĉĉĉĉĉĉĉĉĉĉčĊ":1078,"and":1079,"Ġindi":1080,"arÃŃa":1081,"dose":1082,"Ġmal":1083,"Ġellos":1084,"rist":1085,"riÃ³":1086,"cen":1087,"ancia":1088,"Ġgru":1089,"Ġmenos":1090,"cio":1091,"olu":1092,"Ġhecho":1093,"ific":1094,"mpl":1095,"Ġop":1096,"oso":1097,"he":1098,"Las":1099,"Ġencuent":1100,"Ġserv":1101,"pre":1102,"Ġpi":1103,"ĉĉĉĉĉĉĉĉĉĉĉĉĉĉĉĉ":1104,"ĉĉĉĉĉĉĉĉĉĉčĊ":1105,"ĉĉĉĉĉĉĉĉĉĉĉĉĉĉĉĉĉĉĉĉĉĉĉĉĉĉčĊ":1106,"Ġda":1107,"\".":1108,"Ġdecir":1109,"Ġfamil":1110,"tivos":1111,"...":1112,"Ġmucho":1113,"Ġof":1114,"Ġna":1115,"ÂŃ":1116,"lÃŃ":1117,"rig":1118,"Ġprimera":1119,"Ġentr":1120,"Ġdesarro":1121,"Ġsuper":1122,"dijo":1123,"tamente":1124,"Ġvo":1125,"Ġade":1126,"illa":1127,"Ġtar":1128,"omo":1129,"Ġestudi":1130,"cre":1131,"Con":1132,"Ġprimer":1133,"ieron":1134,"âĢĿ":1135,"Ġli":1136,"Ġmiemb":1137,"raciÃ³n":1138,"Ġmuer":1139,"ĠPero":1140,"Ġquien":1141,"Ġhum":1142,"ilidad":1143,"Ġmes":1144,"Ġactu":1145,"Ġpeque":1146,"ismo":1147,"Ġpuer":1148,"Ġhist":1149,"Ġles":1150,"Ġpodr":1151,"Ġir":1152,"osa":1153,"tri":1154,"ap":1155,"tiÃ³":1156,"Ġlleg":1157,"Ġgu":1158,"Ġne":1159,"Ġahora":1160,"ĠEstados":1161,"Ġnuevo":1162,"Ġunos":1163,"Â».":1164,"Ã³m":1165,"Ġsub":1166,"Ġojos":1167,"ĠsÃŃ":1168,"erdo":1169,"Ġresul":1170,"Ġrealiz":1171,"Ġsegun":1172,"Ġeran":1173,"Ġpregun":1174,"Ġmin":1175,"ĠÃ":1176,"cado":1177,"izo":1178,"Ġtrabajo":1179,"Ġhaber":1180,"pi":1181,"ĠhabÃŃan":1182,"Ġdere":1183,"Ġdef":1184,"Ġale":1185,"Ġmil":1186,"ĠLe":1187,"Ġmer":1188,"Ġ6":1189,"Ġust":1190,"Ġdest":1191,"Ġsiemp":1192,"Ġsiempre":1193,"ĠCar":1194,"zÃ³":1195,"arÃ¡":1196,"Ġval":1197,"teri":1198,"Ġesa":1199,"Ġbo":1200,"sejo":1201,"vers":1202,"Ġnombre":1203,"zas":1204,"Ġ198":1205,"Ġconoci":1206,"gÃºn":1207,"Ġev":1208,"tiliz":1209,"Ġrev":1210,"ĠSu":1211,"Ġcuenta":1212,"dia":1213,"ll":1214,"Ġpon":1215,"ine":1216,"Ġaunque":1217,"yec":1218,"Ãºs":1219,"segu":1220,"Ġtodas":1221,"istas":1222,"Ġhe":1223,"Ġsolo":1224,"ĠestÃ¡n":1225,"taba":1226,"QuÃ©":1227,"Ġins":1228,"Ġdijo":1229,"ene":1230,"Ġgra":1231,"Ġsitu":1232,"Ġpersonas":1233,"Ġcontin":1234,"ĠÃºn":1235,"oria":1236,"Ġag":1237,"Ġcomple":1238,"Ġdirec":1239,"ital":1240,"Ã©c":1241,"ierno":1242,"Ġdifer":1243,"Ġcl":1244,"Ġbar":1245,"Ġesper":1246,"Ġtal":1247,"Ġesto":1248,"entar":1249,"Ġru":1250,"Ġcul":1251,"Ġmano":1252,"lu":1253,"ne":1254,"Ġembargo":1255,"ag":1256,"Ġutiliz":1257,"Cu":1258,"zÃ³n":1259,"Des":1260,"pen":1261,"Ã¡ndo":1262,"Ġobje":1263,"Ġcabeza":1264,"cep":1265,"Ġ7":1266,"tel":1267,"Ġ9":1268,"Ġtemp":1269,"ĠaquÃŃ":1270,"Ġdec":1271,"Ġquier":1272,"Ġcier":1273,"Ġfal":1274,"Ġexist":1275,"Ġpel":1276,"Ġcuer":1277,"Ġhace":1278,"Ġtrabaj":1279,"Su":1280,"Ġaf":1281,"Ġpoder":1282,"Ġorgan":1283,"th":1284,"embre":1285,"erg":1286,"Ġpalab":1287,"ĠConsejo":1288,"dor":1289,"ĠmÃŃ":1290,"Ġmedio":1291,"ĠEurope":1292,"Ġrela":1293,"Ġus":1294,"rica":1295,"Ġbajo":1296,"ĠLos":1297,"Ġanti":1298,"Ġante":1299,"jas":1300,"Ġfueron":1301,"unca":1302,"Ġz":1303,"Ġotras":1304,"tÃŃcu":1305,"idas":1306,"Ġpobl":1307,"tad":1308,"Ãºm":1309,"Ġvi":1310,"Ġvar":1311,"ern":1312,"Ġhabit":1313,"Ġ8":1314,"acion":1315,"sa":1316,"Ġentonces":1317,"orte":1318,"ctu":1319,"chas":1320,"Ġloc":1321,"Ġprogra":1322,"ivers":1323,"Ġempres":1324,"Ġsue":1325,"tados":1326,"ĠâĢľ":1327,"Ġk":1328,"imiento":1329,"Ġpie":1330,"Ġgob":1331,"Ġusted":1332,"Ġcaso":1333,"ep":1334,"dades":1335,"Ġapro":1336,"Ġequi":1337,"rÃŃa":1338,"ĠX":1339,"sta":1340,"ge":1341,"Ġconv":1342,"Pero":1343,"ich":1344,"ĠPor":1345,"dera":1346,"Ġlado":1347,"ĠFran":1348,"ĠAs":1349,"viÃ³":1350,"Ġpunto":1351,"cil":1352,"Ġestar":1353,"ĠpodÃŃa":1354,"taciÃ³n":1355,"Ġvis":1356,"ya":1357,"Ġhizo":1358,"tido":1359,"Ġfuera":1360,"Ã¡c":1361,"icio":1362,"Ġos":1363,"Ġsan":1364,"Ġtener":1365,"Ġpueden":1366,"Ġefec":1367,"ecu":1368,"tam":1369,"atro":1370,"Ġint":1371,"teg":1372,"Ġacer":1373,"Ġsino":1374,"lamento":1375,"Ġhor":1376,"Ġhub":1377,"Ġhombres":1378,"Ġautor":1379,"tan":1380,"ex":1381,"Ġproduc":1382,"Ġestable":1383,"Ã¡l":1384,"Ġluego":1385,"paÃ±a":1386,"ola":1387,"Ġmanera":1388,"Ġedi":1389,"Si":1390,"zos":1391,"ome":1392,"âĢĶÂ¡":1393,"Ġbus":1394,"ral":1395,"Ġpadre":1396,"Ġide":1397,"tural":1398,"ura":1399,"Ġban":1400,"Ġcin":1401,"Ġrepres":1402,"tivas":1403,"bido":1404,"Ġecon":1405,"ĠMa":1406,"Ġdirig":1407,"CE":1408,"Ġestos":1409,"ÃŃst":1410,"Ġescri":1411,"ĠdÃŃas":1412,"cel":1413,"inas":1414,"gas":1415,"ala":1416,"Ġcomer":1417,"anza":1418,"irm":1419,"ĠcÃ³mo":1420,"Ġproble":1421,"Ġdar":1422,"cup":1423,"ticas":1424,"ierra":1425,"ĠallÃŃ":1426,"Ġconstru":1427,"ceso":1428,"uerra":1429,"vÃŃa":1430,"Ġproyec":1431,"encias":1432,"Ġnoche":1433,"Ġgan":1434,"Ġinst":1435,"Ġmisma":1436,"untos":1437,"blic":1438,"ensa":1439,"uda":1440,"imo":1441,"ril":1442,"ima":1443,"Ġjunto":1444,"ire":1445,"Ã¡ndose":1446,"Ġrecon":1447,"Ġfamilia":1448,"ĠLo":1449,"Ġmiembros":1450,"ip":1451,"Ġtor":1452,"ĠpÃºbl":1453,"Ġrespon":1454,"Ġveces":1455,"aria":1456,"izaciÃ³n":1457,"tener":1458,"Ġcosas":1459,"Ġvuel":1460,"Ġaplic":1461,"ĠLu":1462,"Ġing":1463,"Ġce":1464,"cÃ³":1465,"Ġtotal":1466,"ientes":1467,"Ġeje":1468,"rado":1469,"Ġllegar":1470,"Ġcasi":1471,"idente":1472,"Ġpri":1473,"Ġcr":1474,"Ġorden":1475,"ridad":1476,"Ġtrav":1477,"Ġpersona":1478,"omb":1479,"iado":1480,"Ġagua":1481,"ĠZ":1482,"ono":1483,"Ġalgunos":1484,"rar":1485,"Me":1486,"Ġestu":1487,"cular":1488,"Ġgeneral":1489,"Ġorig":1490,"Ġpermi":1491,"Ġofici":1492,"Ġsac":1493,"dio":1494,"Ġdentro":1495,"Â»,":1496,"Ġcualquier":1497,"Ã³g":1498,"ria":1499,"Ġcontinu":1500,"ĠSi":1501,"Ġnuev":1502,"ĠnÃºm":1503,"Ġpresent":1504,"Ġsea":1505,"Ġprofes":1506,"terior":1507,"Ġ0":1508,"ĠDios":1509,"und":1510,"Ġnunca":1511,"Ġelec":1512,"II":1513,"Ġpuerta":1514,"com":1515,"ĠCo":1516,"Ġexper":1517,"dida":1518,"duc":1519,"bio":1520,"unidad":1521,"Ġva":1522,"Ġ15":1523,"Ġ10":1524,"ĠtravÃ©s":1525,"ĠPro":1526,"Ġactiv":1527,"ĠseÃ±or":1528,"Ġgrupo":1529,"bol":1530,"ĠpaÃŃses":1531,"ables":1532,"Ġvoz":1533,"Ã¡r":1534,"ticos":1535,"Ġejemp":1536,"Ġfinal":1537,"iso":1538,"avor":1539,"icia":1540,"Ġmodo":1541,"Ġobs":1542,"Ġtipo":1543,"Ġho":1544,"Ġcontro":1545,"estig":1546,"unci":1547,"iÃ©n":1548,"tera":1549,"vin":1550,"ĠTo":1551,"Ġapoy":1552,"bo":1553,"ĠaÃºn":1554,"oma":1555,"Ġcuerpo":1556,"ĠCu":1557,"ese":1558,"Ã¡g":1559,"tando":1560,"Ġgust":1561,"Ġextra":1562,"Ġclar":1563,"Ġsa":1564,"isto":1565,"Ġpl":1566,"Ġclas":1567,"ares":1568,"cri":1569,"tis":1570,"Ġtarde":1571,"acio":1572,"Ġcomen":1573,"Ġfran":1574,"Ġamb":1575,"Ġmanos":1576,"aran":1577,"Ġtem":1578,"Ġ197":1579,"Ġdebe":1580,"Âł":1581,"stema":1582,"Ġcambi":1583,"ama":1584,"Para":1585,"icios":1586,"Ġsistema":1587,"ivel":1588,"olog":1589,"torio":1590,"Ġcuan":1591,"gn":1592,"Ġemple":1593,"Ġpreci":1594,"Ġmadre":1595,"Ġdesa":1596,"Ġposible":1597,"ĠmÃ©":1598,"ĠinformaciÃ³n":1599,"Ġdici":1600,"Ġpueb":1601,"Ġfavor":1602,"ques":1603,"tÃŃculo":1604,"ĠpoblaciÃ³n":1605,"ĠpolÃŃtica":1606,"000":1607,"Ġneg":1608,"Ġigu":1609,"Ġenf":1610,"respon":1611,"ĠPa":1612,"Ġencuentra":1613,"leg":1614,"ell":1615,"âĢĵ":1616,"Ġej":1617,"Ã¡p":1618,"Ġmuchos":1619,"Ġconsider":1620,"Ġjo":1621,"Ġsur":1622,"Ġ17":1623,"Ġestas":1624,"ribu":1625,"anci":1626,"ES":1627,"ber":1628,"rÃ³":1629,"Ġrecu":1630,"rir":1631,"Ġnivel":1632,"Ġestaban":1633,"biÃ³":1634,"Ġdesarrollo":1635,"Ġempez":1636,"ment":1637,"ĠAm":1638,"inos":1639,"ase":1640,"pecto":1641,"tores":1642,"minist":1643,"vil":1644,"cido":1645,"yo":1646,"Ġpron":1647,"tante":1648,"jes":1649,"Ġblan":1650,"ĠnÃºmero":1651,"ves":1652,"Ġpublic":1653,"Ġfrente":1654,"Ġtienen":1655,"Ġalcan":1656,"Ġhistoria":1657,"ÃŃtu":1658,"Ġcuatro":1659,"Ġdistin":1660,"Ġmor":1661,"ef":1662,"mana":1663,"uela":1664,"eta":1665,"Ġmill":1666,"icip":1667,"Ġlevan":1668,"Ġnoso":1669,"Ġnov":1670,"CA":1671,"tenciÃ³n":1672,"Ġpap":1673,"Ġlan":1674,"Ġacuerdo":1675,"pul":1676,"Lo":1677,"tada":1678,"Ġdio":1679,"Ġdicho":1680,"vid":1681,"vis":1682,"tud":1683,"ĠUnidos":1684,"Ġimportante":1685,"ĠDes":1686,"Ġsign":1687,"Ġdescu":1688,"igo":1689,"Ġlargo":1690,"Ġtermin":1691,"In":1692,"Ġgri":1693,"adie":1694,"ĠcompaÃ±":1695,"enas":1696,"ĠespaÃ±":1697,"arlo":1698,"Ġcaus":1699,"Ġescu":1700,"Ġintern":1701,"dir":1702,"ĠJu":1703,"Ġbra":1704,"Ġmuerte":1705,"enos":1706,"Ġjun":1707,"ional":1708,"mon":1709,"dente":1710,"cial":1711,"pas":1712,"Ġgrandes":1713,"Ġ12":1714,"mbre":1715,"Ġima":1716,"Ġnosotros":1717,"trÃ¡s":1718,"Ġinvestig":1719,"eras":1720,"Sin":1721,"As":1722,"Ġmujeres":1723,"Ġexpres":1724,"zado":1725,"sos":1726,"Ġvia":1727,"ingun":1728,"Ġgol":1729,"Una":1730,"Ġ16":1731,"Ã±as":1732,"Ġproce":1733,"reg":1734,"Ġgente":1735,"Ġnuestro":1736,"Ġliber":1737,"Ġmov":1738,"ĠCa":1739,"Ġnuestra":1740,"ĠGu":1741,"tern":1742,"Ġmas":1743,"Ġcondi":1744,"ck":1745,"termin":1746,"Ġleg":1747,"ĠeconÃ³m":1748,"form":1749,"Ġcono":1750,"Ġis":1751,"seÃ±":1752,"Ġfund":1753,"puesto":1754,"Ġello":1755,"ĠsÃ©":1756,"Ġsiendo":1757,"jar":1758,"eric":1759,"Ġocur":1760,"Ġcru":1761,"Ġsil":1762,"ece":1763,"Ġparticip":1764,"Ġejemplo":1765,"illo":1766,"ĠAle":1767,"rÃ¡":1768,"Ġdemas":1769,"Ġatra":1770,"mit":1771,"Ã³r":1772,"fico":1773,"Ġayud":1774,"cal":1775,"ĠEspaÃ±a":1776,"ĠDi":1777,"son":1778,"Ġhablar":1779,"Ġsiglo":1780,"Ġhijo":1781,"fica":1782,"Ġcerca":1783,"Ġ,":1784,"itos":1785,"ĠBar":1786,"ĠCas":1787,"10":1788,"Ġguerra":1789,"tÃ³n":1790,"tific":1791,"ĠpodrÃŃa":1792,"Ġincluso":1793,"ual":1794,"dust":1795,"tran":1796,"imos":1797,"tÃ©":1798,"Ġpalabras":1799,"cog":1800,"Ġley":1801,"una":1802,"ĠâĢĵ":1803,"pti":1804,"Ġmillones":1805,"Ġeuro":1806,"Ġsiguiente":1807,"Ġobl":1808,"ĠademÃ¡s":1809,"iga":1810,"Ġnueva":1811,"ial":1812,"Este":1813,"ron":1814,"Cuando":1815,"ĠRo":1816,"ulio":1817,"Ġequipo":1818,"Ġverdad":1819,"Ġmunicip":1820,"gles":1821,"Ġofre":1822,"dencia":1823,"ĠlÃŃn":1824,"Ġsocial":1825,"Ġquer":1826,"Ġestre":1827,"rede":1828,"cor":1829,"inar":1830,"Ġcir":1831,"quil":1832,"__":1833,"anas":1834,"Ġiba":1835,"eciÃ³":1836,"Ġaquella":1837,"Ġdif":1838,"Ġacab":1839,"Ġtrad":1840,"Ġobserv":1841,"Ġtierra":1842,"tt":1843,"Ġtuvo":1844,"oluciÃ³n":1845,"ĠEstado":1846,"Ġmos":1847,"ĠJo":1848,"Ġagu":1849,"Ġgobierno":1850,"Ġvarios":1851,"Ġrecib":1852,"Ġanim":1853,"inaciÃ³n":1854,"Ġpasado":1855,"Ġrepresent":1856,"Ġjust":1857,"ajo":1858,"abor":1859,"tio":1860,"Ġado":1861,"Ġsor":1862,"Ġ20":1863,"Ġampl":1864,"Ġespec":1865,"ev":1866,"Ġincluy":1867,"Ġningun":1868,"Ġhabl":1869,"Ġreun":1870,"ivo":1871,"edad":1872,"Ġcompe":1873,"ÃŃr":1874,"Ġigual":1875,"olo":1876,"ula":1877,"Esta":1878,"Ġnatural":1879,"Ġluz":1880,"Ġprograma":1881,"iencia":1882,"ĠMon":1883,"peraciÃ³n":1884,"ug":1885,"iar":1886,"tÃ¡n":1887,"Ġunas":1888,"urante":1889,"ĠPo":1890,"Ġsaber":1891,"Ġhubiera":1892,"ĠÃºltimo":1893,"Ġrefer":1894,"Ã¡b":1895,"12":1896,"ĠPres":1897,"ÃŃdo":1898,"Ġvista":1899,"Ġamor":1900,"ĠsegÃºn":1901,"Ġinteres":1902,"adamente":1903,"Ġata":1904,"Ġsector":1905,"ha":1906,"Ġpan":1907,"Ġserie":1908,"To":1909,"2020":1910,"ke":1911,"demÃ¡s":1912,"Ġalguna":1913,"Ġ14":1914,"Ġpapel":1915,"estiÃ³n":1916,"ĠlÃŃ":1917,"mento":1918,"Ġcont":1919,"Ġdetermin":1920,"Ġjoven":1921,"Ġcentro":1922,"CI":1923,"ile":1924,"Ġcuar":1925,"TambiÃ©n":1926,"ide":1927,"Ġdesp":1928,"ĠdemÃ¡s":1929,"Ġpueblo":1930,"lec":1931,"Ġhu":1932,"Â°":1933,"cimiento":1934,"Ġcamino":1935,"ĠrÃ¡p":1936,"Ġcara":1937,"Ġjug":1938,"Ġorganiz":1939,"ĠserÃŃa":1940,"Ġsos":1941,"puesta":1942,"olÃ³g":1943,"ĠLas":1944,"Ġsegundo":1945,"ÃŃtulo":1946,"cir":1947,"ÃŃamos":1948,"ĠCor":1949,"Ã¡m":1950,"SÃŃ":1951,"mple":1952,"Ġol":1953,"risa":1954,"Ġtri":1955,"erio":1956,"rea":1957,"ww":1958,"ER":1959,"Ġperman":1960,"ĠsituaciÃ³n":1961,"ĠIs":1962,"iene":1963,"Ġalgunas":1964,"Ġcora":1965,"Ġregres":1966,"ĠSal":1967,"Ġll":1968,"Fue":1969,"Ġayuda":1970,"Ã¼":1971,"Ġnacional":1972,"ĠartÃŃculo":1973,"acionales":1974,"ĠEuropa":1975,"Ġcompar":1976,"Ġdemasiado":1977,"guien":1978,"18":1979,"gre":1980,"199":1981,"iversidad":1982,"ign":1983,"ĠmayorÃŃa":1984,"Ġnadie":1985,"gel":1986,"quiera":1987,"Ġeurope":1988,"Ġdin":1989,"Ġ13":1990,"Ġvolver":1991,"ologÃŃa":1992,"Ġcosa":1993,"ho":1994,"cional":1995,"Ġfinanci":1996,"ĠÃºnico":1997,"Ġacep":1998,"Ġpudi":1999,"ĠtÃº":2000,"Ġconver":2001,"Ġtempor":2002,"Ġdese":2003,"rio":2004,"ĠCam":2005,"Ġinici":2006,"Ġproductos":2007,"Ġder":2008,"Ġcuanto":2009,"Ġnorm":2010,"Ġrom":2011,"char":2012,"Ġdiciembre":2013,"Ġ196":2014,"undi":2015,"Ġdice":2016,"Ġgr":2017,"Ġdescub":2018,"Ġvisto":2019,"Ġpuesto":2020,"iciones":2021,"Ã±ana":2022,"ĠReg":2023,"Ġpesar":2024,"ĠmÃºs":2025,"Ġpaso":2026,"Ġros":2027,"tic":2028,"Ġub":2029,"Ã©is":2030,"Ġcontrol":2031,"Ġtele":2032,"nas":2033,"ĠrelaciÃ³n":2034,"Ġrey":2035,"ut":2036,"Ġpersonal":2037,"Ġmuchas":2038,"ĠMan":2039,"ĠtodavÃŃa":2040,"Ġparece":2041,"ĠvolviÃ³":2042,"Ġcompr":2043,"ĠhacÃŃa":2044,"rero":2045,"Ġcub":2046,"Ġcambio":2047,"echa":2048,"Ġconstitu":2049,"Ġalrede":2050,"Ġseguridad":2051,"ĠComunidad":2052,"udo":2053,"Ġlogr":2054,"ĠQu":2055,"iste":2056,"Ġposib":2057,"ĠsabÃŃa":2058,"ric":2059,"est":2060,"Ġmucha":2061,"Ġenfer":2062,"Ġprepar":2063,"Ġobra":2064,"ierto":2065,"Ġprob":2066,"ĠserÃ¡":2067,"Ġdispon":2068,"tidad":2069,"inado":2070,"Ġpartir":2071,"cito":2072,"ĠBa":2073,"Ġindust":2074,"mil":2075,"Ġcinco":2076,"gado":2077,"ĠalgÃºn":2078,"Ġocas":2079,"Ã©cn":2080,"Ġ11":2081,"gres":2082,"Ġzona":2083,"EN":2084,"Ġaum":2085,"Ġhoy":2086,"Ġases":2087,"Ġmirada":2088,"ĠYo":2089,"ĠparecÃŃa":2090,"ĠEuropea":2091,"ian":2092,"glesia":2093,"Ġprincipal":2094,"Â«":2095,"ingÃºn":2096,"graf":2097,"An":2098,"visiÃ³n":2099,"Ġfil":2100,"ecer":2101,"Ġmercado":2102,"mÃ¡":2103,"Ġjunio":2104,"Ġdefin":2105,"lica":2106,"ĠmÃ¡":2107,"hora":2108,"ĠÃģ":2109,"Ġvie":2110,"Ġcele":2111,"Ġlen":2112,"âĢĶ,":2113,"Ġnorte":2114,"Ġgas":2115,"Ġsentido":2116,"dero":2117,"Ġservicios":2118,"Ġrealidad":2119,"ondo":2120,"end":2121,"ĠCol":2122,"ĠespaÃ±ol":2123,"ĠprÃ¡c":2124,"ite":2125,"CEE":2126,"abÃŃa":2127,"Ġidea":2128,"orn":2129,"Ġat":2130,"Ġtendr":2131,"Ġtro":2132,"irse":2133,"Ġdeclar":2134,"ira":2135,"Ġminu":2136,"iva":2137,"200":2138,"Ġconte":2139,"Ġinte":2140,"Ġinterior":2141,"tuvo":2142,"Ġhoras":2143,"Ġjulio":2144,"Ġpreo":2145,"Ġfuerza":2146,"Ġhora":2147,"ĠJos":2148,"Ġderecho":2149,"uc":2150,"Ġubic":2151,"Ġrad":2152,"ĠquerÃŃa":2153,"ifica":2154,"Ġparticular":2155,"acter":2156,"Ġdiferentes":2157,"ĠmaÃ±ana":2158,"Que":2159,"Ġcomunic":2160,"īl":2161,"dico":2162,"ilo":2163,"Ġbase":2164,"ĠUniÃ³n":2165,"igu":2166,"ry":2167,"Ġinde":2168,"este":2169,"Ġoscu":2170,"Ġoblig":2171,"11":2172,"Ġaire":2173,"Ġsuf":2174,"ctubre":2175,"Ġalguien":2176,"Ġdivers":2177,"pir":2178,"mar":2179,"recciÃ³n":2180,"Ġcorrespon":2181,"Ãºblica":2182,"Ã³s":2183,"Ġredu":2184,"abilidad":2185,"quÃ©":2186,"ĠMo":2187,"Ġsorp":2188,"ror":2189,"Ġesf":2190,"rid":2191,"Ġperten":2192,"Ġpin":2193,"Ġmayo":2194,"ĠDE":2195,"Ġfo":2196,"mentos":2197,"Ã©rica":2198,"xim":2199,"Ġrecur":2200,"ĠningÃºn":2201,"ĠpelÃŃcu":2202,"Ġabs":2203,"Ġexten":2204,"Ġprev":2205,"Ġdejar":2206,"Ġcontr":2207,"Ġorigin":2208,"Ġvent":2209,"Ġdebido":2210,"Ġsuelo":2211,"Ġencar":2212,"jÃ³":2213,"ĠPer":2214,"Ġnego":2215,"Ġencontrar":2216,"Ġbri":2217,"Ġproblemas":2218,"07":2219,"tom":2220,"ciÃ³":2221,"diente":2222,"OS":2223,"igos":2224,"turas":2225,"toria":2226,"pregun":2227,"ĠRep":2228,"ĠcomÃºn":2229,"Ġcur":2230,"Ġadop":2231,"ĠseÃ±al":2232,"Ġcabo":2233,"Ġcolor":2234,"Ġestru":2235,"ueva":2236,"Ġpropues":2237,"ĠcorazÃ³n":2238,"diendo":2239,"bor":2240,"Ġuso":2241,"usiÃ³n":2242,"Ġbor":2243,"ĠrazÃ³n":2244,"ritu":2245,"Ġproceso":2246,"Ġfra":2247,"ĠVal":2248,"Ġalrededor":2249,"Ġvarias":2250,"Ġcompren":2251,"Ġproyecto":2252,"itas":2253,"rido":2254,"Ġeleg":2255,"Ġdedi":2256,"ĠNacional":2257,"Ġmarzo":2258,"Ġprote":2259,"Ġlar":2260,"ĠniÃ±os":2261,"ĠJuan":2262,"Ġinstitu":2263,"ong":2264,"Ã³nde":2265,"ĠEra":2266,"Ġoctubre":2267,"Ġenerg":2268,"tÃ¡":2269,"Ġpronto":2270,"Ġespecial":2271,"Ġren":2272,"ptiembre":2273,"Ġmostr":2274,"Ġmeses":2275,"Como":2276,"Ġconj":2277,"iment":2278,"mano":2279,"ĠSo":2280,"Ġninguna":2281,"ĠmirÃ³":2282,"Ġadminist":2283,"mientos":2284,"ĠhabrÃŃa":2285,"Ġaband":2286,"Ġ194":2287,"ĠOr":2288,"Ġenero":2289,"Ġintent":2290,"ĠrÃŃo":2291,"Ġand":2292,"Ġsegunda":2293,"rera":2294,"iembre":2295,"Ġenci":2296,"Ġconsegu":2297,"ficio":2298,"ĠtÃ©cn":2299,"Ġesos":2300,"enso":2301,"Ġavan":2302,"AR":2303,"ĠproducciÃ³n":2304,"Ġpasa":2305,"ka":2306,"Ġtec":2307,"Ġpasar":2308,"Ġnuestros":2309,"Ġcalle":2310,"gent":2311,"Ġdado":2312,"Ġpropio":2313,"Ġponer":2314,"Ġexplic":2315,"icamente":2316,"iano":2317,"ĠGran":2318,"Ġespecie":2319,"cis":2320,"ĠregiÃ³n":2321,"Ġcierto":2322,"Ġsilenci":2323,"ĠMÃ©":2324,"ablemente":2325,"ĠPe":2326,"Ġbuena":2327,"Ġterri":2328,"tec":2329,"tivamente":2330,"ale":2331,"Ġvalor":2332,"alo":2333,"esta":2334,"Ġmilitar":2335,"Le":2336,"Ġinm":2337,"porte":2338,"culo":2339,"Ġdeber":2340,"xto":2341,"ĠCan":2342,"Ġcaracter":2343,"var":2344,"ĠSa":2345,"ĠMad":2346,"ÃŃc":2347,"bas":2348,"Ġtengo":2349,"Ġ30":2350,"Ġreal":2351,"Ġseguir":2352,"Ġdomin":2353,"bra":2354,"siones":2355,"Ġnaci":2356,"Ġcondiciones":2357,"Ġseptiembre":2358,"ficiente":2359,"ĠCuando":2360,"Ġvio":2361,"isa":2362,"ĠBu":2363,"Ġantigu":2364,"Ġdatos":2365,"Ġpropia":2366,"ĠÃºltima":2367,"ĠTen":2368,"Ġmode":2369,"Ġrecord":2370,"Ġprovin":2371,"ON":2372,"Ġ[":2373,"ate":2374,"Ġ25":2375,"Ġestoy":2376,"bar":2377,"tero":2378,"Ġfuncion":2379,"Ġprue":2380,"ĠÃ©po":2381,"Ġlim":2382,"Ġenten":2383,"Ġacom":2384,"Ġnoviembre":2385,"Ġagr":2386,"Ġkm":2387,"Ġellas":2388,"Ġservicio":2389,"Ġderechos":2390,"ĠlÃŃnea":2391,"Ġil":2392,"Ġalto":2393,"ĠSin":2394,"Ġdocu":2395,"ĠBo":2396,"ĠCent":2397,"Ġrespecto":2398,"Ġabril":2399,"Ġlibre":2400,"reo":2401,"ts":2402,"ĠTra":2403,"Ġ193":2404,"Ġfuerte":2405,"orÃŃa":2406,"ĠinvestigaciÃ³n":2407,"ĠtÃ©r":2408,"cent":2409,"Ġmediante":2410,"15":2411,"Ġdispos":2412,"don":2413,"Ġpresente":2414,"ĠÃ¡r":2415,"Ġprincipio":2416,"Ġfor":2417,"Ġconten":2418,"Ġempresas":2419,"bu":2420,"her":2421,"Ġdinero":2422,"ivil":2423,"Ġsalud":2424,"demos":2425,"taron":2426,"Ġocup":2427,"Ġcapital":2428,"Ġmus":2429,"ĠMi":2430,"iedad":2431,"Ġhijos":2432,"Ġsecre":2433,"Ã©rcito":2434,"adora":2435,"ĠatenciÃ³n":2436,"Ġlibro":2437,"ĠUniversidad":2438,"Ġaz":2439,"Ġet":2440,"AdemÃ¡s":2441,"ĠpequeÃ±o":2442,"ĠllegÃ³":2443,"Ġinclu":2444,"Ġrespons":2445,"Ġafec":2446,"Ġempresa":2447,"cin":2448,"Ġsens":2449,"AS":2450,"ĠParlamento":2451,"lla":2452,"pro":2453,"Ġviol":2454,"Ġer":2455,"Ġcapaci":2456,"ĠTe":2457,"stas":2458,"stante":2459,"Ġ195":2460,"Ġcampo":2461,"vieron":2462,"tac":2463,"Ġsuce":2464,"dific":2465,"Ġpartido":2466,"Ġtrata":2467,"Ġenvi":2468,"Ġbuen":2469,"Ġpuedo":2470,"Ġpalabra":2471,"Ġfe":2472,"Durante":2473,"cam":2474,"ĠÃ©x":2475,"Ġprimero":2476,"Ġcrist":2477,"arla":2478,"Ġapren":2479,"CÃ³mo":2480,"Ġmedidas":2481,"Ġhabitantes":2482,"AN":2483,"egÃºn":2484,"esa":2485,"tario":2486,"onia":2487,"dado":2488,"ĠSeÃ±":2489,"Ġasegu":2490,"ÃŃos":2491,"xico":2492,"ebrero":2493,"tion":2494,"arme":2495,"Ġjue":2496,"ĠCal":2497,"Ġdesapar":2498,"hn":2499,"Ġinstru":2500,"cina":2501,"Ġsignifica":2502,"ental":2503,"Ġsup":2504,"Ġhas":2505,"Ġw":2506,"Desde":2507,"Ġarti":2508,"fo":2509,"Ġcuales":2510,"men":2511,"Ġvig":2512,"fi":2513,"Ġpelig":2514,"Ġaquellos":2515,"ĠdirecciÃ³n":2516,"ÃŃfic":2517,"Ġmateri":2518,"ielo":2519,"Ġcumpl":2520,"ches":2521,"ĠformaciÃ³n":2522,"ĠÃ©poca":2523,"Ġejer":2524,"ĠpequeÃ±a":2525,"Ġinme":2526,"gosto":2527,"Ġconsecu":2528,"Ġpropor":2529,"Ġcuid":2530,"Ġmater":2531,"06":2532,"ĠhabitaciÃ³n":2533,"Ġalma":2534,"Ġmunicipio":2535,"âĢĻ":2536,"ĠacompaÃ±":2537,"tamento":2538,"ierta":2539,"Ġbol":2540,"Ġperfec":2541,"ĠpÃ¡g":2542,"Ġtenido":2543,"hi":2544,"Ġvac":2545,"Ġboca":2546,"ducaciÃ³n":2547,"Ġoport":2548,"Ġescrib":2549,"Ġfigu":2550,"echos":2551,"au":2552,"Yo":2553,"Ġbastante":2554,"Ġabandon":2555,"Ġreconoci":2556,"Ġ2010":2557,"ĠaplicaciÃ³n":2558,"DespuÃ©s":2559,"ĠRepÃºblica":2560,"16":2561,"Ġhici":2562,"Ġmues":2563,"Ġgrande":2564,"Ġproblema":2565,"Ġpod":2566,"17":2567,"Ġem":2568,"ond":2569,"Ġverda":2570,"Ġedad":2571,"Ġrostro":2572,"tien":2573,"Ġdorm":2574,"ormente":2575,"emas":2576,"talla":2577,"Ġlengua":2578,"Ġpartes":2579,"Ġcapa":2580,"ĠfÃ¡":2581,"Ġinten":2582,"Ġdescon":2583,"Ġfebrero":2584,"para":2585,"Ã©l":2586,"preguntÃ³":2587,"Ġpresidente":2588,"Ġmiembro":2589,"ĠpÃºblico":2590,"ĠDO":2591,"Ġta":2592,"Ġhaciendo":2593,"Ġhemos":2594,"iere":2595,"rico":2596,"Ġsalir":2597,"orme":2598,"Ġpuso":2599,"Ġsimple":2600,"dÃŃ":2601,"Ġminutos":2602,"Ġgolpe":2603,"iza":2604,"Ġhermano":2605,"istro":2606,"Ġav":2607,"Ġseguro":2608,"Ar":2609,"Ġperio":2610,"eas":2611,"Ġjuego":2612,"uelo":2613,"Ġtomar":2614,"Ġambos":2615,"Ġsir":2616,"esto":2617,"Ġcondu":2618,"Ġinstal":2619,"....":2620,"Ġpen":2621,"Ġimag":2622,"Ġsepar":2623,"Ġencima":2624,"rin":2625,"lb":2626,"Ġpensar":2627,"ĠMin":2628,"Ġcri":2629,"Ġenfr":2630,"tencia":2631,"201":2632,"Ġtecn":2633,"Ġiden":2634,"cios":2635,"zada":2636,"Ġfre":2637,"Ġconocido":2638,"Ġmesa":2639,"dez":2640,"ĠdifÃŃ":2641,"esiÃ³n":2642,"Ġur":2643,"Ġtam":2644,"ĠEuropeo":2645,"ĠquedÃ³":2646,"14":2647,"Ġapre":2648,"riendo":2649,"Esto":2650,"Ġesas":2651,"Ġalta":2652,"Ġelem":2653,"Ġhon":2654,"Ġsitio":2655,"Ġquiero":2656,"grÃ¡":2657,"Ġfel":2658,"bur":2659,"Ġagosto":2660,"13":2661,"mÃ¡n":2662,"Ġrelig":2663,"itÃ©":2664,"tarse":2665,"Ġfalta":2666,"Ġsangre":2667,"Ġconci":2668,"ĠMu":2669,"ĠposiciÃ³n":2670,"Ġinternacional":2671,"Ġinterpre":2672,"Ġactividades":2673,"Ġpreocup":2674,"Ġllamado":2675,"Ġcalidad":2676,"ko":2677,"Ġefecto":2678,"tiene":2679,"Ġobjetivo":2680,"Ġdestac":2681,"ĠdejÃ³":2682,"Ġllevar":2683,"ĠUna":2684,"viera":2685,"ĠcomenzÃ³":2686,"uniden":2687,"turo":2688,"ban":2689,"Ġconvir":2690,"Ġasist":2691,"Ġejecu":2692,"ĠenseÃ±":2693,"ĠEx":2694,"ĠNa":2695,"ificaciÃ³n":2696,"teriormente":2697,"bios":2698,"ĠFrancia":2699,"gon":2700,"AsÃŃ":2701,"chÃ³":2702,"omin":2703,"gular":2704,"Ġseis":2705,"Ġbal":2706,"Ġclase":2707,"Ġsiguientes":2708,"Ġsex":2709,"//":2710,"Ġcla":2711,"Ġgracias":2712,"Ġanterior":2713,"Ġamigo":2714,"Com":2715,"Ġfa":2716,"Ġimpres":2717,"Ġhaya":2718,"fa":2719,"ĠIntern":2720,"Ġnecesario":2721,"Ġcabal":2722,"ice":2723,"Ġjef":2724,"ĠfÃ¡cil":2725,"ĠMÃ©xico":2726,"dimiento":2727,"Ġresto":2728,"oro":2729,"Ġmovimiento":2730,"Ġauto":2731,"gÃ³":2732,"Ġbene":2733,"Ġdolor":2734,"iana":2735,"Ġnecesit":2736,"Ġasoci":2737,"Ġsociedad":2738,"ĠRa":2739,"Ġestudio":2740,"Ġprimeros":2741,"Ġvir":2742,"ki":2743,"Ġobras":2744,"Ġsolici":2745,"Bu":2746,"tÃŃn":2747,"erva":2748,"Ġpudo":2749,"Ġrefle":2750,"Ġ24":2751,"si":2752,"lbum":2753,"lÃ¡":2754,"Ġindivid":2755,"ĠmÃºsica":2756,"Ġclaro":2757,"Ġhija":2758,"ĠGob":2759,"arias":2760,"Ġcreo":2761,"Ġmedida":2762,"Ġsilencio":2763,"Ya":2764,"poco":2765,"Ġoper":2766,"ĠPol":2767,"SegÃºn":2768,"Ġguar":2769,"ete":2770,"Ġconce":2771,"ger":2772,"omÃŃa":2773,"ĠSoci":2774,"Ġtema":2775,"ĠtenÃŃan":2776,"Ġmanten":2777,"Â²":2778,"Ġvas":2779,"tamiento":2780,"ttp":2781,"adres":2782,"ĠHo":2783,"Ġmedios":2784,"ĠÃ¡lbum":2785,"Ġmedia":2786,"Ġcomien":2787,"ĠpelÃŃcula":2788,"Ġestadouniden":2789,"Ġesca":2790,"alizaciÃ³n":2791,"Ġmol":2792,"://":2793,"Ġtemporada":2794,"ĠGener":2795,"Ġgrupos":2796,"ribun":2797,"ork":2798,"ĠNueva":2799,"Ġ22":2800,"lÃ©s":2801,"Ġesfuer":2802,"Ġambi":2803,"ĠpasÃ³":2804,"Ġnuevos":2805,"ĠÃºnica":2806,"ĠperÃŃo":2807,"via":2808,"Ġrespuesta":2809,"Ġsuficiente":2810,"dal":2811,"Ġtel":2812,"Ġsuperior":2813,"Ġarro":2814,"30":2815,"Ġextre":2816,"tiendo":2817,"ibles":2818,"ĠJosÃ©":2819,"tbol":2820,"dra":2821,"Ġapoyo":2822,"Ġnuevas":2823,"deo":2824,"Ġbeb":2825,"ciden":2826,"yÃ³":2827,"Ġsuperfici":2828,"ferencia":2829,"Ġpuntos":2830,"Ġcasos":2831,"ecido":2832,"dan":2833,"Ġnum":2834,"Ġcuad":2835,"rada":2836,"ĠdebÃŃa":2837,"cÃŃa":2838,"ĠacciÃ³n":2839,"Ġpier":2840,"terna":2841,"Ġgaran":2842,"Ġhomb":2843,"ĠprÃ³":2844,"Ġsoy":2845,"Ġpriv":2846,"Ġmetros":2847,"Ġprincipales":2848,"ĠÃ©xito":2849,"arle":2850,"Ġsabe":2851,"ĠPresidente":2852,"Ġevitar":2853,"Ġfrecu":2854,"Ġcoo":2855,"Ġespacio":2856,"mania":2857,"izÃ¡":2858,"Ġmoder":2859,"Ġpolic":2860,"teriores":2861,"Ġcama":2862,"rito":2863,"Te":2864,"trodu":2865,"alu":2866,"acil":2867,"ĠNe":2868,"Ġquiere":2869,"itario":2870,"ĠTh":2871,"ancias":2872,"OM":2873,"ĠatrÃ¡s":2874,"manas":2875,"ieran":2876,"ĠÃ³r":2877,"ĠJes":2878,"ĠinterÃ©s":2879,"Ġimportantes":2880,"Ġactual":2881,"ĠMadrid":2882,"ĠenergÃŃa":2883,"Ġfuerzas":2884,"Ġacerca":2885,"Ġvesti":2886,"Ġrelacion":2887,"Ġtre":2888,".,":2889,"Ġmantener":2890,"Ġcausa":2891,"Ġtir":2892,"Ġsiquiera":2893,"Ġdeben":2894,"od":2895,"rando":2896,"ĠconstrucciÃ³n":2897,"ame":2898,"zquier":2899,"ĠcrÃŃ":2900,"AL":2901,"eso":2902,"ĠFe":2903,"Ġcivil":2904,"DO":2905,"turales":2906,"Ġdelante":2907,"Ġestudios":2908,"Ġestruc":2909,"bles":2910,"idamente":2911,"jado":2912,"Ġlig":2913,"Ġespecialmente":2914,"Ġconcl":2915,"americ":2916,"Ġcontac":2917,"Ġdiez":2918,"Ġingres":2919,"tadas":2920,"Ġ%":2921,"ĠquiÃ©n":2922,"Ġgen":2923,"Ġtur":2924,"ĠCE":2925,"Ġ(\"":2926,"entemente":2927,"itado":2928,"ĠDirec":2929,"pular":2930,"cidad":2931,"ecÃŃa":2932,"bal":2933,"amientos":2934,"ĠYa":2935,"illas":2936,"Ġindepen":2937,"Ġbrazos":2938,"ĠMarÃŃa":2939,"Ġcargo":2940,"Ġpresencia":2941,"Ġcoche":2942,"Ġhacerlo":2943,"del":2944,"ĠAd":2945,"Ġduda":2946,"rimon":2947,"edes":2948,"Ġsenci":2949,"ical":2950,"Ġsorpren":2951,"Pro":2952,"Ġmanif":2953,"lecciÃ³n":2954,"Ġresultado":2955,"ĠdecisiÃ³n":2956,"Ġcamp":2957,"cando":2958,"ph":2959,"Ġcomb":2960,"ĠÃºltimos":2961,"Ġhos":2962,"cra":2963,"culos":2964,"Ġconven":2965,"Ġfac":2966,"Ġprovo":2967,"Ġbanda":2968,"Ã©ndose":2969,"Ġ23":2970,"fac":2971,"Ġimportancia":2972,"unta":2973,"Ġconsigu":2974,"Ġvan":2975,"emen":2976,"ĠahÃŃ":2977,"âĢĿ.":2978,"Ġlocal":2979,"ires":2980,"Ġpose":2981,"25":2982,"imientos":2983,"Ġcarrera":2984,"Ġarch":2985,"Ġamigos":2986,"ĠdifÃŃcil":2987,"ĠÃ©ste":2988,"Ġdestru":2989,"Ġarm":2990,"Ġsupon":2991,"ĠII":2992,"ĠSh":2993,"clam":2994,"Ġaproxim":2995,"Ġenter":2996,"Ġmenci":2997,"aya":2998,"Po":2999,"Ġhumanos":3000,"Ġrecor":3001,"Ġfuturo":3002,"Ġvuelta":3003,"venes":3004,"be":3005,"Ãĥ":3006,"Ġestra":3007,"Ġmente":3008,"Ten":3009,"ciales":3010,"ĠinglÃ©s":3011,"Ġsemana":3012,"ler":3013,"Ã©ndo":3014,"ÃŃfico":3015,"Ġdepen":3016,"ĠPre":3017,"ye":3018,"Ġorigen":3019,"Ġbel":3020,"Ġopin":3021,"Ġrespe":3022,"Ġnecesidad":3023,"Ġdemos":3024,"Ã³venes":3025,"05":3026,"Ġsonrisa":3027,"iamente":3028,"ĠdÃ©":3029,"Ġvic":3030,"Ġdetal":3031,"ĠniÃ±o":3032,"Ġescal":3033,"Ġconserv":3034,"Ġizquier":3035,"are":3036,"ĠGeneral":3037,"Ġcient":3038,"Ġretir":3039,"cepciÃ³n":3040,"Ġfron":3041,"itud":3042,"Ġactividad":3043,"Ġcapacidad":3044,"rios":3045,"Entre":3046,"Ġfirm":3047,"Ġventa":3048,"pl":3049,"crip":3050,"Ġenem":3051,"Ġthe":3052,"ĠgÃ©n":3053,"undo":3054,"titud":3055,"Ġorient":3056,"Ġ<":3057,"Ġintrodu":3058,"Ġevi":3059,"Ġmenor":3060,"itaria":3061,"pol":3062,"Ġpiel":3063,"Ġsist":3064,"dientes":3065,"Ġentrada":3066,"Âº":3067,"Ġfondo":3068,"Ġetc":3069,"ĠperÃŃodo":3070,"Ġries":3071,"Ġinforme":3072,"Ġsolu":3073,"ĠPara":3074,"Ġprofesional":3075,"Ġprovincia":3076,"âĢľ":3077,"Ġfundam":3078,"ÃŃritu":3079,"Ġrode":3080,"Ã³vil":3081,"ĠtÃŃtulo":3082,"Ġoc":3083,"Ġconjunto":3084,"Ġcelebr":3085,"Ġespal":3086,"Ġexperiencia":3087,"Ġsola":3088,"ack":3089,"one":3090,"uales":3091,"ĠjÃ³venes":3092,"Ġvein":3093,"Ġamena":3094,"dieron":3095,"gentina":3096,"gue":3097,"ĠdetrÃ¡s":3098,"iles":3099,"Ġaprob":3100,"Ġmiedo":3101,"Ġacceso":3102,"ley":3103,"Ġviaje":3104,"ĠfÃŃs":3105,"Ġquienes":3106,"cciones":3107,"Ġfru":3108,"uesto":3109,"ĠSanta":3110,"leo":3111,"Ġincor":3112,"ĠprotecciÃ³n":3113,"ĠdÃ©c":3114,"Ġmonta":3115,"Tras":3116,"Ġpadres":3117,"Ġcantidad":3118,"Ġtenemos":3119,"ff":3120,"uestra":3121,"uerto":3122,"ĠsentÃŃa":3123,"Ġabsolu":3124,"Ġ28":3125,"itÃ³":3126,"rÃ¡n":3127,"Ġmodific":3128,"Ġrelativa":3129,"Ã³l":3130,"ĠallÃ¡":3131,"Ġconocer":3132,"trimon":3133,"mor":3134,"Ġambiente":3135,"riba":3136,"Ġvolun":3137,"Ġadi":3138,"Hay":3139,"Ġentrar":3140,"Ġelev":3141,"OR":3142,"jero":3143,"Ġsom":3144,"lado":3145,"onte":3146,"lares":3147,"Ġdirector":3148,"itor":3149,"elas":3150,"ĠcreaciÃ³n":3151,"Ġestuvo":3152,"ram":3153,"Ġdesarroll":3154,"Ġcolabor":3155,"caba":3156,"BA":3157,"Ġconsul":3158,"Ġisla":3159,"Ã©tica":3160,"uls":3161,"Ġgrab":3162,"ximo":3163,"Ġsatis":3164,"Ġprome":3165,"ÃŃsticas":3166,"Ġcapit":3167,"Ġ21":3168,"tida":3169,"tÃŃa":3170,"cÃ©s":3171,"raba":3172,"vas":3173,"Ġenferme":3174,"Ġrecursos":3175,"ĠHa":3176,"Ġderro":3177,"Ġproteg":3178,"Ġpodemos":3179,"Ġoficial":3180,"Ġexig":3181,"plic":3182,"Ġpelo":3183,"Ġdisf":3184,"vol":3185,"22":3186,"Ġ27":3187,"ĠeducaciÃ³n":3188,"Ġmateria":3189,"Ġequ":3190,"ace":3191,"Ġnav":3192,"Ġprogramas":3193,"Ġbuscar":3194,"Ġvivir":3195,"Ġanunci":3196,"Ġimagen":3197,"Ġmarco":3198,"Ex":3199,"ĠcuestiÃ³n":3200,"Ġobjeto":3201,"llas":3202,"cados":3203,"ĠorganizaciÃ³n":3204,"jeros":3205,"Ġpaz":3206,"ĠCrist":3207,"iero":3208,"Ġprincipios":3209,"ciente":3210,"Ġapenas":3211,"abe":3212,"Ġcomba":3213,"nes":3214,"Ġpien":3215,"Ġnar":3216,"Ġlec":3217,"IN":3218,"lin":3219,"Ġreac":3220,"Ġlucha":3221,"ĠSeÃ±or":3222,"rup":3223,"port":3224,"ĠcompaÃ±ÃŃa":3225,"ribunal":3226,"Ġ26":3227,"Ġpueda":3228,"Ġlabios":3229,"Ġcapaz":3230,"cepto":3231,"ionales":3232,"Ġestilo":3233,"Ã¡cter":3234,"li":3235,"mul":3236,"ĠejÃ©rcito":3237,"Ġblanco":3238,"omas":3239,"Ġlejos":3240,"âĢĿ,":3241,"tales":3242,"adu":3243,"Ġinflu":3244,"Ġfab":3245,"metros":3246,"ĠÃ¡rbol":3247,"cida":3248,"Ġlista":3249,"Ġresultados":3250,"ang":3251,"quis":3252,"ĠAlemania":3253,"Ġ2011":3254,"Ġproyectos":3255,"ĠGobierno":3256,"ĠRec":3257,"Ġrecom":3258,"ĠMundi":3259,"Ġrelaciones":3260,"Ġvelo":3261,"col":3262,"Ġsimil":3263,"lio":3264,"Ġ2000":3265,"Ġmulti":3266,"Ġnumeros":3267,"23":3268,"Ġllegado":3269,"iro":3270,"ly":3271,"land":3272,"24":3273,"Ġ29":3274,"Ġbos":3275,"inÃ³":3276,"Ġras":3277,"Ġedificio":3278,"Ġfuego":3279,"ĠpolicÃŃa":3280,"Ġdistancia":3281,"ĠHe":3282,"ilidades":3283,"Ġolvid":3284,"ĠcarÃ¡cter":3285,"Ġarte":3286,"ivos":3287,"ĠseÃ±ora":3288,"Re":3289,"ĠexpresiÃ³n":3290,"ĠPrim":3291,"Ġpregunta":3292,"zaba":3293,"Ġjefe":3294,"Ġtercer":3295,"Ġindustri":3296,"Ġsociales":3297,"ÃŃstica":3298,"arÃ¡n":3299,"dados":3300,"www":3301,"Ġsuperficie":3302,"lante":3303,"ĠAires":3304,"Ġllevaba":3305,"zan":3306,"Ġlegis":3307,"ĠTer":3308,"entas":3309,"ĠJohn":3310,"venciÃ³n":3311,"ĠcanciÃ³n":3312,"Ġquin":3313,"Ġgobern":3314,"talia":3315,"ĠSr":3316,"tina":3317,"ila":3318,"Ġnoti":3319,"ficios":3320,"Ġpies":3321,"Ġestadounidense":3322,"ĠGar":3323,"Ġexcl":3324,"rÃ©":3325,"crib":3326,"ick":3327,"Ġtampoco":3328,"Ġnuestras":3329,"Ġ<<":3330,"26":3331,"rados":3332,"Ġvoy":3333,"ĠHar":3334,"zando":3335,"ĠPal":3336,"Ġincre":3337,"Sus":3338,"Ġmensa":3339,"Ġmit":3340,"imen":3341,"ioso":3342,"amÃ¡s":3343,"ĠBer":3344,"Par":3345,"\")":3346,"Ãĵ":3347,"Ġamar":3348,"ĠdÃ³nde":3349,"ĠempezÃ³":3350,"ĠYork":3351,"ĠMundial":3352,"____":3353,"iu":3354,"Ġtitu":3355,"Ġexac":3356,"iel":3357,"fe":3358,"Ġon":3359,"Ġred":3360,"yos":3361,"Ġfrances":3362,"Ġconvers":3363,"Ġnacionales":3364,"Ġdoctor":3365,"Ġ:":3366,"dios":3367,"reas":3368,"Ġesposa":3369,"Ġlibertad":3370,"ianza":3371,"arca":3372,"Ġgo":3373,"ĠpreguntÃ³":3374,"Ġcielo":3375,"Ġllamada":3376,"EstÃ¡":3377,"ĠaÃ±ad":3378,"ĠHer":3379,"Ġfoto":3380,"ĠReino":3381,"Ġimpos":3382,"Ġrepar":3383,"ĠversiÃ³n":3384,"Ġcateg":3385,"Ella":3386,"dar":3387,"Ġbaja":3388,"Ġtus":3389,"Ġdispar":3390,"ĠpolÃŃtico":3391,"Ġocul":3392,"Ġbrazo":3393,"ĠHabÃŃa":3394,"ĠhistÃ³":3395,"Ġresist":3396,"Ġclub":3397,"ĠMor":3398,"Ġnombr":3399,"Ġfinales":3400,"genes":3401,"Ġnaturaleza":3402,"ĠPla":3403,"ĠAb":3404,"tino":3405,"isis":3406,"gust":3407,"Ġbre":3408,"ĠpolÃŃticas":3409,"estr":3410,"ĠThe":3411,"Ġsuje":3412,"lad":3413,"ĠCarlos":3414,"Ġmencion":3415,"Ġdic":3416,"Ġoro":3417,"Ġrealmente":3418,"ĠllevÃ³":3419,"ĠAu":3420,"vos":3421,"bito":3422,"eran":3423,"Ġdesemp":3424,"dica":3425,"Mar":3426,"Ġvino":3427,"Ġpermite":3428,"Ġexam":3429,"Ġrecog":3430,"Ġfir":3431,"ĠÃ¡rea":3432,"Ha":3433,"Ġsigue":3434,"trÃ³n":3435,"tia":3436,"Ã¡tico":3437,"Ġterritorio":3438,"EL":3439,"Ġ2012":3440,"Ã¡ndole":3441,"Ġalim":3442,"riente":3443,"grafÃŃa":3444,"ablo":3445,"Ġconcent":3446,"Ġens":3447,"Ġlimp":3448,"just":3449,"Ġsust":3450,"Ġfer":3451,"Ġveh":3452,"erte":3453,"Ġnega":3454,"Ġarreg":3455,"iber":3456,"ĠBol":3457,"The":3458,"Ġmundi":3459,"trÃ³":3460,"ĠGuerra":3461,"50":3462,"Ġconseguir":3463,"ĠAmÃ©rica":3464,"rez":3465,"Pue":3466,"Ġposibilidad":3467,"ĠSus":3468,"Ġcuya":3469,"ĠDer":3470,"Ġfecha":3471,"ardo":3472,"Ġpropuesta":3473,"Ġnie":3474,"Ġcuyo":3475,"Ġcuarto":3476,"taban":3477,"Ġdemo":3478,"Ġconoc":3479,"28":3480,"ÃŃm":3481,"Entonces":3482,"Ġtales":3483,"ner":3484,"ĠtÃ©rm":3485,"Ġmitad":3486,"Ġ2008":3487,"Ġital":3488,"arÃ©":3489,"Ġfan":3490,"Ġpudiera":3491,"ĠVer":3492,"ticamente":3493,"Ġpocos":3494,"partamento":3495,"Ġgal":3496,"cera":3497,"Ġadecu":3498,"Ġsignific":3499,"Ġraz":3500,"Ġencuentran":3501,"zaron":3502,"Ġpaci":3503,"Ġtrabajar":3504,"Ġmismos":3505,"dap":3506,"ines":3507,"greso":3508,"Ġdesper":3509,"Ġmez":3510,"ĠÃīl":3511,"Ãį":3512,"Ġabajo":3513,"edro":3514,"Ġfacil":3515,"Ġiglesia":3516,"ĠmÃ©to":3517,"27":3518,"mio":3519,"Ġarriba":3520,"Ġ2009":3521,"uri":3522,"ĠRos":3523,"ĠQue":3524,"ĠComitÃ©":3525,"Ãºtbol":3526,"ĠComun":3527,"ĠSol":3528,"Ġep":3529,"Ġcentral":3530,"entÃ³":3531,"Ġbur":3532,"Ġpromo":3533,"Ġsala":3534,"rer":3535,"Ġcarre":3536,"Ġzonas":3537,"Ġdistribu":3538,"ĠlevantÃ³":3539,"acia":3540,"Ġazul":3541,"viv":3542,"Ġton":3543,"Ġdiscu":3544,"ĠRob":3545,"IS":3546,"Ġarmas":3547,"Ġsupuesto":3548,"ĠFrancis":3549,"Ġmuerto":3550,"Ġregist":3551,"Ã©f":3552,"04":3553,"ĠgÃ©nero":3554,"Ġfinalmente":3555,"Ġtrabajadores":3556,"Ġtransform":3557,"Ġsentir":3558,"Ġfort":3559,"iosa":3560,"trimonio":3561,"Ġperder":3562,"ĠdecÃŃa":3563,"Ġaspecto":3564,"Ġsegura":3565,"Ġcirc":3566,"Ġpobre":3567,"Ġformas":3568,"Ġtransporte":3569,"Ġasunto":3570,"tillo":3571,"Ġpartici":3572,"ĠsaliÃ³":3573,"Ġhal":3574,"Ġdaba":3575,"sidad":3576,"Ġcontrario":3577,"Ġemo":3578,"cada":3579,"ĠIglesia":3580,"ĠcomunicaciÃ³n":3581,"Ġexiste":3582,"rag":3583,"ĠReglamento":3584,"ĠCl":3585,"Ġpreten":3586,"Ġ2007":3587,"rÃ³n":3588,"peona":3589,"ĠcooperaciÃ³n":3590,"Ġnegro":3591,"Ġcel":3592,"val":3593,"ĠTratado":3594,"Ġlleva":3595,"Ġadap":3596,"Ġcome":3597,"Aunque":3598,"laciÃ³n":3599,"Ġsistemas":3600,"Ġinicia":3601,"ĠMal":3602,"lores":3603,"eor":3604,"ies":3605,"gada":3606,"Ġlibros":3607,"Ġviejo":3608,"21":3609,"emente":3610,"ĠparticipaciÃ³n":3611,"29":3612,"ĠXV":3613,"ĠDeci":3614,"ham":3615,"ĠabriÃ³":3616,"ĠDan":3617,"Ġinfer":3618,"ĠBan":3619,"Ġdisco":3620,"Ġconvertir":3621,"ik":3622,"Ġmejores":3623,"ĠmÃ©dico":3624,"Ã¡lisis":3625,"asa":3626,"Ġestamos":3627,"izar":3628,"Ġmec":3629,"Ġrealizar":3630,"uros":3631,".)":3632,"terÃŃa":3633,"ĠdeberÃŃa":3634,"Ġ2013":3635,"ins":3636,"rus":3637,"Ġunivers":3638,"Ġ2014":3639,"Ġhubi":3640,"Ġproces":3641,"tus":3642,"Ġadelante":3643,"isterio":3644,"ĠÃ¡n":3645,"ĠLuis":3646,"Ġencan":3647,"Ġelim":3648,"Ġdeseo":3649,"ĠeconÃ³mica":3650,"Ġpec":3651,"ĠfrancÃ©s":3652,"Ġcontar":3653,"ĠAhora":3654,"Ġmenudo":3655,"Ġempleo":3656,"ĠAnton":3657,"Ġlabor":3658,"198":3659,"Ġhacen":3660,"ĠestÃ¡s":3661,"Ġextran":3662,"dem":3663,"rac":3664,"Ġescuela":3665,"Ġ/":3666,"Ġobtener":3667,"Ġgaranti":3668,"Ġtienes":3669,"âĢ¢":3670,"Ġsec":3671,"Ġcarta":3672,"ilar":3673,"ĠbritÃ¡n":3674,"Ġintegr":3675,"dicos":3676,"Ġpopular":3677,"Ġdise":3678,"03":3679,"Ġobstante":3680,"Mi":3681,"iencias":3682,"Ġindustria":3683,"Ġespecies":3684,"Ġanimales":3685,"Ġprueba":3686,"Ġapartado":3687,"jada":3688,"Ġpresu":3689,"Ġcontacto":3690,"acto":3691,"Ġelementos":3692,"Ġacciones":3693,"ĠComo":3694,"drÃŃa":3695,"ĠtelevisiÃ³n":3696,"Ġderecha":3697,"Ġpermitir":3698,"DA":3699,"Ġmadera":3700,"ĠNorte":3701,"Ġayudar":3702,"Ġmaes":3703,"Mu":3704,"Ġlocalidad":3705,"Ġresta":3706,"Ġdejado":3707,"Ġvari":3708,"ĠfunciÃ³n":3709,"Ãīl":3710,"tim":3711,"Ġcontes":3712,"Ãºa":3713,"enn":3714,"onales":3715,"telig":3716,"Ġsum":3717,"Algun":3718,"vela":3719,"Ġcomunidad":3720,"ecen":3721,"Ġelabor":3722,"table":3723,"ĠItalia":3724,"didos":3725,"Ġdisfru":3726,"Ġcay":3727,"Ġrecuper":3728,"reno":3729,"Ã©g":3730,"Ġmodelo":3731,"ĠArgentina":3732,"idencia":3733,"Ġcompleto":3734,"Ġestim":3735,"bel":3736,"Ġrecibir":3737,"ĠvehÃŃcu":3738,"Ġ100":3739,"ĠSer":3740,"Ġimpor":3741,"ĠconvirtiÃ³":3742,"usa":3743,"ĠÃ³":3744,"tarÃŃa":3745,"Ġplata":3746,"stico":3747,"Ġoportunidad":3748,"ane":3749,"ple":3750,"Eso":3751,"ĠtomÃ³":3752,"Ġment":3753,"erdos":3754,"Ch":3755,"yas":3756,"Ġproporcion":3757,"ĠQ":3758,"Ġmarcha":3759,"Ġtono":3760,"Ã©m":3761,"Ġencontraba":3762,"Ġpris":3763,"Ġjur":3764,"Ġhermana":3765,"migo":3766,"Ġdebajo":3767,"Ġeres":3768,"Ġcog":3769,"ĠAust":3770,"Ġefectos":3771,"Ġast":3772,"pres":3773,"didas":3774,"fÃ©":3775,"Ahora":3776,"Ġbatalla":3777,"icidad":3778,"Ġdiferencia":3779,"Ġcrear":3780,"Ġglo":3781,"Ġhistor":3782,"Ġsiete":3783,"TA":3784,"inta":3785,"Ġcort":3786,"Ġidentific":3787,"Ġinstante":3788,"Ġdirectamente":3789,"Ġconsum":3790,"Ġcuel":3791,"ĠgestiÃ³n":3792,"Ġpul":3793,"Era":3794,"Ġaut":3795,"Ġ2006":3796,"ĠVen":3797,"ĠtelÃ©f":3798,"Ġautoridades":3799,"Ġmuestra":3800,"Ġofrece":3801,"Ġconocimiento":3802,"Ġrespec":3803,"Ġinver":3804,"ĠParÃŃs":3805,"ft":3806,"Ġcompletamente":3807,"Ġqueda":3808,"Ġhotel":3809,"dice":3810,"Ġdig":3811,"Ġizquierda":3812,"Ġcoloc":3813,"Ġlugares":3814,"Ġvin":3815,"manos":3816,"tividad":3817,"ecre":3818,"Ġ31":3819,"Ġkil":3820,"cla":3821,"ĠJesÃºs":3822,"Ġ2015":3823,"amb":3824,"celona":3825,"ĠtÃ©rmino":3826,"tigo":3827,"Ġcaer":3828,"ĠFern":3829,"ÃĵN":3830,"Ġciudades":3831,"Ġrecono":3832,"Ġproducto":3833,"Ġgir":3834,"ĠIng":3835,"ficul":3836,"udas":3837,"ĠpÃºblica":3838,"Ġantiguo":3839,"Ġconcre":3840,"ĠÃŃn":3841,"ensiÃ³n":3842,"Ġincorpor":3843,"Mientras":3844,"Ġdificul":3845,"Ġmaterial":3846,"ĠprÃ¡ctica":3847,"ĠOfici":3848,"Ġtama":3849,"Ġguard":3850,"bil":3851,"Ġusu":3852,"ĠpequeÃ±os":3853,"Ġtradici":3854,"ĠSur":3855,"Ġsuerte":3856,"RE":3857,"mur":3858,"log":3859,"Ġveci":3860,"Ġtemas":3861,"ĠMer":3862,"osiciÃ³n":3863,"Ġtab":3864,"ondres":3865,"Ġaltura":3866,"ĠestaciÃ³n":3867,"Ġido":3868,"Ġprecios":3869,"Ġejerci":3870,"Ġabrir":3871,"Ġdeman":3872,"Ġrecha":3873,"ĠopiniÃ³n":3874,"Ġ50":3875,"ĠdecidiÃ³":3876,"ĠGre":3877,"Ġllama":3878,"ĠrÃ¡pidamente":3879,"seo":3880,"RO":3881,"Ġocu":3882,"Ġdesarrol":3883,"Ġespalda":3884,"ramos":3885,"Ġoriginal":3886,"Ġescrito":3887,"Ġocho":3888,"Ġsoldados":3889,"Ġmotivo":3890,"ĠPedro":3891,"xima":3892,"Ġafirm":3893,"cidos":3894,"vaciÃ³n":3895,"Ġjusto":3896,"vech":3897,"Ġmone":3898,"hu":3899,"Ġagra":3900,"Ġcircun":3901,"iados":3902,"Ġexistencia":3903,"adÃ¡":3904,"Ġrelativo":3905,"TE":3906,"ĠElla":3907,"itivo":3908,"ĠEsp":3909,"Ġlarga":3910,"Ġbueno":3911,"cus":3912,"quitec":3913,"Ġacos":3914,"han":3915,"Ġequipos":3916,"curso":3917,"Ġ'":3918,"Ġhonor":3919,"ĠTribunal":3920,"diciÃ³n":3921,"ĠBel":3922,"Ġcine":3923,"Del":3924,"ĠocasiÃ³n":3925,"uno":3926,"Ġevalu":3927,"ĠGo":3928,"gri":3929,"ĠoÃŃdo":3930,"ĠsintiÃ³":3931,"tiles":3932,"Ġpiedra":3933,"Ã©gimen":3934,"Ġdicha":3935,"ribuy":3936,"Ġescuch":3937,"Ġhermos":3938,"ular":3939,"ht":3940,"Ġcrecimiento":3941,"Ġdan":3942,"Ġconmigo":3943,"Ġprom":3944,"Ġtexto":3945,"later":3946,"Ġnormas":3947,"ĠInternacional":3948,"Ġdedos":3949,"Ġregiones":3950,"Ġpartidos":3951,"ĠjamÃ¡s":3952,"ĠrecibiÃ³":3953,"quina":3954,"Ã¡tica":3955,"Ġjard":3956,"Ġhier":3957,"torios":3958,"Ġalcanzar":3959,"ĠdÃ©cada":3960,"Ġfues":3961,"III":3962,"alizar":3963,"vent":3964,"ĠFrancisco":3965,"ĠTor":3966,"Reg":3967,"Ġsemanas":3968,"posiciÃ³n":3969,"ĠJust":3970,"rump":3971,"osotros":3972,"Ġmundial":3973,"Ġgesto":3974,"Ġtipos":3975,"ĠseguÃŃa":3976,"ianos":3977,"Ġdespe":3978,"Ġnerv":3979,"ĠAsÃŃ":3980,"ĠmÃŃn":3981,"ĠDirectiva":3982,"frica":3983,"ĠInstitu":3984,"tÃŃculos":3985,"enes":3986,"ĠTa":3987,"Ġentender":3988,"rad":3989,"ĠpensÃ³":3990,"ibilidad":3991,"ĠperiÃ³":3992,"Ġequiv":3993,"aro":3994,"ĠDespuÃ©s":3995,"eja":3996,"ĠLondres":3997,"Ġexterior":3998,"Ġcultura":3999,"tumb":4000,"Ġpecho":4001,"Ġbes":4002,"Ġlocales":4003,"dentes":4004,"ĠUE":4005,"Ġenfrent":4006,"Ġconoce":4007,"tiz":4008,"Ġcarne":4009,"Ġprincipalmente":4010,"Ġjuntos":4011,"Ġriesgo":4012,"mer":4013,"Ġtum":4014,"ĠÃ©sta":4015,"ismos":4016,"Ġradio":4017,"Ġinmedia":4018,"ĠTierra":4019,"ĠVic":4020,"Ġsiento":4021,"Ġaguas":4022,"cidente":4023,"Ġestad":4024,"Ġplazo":4025,"ĠChile":4026,"Ġhumano":4027,"Ġcaball":4028,"Ġconden":4029,"racias":4030,"http":4031,"ĠDav":4032,"emenino":4033,"umen":4034,"mite":4035,"Ġpeso":4036,"Ġconform":4037,"ĠUnido":4038,"ĠAc":4039,"Ġreferencia":4040,".\"":4041,"Ġplante":4042,"mbito":4043,"olas":4044,"ty":4045,"Ġestructura":4046,"tantes":4047,"Ġpeligros":4048,"ĠEsta":4049,"Ġfamos":4050,"Ġperdido":4051,"pital":4052,"Ġcocina":4053,"Ġsuces":4054,"rantes":4055,"Ġtier":4056,"Ġdepor":4057,"Ġpodido":4058,"ĠImp":4059,"ĠPas":4060,"lex":4061,"Ġga":4062,"ciendo":4063,"Ġingen":4064,"Ġautom":4065,"ĠEcon":4066,"Ġ2005":4067,"dito":4068,"ws":4069,"Ġcorrec":4070,"Ġtiempos":4071,"Ġsean":4072,"Ġtratar":4073,"Ġocasiones":4074,"Ġvelocidad":4075,"ello":4076,"Ġincon":4077,"ĠcapitÃ¡n":4078,"ĠespÃŃritu":4079,"Ġintelig":4080,"LA":4081,"ise":4082,"Ġacus":4083,"Ġdemostr":4084,"su":4085,"iver":4086,"Ġmatar":4087,"peonato":4088,"xic":4089,"Ġubicado":4090,"ĠestÃ©":4091,"Ġmomentos":4092,"Ġselec":4093,"Ġconsidera":4094,"Ġtrabajos":4095,"Ġcuello":4096,"Ġcambios":4097,"ĠBarcelona":4098,"ĠEstaba":4099,"ĠanÃ¡lisis":4100,"Ã¡mara":4101,"ĠÃ¡mbito":4102,"Ġfigura":4103,"Ġhombros":4104,"Ġhubo":4105,"Ġaudi":4106,"izado":4107,"ĠdÃ³":4108,"ĠpodÃŃan":4109,"Ġsimplemente":4110,"RA":4111,"Ġpasos":4112,"Ġcris":4113,"Ġmarido":4114,"ĠtelÃ©fono":4115,"Ġesperar":4116,"ime":4117,"Ġaquello":4118,"rael":4119,"Ġpros":4120,"taciones":4121,"pera":4122,"triz":4123,"lev":4124,"taria":4125,");":4126,"Ġech":4127,"Ġfij":4128,"Ġpermit":4129,"inada":4130,"ĠDecisiÃ³n":4131,"ĠEste":4132,"Ġguer":4133,"tidos":4134,"TI":4135,"Ġenorme":4136,"Ġprecis":4137,"rieron":4138,"MÃ¡s":4139,"ĠtamaÃ±o":4140,"yn":4141,"deraciÃ³n":4142,"Ġcontribu":4143,"Car":4144,"Ġsosten":4145,"ctores":4146,"Ġdiversos":4147,"Ġobjetivos":4148,"Ġsolamente":4149,"enda":4150,"Ġnegoci":4151,"Ġcomercio":4152,"Ġcompetencia":4153,"Ã³sito":4154,"Ġindividu":4155,"Ġmirando":4156,"Ġcreer":4157,"Ġderi":4158,"ĠrÃ©gimen":4159,"Ġescon":4160,"Ġja":4161,"Ġrevel":4162,"ĠPartido":4163,"Ġreco":4164,"ĠquizÃ¡":4165,"ĠPue":4166,"Ġcomida":4167,"cultura":4168,"Ġdestino":4169,"Ġropa":4170,"Ġdispu":4171,"ĠTu":4172,"ender":4173,"ĠveÃŃa":4174,"Ġcuesti":4175,"Ġentren":4176,"ĠTom":4177,"ker":4178,"ĠFin":4179,"iudad":4180,"Ġsuel":4181,"ĠJa":4182,"Ġtesti":4183,"wn":4184,"Ġcosta":4185,"ĠGal":4186,"Ġencuentro":4187,"Ġconvenci":4188,"Ġplanta":4189,"arte":4190,"Ġabra":4191,"ĠbÃ¡s":4192,"dic":4193,"Ġobten":4194,"ĠRoma":4195,"ĠEj":4196,"Ġtratamiento":4197,"ĠSegu":4198,"ĠcontinuaciÃ³n":4199,"Ġadqui":4200,"Ġpuedes":4201,"Ġfis":4202,"mir":4203,"imismo":4204,"Ġpun":4205,"amento":4206,"Ġmayores":4207,"ĠSte":4208,"Ġpropios":4209,"Ġhogar":4210,"08":4211,"mej":4212,"Ġdivi":4213,"ĠRus":4214,"rible":4215,"Ġconsecuencia":4216,"ĠcampaÃ±a":4217,"tagon":4218,"Ġllor":4219,"digo":4220,"olucion":4221,"Ġrefiere":4222,"gal":4223,"Ġprecio":4224,"idores":4225,"ĠRes":4226,"ĠediciÃ³n":4227,"Ġ$":4228,"Ġantigua":4229,"ister":4230,"ĠDa":4231,"ĠeconomÃŃa":4232,"ju":4233,"teras":4234,"Ġventana":4235,"Ġaun":4236,"Ġactualmente":4237,"ĠLuego":4238,"Ġlimit":4239,"pÃ³":4240,"torno":4241,"ĠentrÃ³":4242,"laz":4243,"Ġcoment":4244,"Ġdeten":4245,"Ġcierta":4246,"ĠOl":4247,"Ġdiv":4248,"Ġinvit":4249,"Ġarquitec":4250,"Ġhall":4251,"ĠDu":4252,"tilla":4253,"Ġsatisfac":4254,"ĠpodrÃ¡":4255,"Ġprocedimiento":4256,"ĠoÃŃr":4257,"gÃ¼":4258,"ĠsensaciÃ³n":4259,"Ġdije":4260,"CO":4261,"adoras":4262,"ĠsonriÃ³":4263,"Ġpropiedad":4264,"Ġataque":4265,"Ġcandida":4266,"Ġrepro":4267,"tarios":4268,"irÃ¡":4269,"Ġtes":4270,"Ġprimeras":4271,"Ġdescan":4272,"ĠXI":4273,"Luego":4274,"Ġcompeti":4275,"Ãī":4276,"ĠCentro":4277,"Ġ2016":4278,"deres":4279,"Ġelecciones":4280,"ĠNi":4281,"Ġcompro":4282,"ĠniÃ±a":4283,"Ġverano":4284,"Ġsomb":4285,"ĠpequeÃ±as":4286,"Ġadministra":4287,"esper":4288,"40":4289,"ĠAntonio":4290,"Ġaliment":4291,"Ġalum":4292,"Ġsustitu":4293,"Ġcontenido":4294,"Ġchica":4295,"orden":4296,"Â´":4297,"remos":4298,"Ġprofesor":4299,"Ġsonido":4300,"Deb":4301,"].":4302,"Ġimposible":4303,"Ġpropie":4304,"ĠreuniÃ³n":4305,"ĠSocial":4306,"Ġ*":4307,"Ġfabric":4308,"dis":4309,"Ã¶":4310,"Ġeta":4311,"Ġtradu":4312,"Ġtotalmente":4313,"anda":4314,"rique":4315,"dÃ³":4316,"ulas":4317,"Ġinstituciones":4318,"Ã©tico":4319,"idor":4320,"Ġjugar":4321,"ĠpÃ©r":4322,"tades":4323,"Ġmatrimonio":4324,"Ġ2004":4325,"ĠsueÃ±o":4326,"llos":4327,"Ġempu":4328,"Ġflu":4329,"Ġaprovech":4330,"erse":4331,"Ġbru":4332,"ĠdiseÃ±":4333,"Ġhicieron":4334,"Ġjud":4335,"Ġbusca":4336,"Ġmara":4337,"CABA":4338,"ull":4339,"inados":4340,"ĠkilÃ³":4341,"ky":4342,"Ġconflic":4343,"Ġcurso":4344,"cidental":4345,"Ġflo":4346,"ĠrÃ¡pido":4347,"Ġincluyendo":4348,"Ġmue":4349,"Ġenfermedad":4350,"Ġcuidado":4351,"resa":4352,"wa":4353,"ÃŃcti":4354,"Ġideas":4355,"uestro":4356,"Ġpreguntas":4357,"ity":4358,"amÃ¡":4359,"cripciÃ³n":4360,"Ġconocida":4361,"Pues":4362,"ĠHab":4363,"Ġparticipar":4364,"ÃŃfica":4365,"Ġ1990":4366,"Ġgar":4367,"sas":4368,"Estos":4369,"Ã³nica":4370,"laterra":4371,"ĠBen":4372,"Ġdesempe":4373,"Ġdescar":4374,"pan":4375,"Ġdul":4376,"Ġmagn":4377,"ĠencontrÃ³":4378,"aces":4379,"ĠcrÃ©":4380,"tinu":4381,"Son":4382,"Ġtraslad":4383,"Ġsosp":4384,"iores":4385,"Ġdoc":4386,"iam":4387,"Ġpeligro":4388,"Ġhermanos":4389,"ĠagrÃŃc":4390,"Ġplantas":4391,"Ġ2001":4392,"Ġcolo":4393,"Ġtex":4394,"Ġencontrado":4395,"Ġbon":4396,"Ġesfuerzo":4397,"ĠartÃŃculos":4398,"Ġdiversas":4399,"90":4400,"ĠAt":4401,"Per":4402,"ĠsiguiÃ³":4403,"Ã¡bamos":4404,"ĠalemÃ¡n":4405,"ĠdirigiÃ³":4406,"atamente":4407,"ÃŃstico":4408,"Ġutilizar":4409,"use":4410,"ĠeconÃ³mico":4411,"etas":4412,"ash":4413,"Ġvoluntad":4414,"ĠDo":4415,"icha":4416,"Ġtoma":4417,"Ġ1999":4418,"ĠEd":4419,"Ġespera":4420,"Ġdiver":4421,"Ġpruebas":4422,"Ġpagar":4423,"Ġverdadera":4424,"culino":4425,"Ġinternacionales":4426,"diatamente":4427,"burgo":4428,"Ġsituado":4429,"Ġgusta":4430,"Ġoeste":4431,"ĠdiseÃ±o":4432,"Ġgrave":4433,"Ġhumana":4434,"ĠJe":4435,"Ġincluye":4436,"ĠvÃŃcti":4437,"Ġrepresenta":4438,"Ġparecer":4439,"ÃŃficos":4440,"sted":4441,"Ġustedes":4442,"ĠDiv":4443,"Ġarras":4444,"grÃŃa":4445,"Ġdefensa":4446,"logo":4447,"94":4448,"alizado":4449,"Ġmirar":4450,"iaciÃ³n":4451,"Hab":4452,"Ġcontemp":4453,"ĠcÃ³":4454,"Ġcomercial":4455,"Ġdiferente":4456,"Ġsome":4457,"Ġsalida":4458,"Res":4459,"Ġarre":4460,"Ġaquellas":4461,"Ġesperaba":4462,"Ġcorte":4463,"ĠfÃºtbol":4464,"bia":4465,"Ġcomprom":4466,"Ġpoten":4467,"olÃ³gico":4468,"Ġviento":4469,"Ġcolec":4470,"Ġtierras":4471,"ĠpÃ¡gina":4472,"Ġcrisis":4473,"Ġhabitu":4474,"Ġpared":4475,"Ġcalor":4476,"Ġexplo":4477,"Ġimper":4478,"Ġcaballo":4479,"Ġran":4480,"Ġnecesidades":4481,"iales":4482,"entamente":4483,"Ġdescri":4484,"sh":4485,"Ġdios":4486,"Ġign":4487,"ĠPat":4488,"rupo":4489,"Ġhubiese":4490,"ĠInglaterra":4491,"ĠmisiÃ³n":4492,"firm":4493,"ĠacercÃ³":4494,"dores":4495,"Ġfras":4496,"ĠXX":4497,"DE":4498,"Ġdescen":4499,"ĠpareciÃ³":4500,"ĠSch":4501,"Ġweb":4502,"QuiÃ©n":4503,"Ġtercera":4504,"Ġmem":4505,"Ġorganizaciones":4506,"erto":4507,"Ã¡ticos":4508,"Ġdibu":4509,"Ġmorir":4510,"clamÃ³":4511,"como":4512,"Ġespi":4513,"Pre":4514,"ix":4515,"ĠpolÃŃticos":4516,"ÃŃp":4517,"ĠCos":4518,"ienda":4519,"Ġfas":4520,"Ġaparece":4521,"cionales":4522,"iblio":4523,"Ġviene":4524,"rasil":4525,"Ġdando":4526,"Ġ40":4527,"Ġpresenta":4528,"Ġcambiar":4529,"Ġdoble":4530,"Ġvamos":4531,"edor":4532,"ĠReal":4533,"eca":4534,"itiva":4535,"Ġdisposiciones":4536,"Ġfuese":4537,"minos":4538,"Ġdistintos":4539,"fon":4540,"ÃŃda":4541,"Ã©ctri":4542,"Ġ1992":4543,"Ġpueblos":4544,"aco":4545,"ciona":4546,"ĠespaÃ±ola":4547,"Ġnu":4548,"ĠelectrÃ³n":4549,"Ġmemoria":4550,"ĠcategorÃŃa":4551,"legio":4552,"ĠRam":4553,"Ġeuropea":4554,"Ġprobablemente":4555,"respondiÃ³":4556,"deral":4557,"ĠCiudad":4558,"ok":4559,"Ġresulta":4560,"Ġbienes":4561,"Ġquieres":4562,"Ġlic":4563,"Ġsurg":4564,"Ġrato":4565,"osos":4566,"ĠOb":4567,"35":4568,"Ġcompon":4569,"guas":4570,"Ġpublicado":4571,"ĠlÃŃneas":4572,"ĠChina":4573,"Ġcarretera":4574,"Ġhechos":4575,"Ġconfirm":4576,"Ġenv":4577,"Ġpropon":4578,"abil":4579,"erop":4580,"Todos":4581,"Ġfon":4582,"fÃŃa":4583,"Ġambas":4584,"Ġ1994":4585,"Ġesenci":4586,"Ã¡ndome":4587,"iguel":4588,"ĠTenÃŃa":4589,"entales":4590,"Ġestrateg":4591,"Ġpeor":4592,"pectos":4593,"Ġestudiantes":4594,"Ġ2002":4595,"Ġps":4596,"Ġdensidad":4597,"fil":4598,"Ġcircunst":4599,"crÃ¡":4600,"hib":4601,"ĠfrÃŃo":4602,"Ġcasas":4603,"Ġcomerci":4604,"Ġdistrito":4605,"Ġhuman":4606,"88":4607,"Ġrepe":4608,"ĠFer":4609,"dÃŃan":4610,"Ġ2003":4611,"Ã©st":4612,"Ġbaj":4613,"Ġpiernas":4614,"Ġpuertas":4615,"ĠMartÃŃn":4616,"Ġhabla":4617,"ĠVir":4618,"uestos":4619,"ĠtecnologÃŃa":4620,"intiÃ³":4621,"ĠintenciÃ³n":4622,"quÃŃa":4623,"02":4624,"Ġestablecer":4625,"ĠBal":4626,"Ġconciencia":4627,"Ġvisita":4628,"iego":4629,"ĠBuenos":4630,"Ġtard":4631,"Ġsede":4632,"ĠMil":4633,"tig":4634,"ĠTodo":4635,"Ġdur":4636,"Ġcaden":4637,"Di":4638,"pal":4639,"ĠWill":4640,"Ġciudadanos":4641,"Ġalar":4642,"len":4643,"unda":4644,"abel":4645,"Ġtropas":4646,"ĠGeor":4647,"tara":4648,"Ġquis":4649,"ivamente":4650,"Ma":4651,"Ġdesarrollar":4652,"ĠcÃ¡l":4653,"Ġestuviera":4654,"Ġtrataba":4655,"pes":4656,"Ġfuente":4657,"Ġmensaje":4658,"Ġdesign":4659,"ĠRey":4660,"........":4661,"ĠDavid":4662,"Ġexperiment":4663,"Ġsegundos":4664,"Ġcorre":4665,"Ġaumento":4666,"amble":4667,"Ġprotagon":4668,"orado":4669,"cipe":4670,"Ġdem":4671,"Ã¡ndola":4672,"ĠmÃŃo":4673,"Ġunidad":4674,"loque":4675,"Ġaus":4676,"ĠdÃ³lares":4677,"leta":4678,"Ġescribir":4679,"ĠcaracterÃŃsticas":4680,"ĠBe":4681,"Ġacto":4682,"Ġ1995":4683,"ĠMay":4684,"Ġmarch":4685,"Ġprefer":4686,"rales":4687,"ĠNav":4688,"Ġconqu":4689,"77":4690,"Ġcondado":4691,"Ġ1996":4692,"He":4693,"gip":4694,"93":4695,"Ã¡ndolo":4696,"Ġaver":4697,"Todo":4698,"Ġdescrib":4699,"Ġdep":4700,"Ġconstante":4701,"Ġpedir":4702,"ert":4703,"Ġmando":4704,"Ġleer":4705,"ĠAunque":4706,"Ġmejorar":4707,"dÃ³n":4708,"km":4709,"Ġterror":4710,"ĠRu":4711,"Ġsabes":4712,"Ġotor":4713,"Ã±ado":4714,"Ġsacerdo":4715,"ĠtÃ©rminos":4716,"Ġadj":4717,"ĠsoluciÃ³n":4718,"Ġesperanza":4719,"umo":4720,"Oh":4721,"Ġfamilias":4722,"Ġinferior":4723,"Ġgrado":4724,"Ġaproximadamente":4725,"iempre":4726,"ruz":4727,"ĠDel":4728,"int":4729,"ĠapareciÃ³":4730,"Ġvolv":4731,"Ġexisten":4732,"manes":4733,"tieron":4734,"Ġhue":4735,"quilib":4736,"Ġreserv":4737,"san":4738,"ĠcafÃ©":4739,"Ġidi":4740,"Ã¡is":4741,"ĠPrimera":4742,"95":4743,"ĠCap":4744,"ĠkilÃ³metros":4745,"mÃ¡genes":4746,"36":4747,"Ġsemej":4748,"??":4749,"Ġano":4750,"Ġdiciendo":4751,"sen":4752,"Ġdesn":4753,"Ġveinte":4754,"mentar":4755,"Ġdismin":4756,"Ġdue":4757,"Ġlog":4758,"itarios":4759,"Ġllega":4760,"ĠPan":4761,"ĠtendrÃŃa":4762,"Ġcic":4763,"teca":4764,"Ġ1998":4765,"ude":4766,"Ġdenom":4767,"cuerdo":4768,"denes":4769,"ĠMag":4770,"ĠFa":4771,"Ġoficiales":4772,"ĠpodrÃŃan":4773,"Ġsencillo":4774,"ĠEso":4775,"Ġrepu":4776,"Ġpuerto":4777,"uelas":4778,"Ġcanciones":4779,"fin":4780,"Ġcoron":4781,"vado":4782,"guay":4783,"ĠLey":4784,"Ġtenga":4785,"Ġagri":4786,"ĠvisiÃ³n":4787,"Ġaten":4788,"Ġtorn":4789,"ĠEntonces":4790,"cturas":4791,"Ġllegada":4792,"descar":4793,"Ġses":4794,"Ġ1993":4795,"apÃ³n":4796,"mitir":4797,"Ġexclus":4798,"Ġregular":4799,"Ġadul":4800,"Ġllen":4801,"Ġniveles":4802,"ĠTal":4803,"echas":4804,"PE":4805,"ĠdiÃ¡":4806,"Ġmad":4807,"Ġvisit":4808,"fre":4809,"Ġhablando":4810,"rarse":4811,"Ġcrim":4812,"tiago":4813,"izada":4814,"Ġlanz":4815,"Ġaconte":4816,"ĠÃ¡rboles":4817,"Estas":4818,"Ġasum":4819,"Ġinfluencia":4820,"jan":4821,"Ġexcel":4822,"Ġterreno":4823,"gencia":4824,"92":4825,"Ġperteneci":4826,"Ġevidente":4827,"Ġrevista":4828,"Ġaspectos":4829,"Ġiban":4830,"ĠSon":4831,"ĠChar":4832,"ĠClub":4833,"Ah":4834,"Ġ\"\"":4835,"terrÃ¡n":4836,"ance":4837,"Ġconfianza":4838,"Ġfamiliar":4839,"Ġpena":4840,"Ġbrill":4841,"illos":4842,"Ġpis":4843,"descartado":4844,"Ġcomprender":4845,"Ġvestido":4846,"amp":4847,"ĠconversaciÃ³n":4848,"ÃŃncipe":4849,"Ġmarca":4850,"Ġusar":4851,"rue":4852,"ĠserÃ¡n":4853,"Ġ1997":4854,"Ġexpe":4855,"Ġclientes":4856,"Ġescla":4857,"96":4858,"Ġllamar":4859,"Ġextremo":4860,"carse":4861,".-":4862,"Ġescuchar":4863,"Ġilum":4864,"ore":4865,"deras":4866,"Ġcalles":4867,"ieza":4868,"Ġinmediatamente":4869,"ĠMat":4870,"So":4871,"Ġajust":4872,"Tiene":4873,"Ġfase":4874,"osas":4875,"ĠSegun":4876,"ĠimÃ¡genes":4877,"Ġtempera":4878,"gica":4879,"Ġingresos":4880,"33":4881,"ĠBrasil":4882,"80":4883,"Ġcontempl":4884,"olver":4885,"rÃŃan":4886,"Ġrecuerdo":4887,"abas":4888,"Ġpronunci":4889,"isp":4890,"Ġverde":4891,"Ġactualidad":4892,"Ġdeja":4893,"Ġdecisiones":4894,"Ġoperaciones":4895,"ĠNic":4896,"Ġcoord":4897,"Ġabog":4898,"Ġflores":4899,"Ġpiso":4900,"Ġdim":4901,"Ġvictoria":4902,"Ġlong":4903,"ricas":4904,"izÃ¡s":4905,"Ġfeliz":4906,"ÃŃsimo":4907,"Ġerror":4908,"ĠMas":4909,"ses":4910,"SE":4911,"ĠCristo":4912,"Ġvigil":4913,"ĠmuriÃ³":4914,"ispo":4915,"Ġfrecuencia":4916,"Ġbomb":4917,"ĠOs":4918,"ĠtÃ©cnica":4919,"Ġhar":4920,"rÃŃ":4921,"gia":4922,"jeron":4923,"RI":4924,"Ġcrea":4925,"ĠPortu":4926,"entado":4927,"CIÃĵN":4928,"Ġmilitares":4929,"Ġza":4930,"Ġvivo":4931,"quia":4932,"Ġplaza":4933,"ĠÎ":4934,"lada":4935,"cap":4936,"olÃ³gica":4937,"ĠIr":4938,"torial":4939,"piraciÃ³n":4940,"Ġperiodo":4941,"Ġpensamiento":4942,"ĠcuÃ¡n":4943,"Ġagar":4944,"ĠIII":4945,"ington":4946,"ĠlÃ¡g":4947,"Ġdistintas":4948,"ille":4949,"60":4950,"estiv":4951,"87":4952,"Ġperiodi":4953,"ĠMiguel":4954,"ĠEE":4955,"cÃ³n":4956,"Ġllevado":4957,"Ġpensaba":4958,"by":4959,"Ġarchivo":4960,"Ġalguno":4961,"Ġpase":4962,"Ġplacer":4963,"Rec":4964,"Gracias":4965,"Ġsectores":4966,"tismo":4967,"ĠHol":4968,"Ġfunciones":4969,"rans":4970,"cÃ³mo":4971,"Ġdispuesto":4972,"ĠadministraciÃ³n":4973,"Ġvuelto":4974,"Ġanimal":4975,"ĠautÃ©n":4976,"Ġruido":4977,"Ġcereb":4978,"Ġsilla":4979,"ĠresoluciÃ³n":4980,"Bueno":4981,"abes":4982,"Ġfortal":4983,"anto":4984,"Ġconcepto":4985,"mina":4986,"Ġrecibido":4987,"Ġespaci":4988,"ĠClar":4989,"tidades":4990,"Ġrazones":4991,"Ġtreinta":4992,"ĠÃ¡reas":4993,"Ġargu":4994,"Ġmotor":4995,"ĠsÃŃn":4996,"ĠTur":4997,"ĠlanzÃ³":4998,"Ġencen":4999,"Ġrefug":5000,"Ġconduc":5001,"Ġelegido":5002,"forma":5003,"97":5004,"uesta":5005,"ĠBro":5006,"ĠJul":5007,"Ġdarle":5008,"Ġescritor":5009,"cimientos":5010,"Ġfines":5011,"Ġclases":5012,"Ġdetuvo":5013,"Ġprima":5014,"ĠInstituto":5015,"Ġcolon":5016,"Ġllu":5017,"Ġinno":5018,"LO":5019,"ĠganÃ³":5020,"Ġnovela":5021,"Fin":5022,"dy":5023,"ĠDeb":5024,"Ġcarga":5025,"eles":5026,"lia":5027,"Ġnecesita":5028,"rom":5029,"ĠSam":5030,"Ġ&":5031,"ĠlogrÃ³":5032,"Ġsimilar":5033,"Ġposteriormente":5034,"Ġcomport":5035,"tista":5036,"ĠtrÃ¡":5037,"Ġrecomend":5038,"ames":5039,"Ġfres":5040,"Ġurb":5041,"Ġintereses":5042,"Ġconec":5043,"Ġeuropeo":5044,"Ġasuntos":5045,"ĠManuel":5046,"Ġalquil":5047,"Ġâ":5048,"Ġatre":5049,"orÃŃas":5050,"Ġpuedan":5051,"Ġdocumentos":5052,"Ġlad":5053,"tador":5054,"ĠmÃ¡ximo":5055,"testÃ³":5056,"89":5057,"ĠEconÃ³m":5058,"ĠclÃ¡s":5059,"34":5060,"Ġron":5061,"Ġverdadero":5062,"Ġcerc":5063,"Ġhel":5064,"Ġacar":5065,"Ġseleccion":5066,"ramient":5067,"ĠCatal":5068,"Ġjusticia":5069,"erador":5070,"ÃŃti":5071,"Ġasesina":5072,"Ġescena":5073,"ĠpresentÃ³":5074,"Ġedu":5075,"amblea":5076,"Ġofrecer":5077,"Ġbarrio":5078,"quer":5079,"elos":5080,"Ġciencia":5081,"Ġnombres":5082,"ĠrealizÃ³":5083,"31":5084,"iertos":5085,"rimas":5086,"ĠKa":5087,"Ġgenerales":5088,"cero":5089,"ĠBri":5090,"TU":5091,"ung":5092,"ĠvÃŃa":5093,"ĠRusia":5094,"Ġagrade":5095,"Ġdepartamento":5096,"zco":5097,"Ġabierto":5098,"Ġbosque":5099,"ĠHan":5100,"ĠHay":5101,"Ġbarco":5102,"Ġquedado":5103,"Ġmala":5104,"Ġcop":5105,"Ġespiritu":5106,"ĠSecre":5107,"Ġpersonaje":5108,"Ġleyes":5109,"Ġcole":5110,"Ġprensa":5111,"Ġenemigo":5112,"ĠHu":5113,"Ġanteriores":5114,"Ġepiso":5115,"91":5116,"ĠelÃ©ctri":5117,"Ġresponsabilidad":5118,"uegos":5119,"Ġejercicio":5120,"Ġmic":5121,"ĠCla":5122,"ĠpresiÃ³n":5123,"TO":5124,"Ġatraves":5125,"caciÃ³n":5126,"Ġnormal":5127,"Ġprogres":5128,"Ġsuav":5129,"Ġirre":5130,"Ġministro":5131,"Ġentrev":5132,"Ã¡st":5133,"Ġinterrump":5134,"Ġmanifes":5135,"ĠescribiÃ³":5136,"ĠÃī":5137,"Ġinfra":5138,"Ġameric":5139,"Ġsecreto":5140,"Ġpropias":5141,"Ġsen":5142,"Ġcree":5143,"iss":5144,"ĠraÃŃ":5145,"femenino":5146,"85":5147,"iÃ©ndose":5148,"Ġ1991":5149,"ĠGrupo":5150,"Ġesfuerzos":5151,"ĠGra":5152,"Ġtorno":5153,"gues":5154,"Ġrojo":5155,"Ġdefens":5156,"Ġart":5157,"Ġdenomin":5158,"Ġdesconoci":5159,"ave":5160,"ive":5161,"37":5162,"Ġmateriales":5163,"ĠMc":5164,"Reglamento":5165,"Ġsecund":5166,"ĠJapÃ³n":5167,"Ġautoridad":5168,"ĠOc":5169,"deros":5170,"ego":5171,"grÃ¡fica":5172,"Ġdistingu":5173,"ĠcondiciÃ³n":5174,"ĠCab":5175,"Ġnave":5176,"Ġvuelve":5177,"Ġesperando":5178,"Ġalterna":5179,"ĠCentral":5180,"Ġbreve":5181,"Ġemplea":5182,"anzas":5183,"86":5184,"Ġpresentar":5185,"Pos":5186,"ĠCopa":5187,"Ġliter":5188,"Ġsecu":5189,"Ġviolencia":5190,"Ġdigo":5191,"Ġdro":5192,"ĠJusticia":5193,"Ġborde":5194,"Ġprior":5195,"Ġdesen":5196,"Ġdientes":5197,"Ġanci":5198,"Ġmercan":5199,"Ġsituada":5200,"Ġagrad":5201,"Ġconvertido":5202,"ĠAdemÃ¡s":5203,"ĠMac":5204,"Ġcomunitario":5205,"Ġcolum":5206,"grama":5207,"ĠcÃ¡n":5208,"ĠIV":5209,"Ġsalvo":5210,"ienes":5211,"berg":5212,"ĠteorÃŃa":5213,"Ġlongitud":5214,"aso":5215,"Ġformar":5216,"ĠcompaÃ±eros":5217,"Ġacce":5218,"ĠÃ³rdenes":5219,"):":5220,"Ġdebate":5221,"Ġnegativo":5222,"Ġenga":5223,"Ġben":5224,"ĠtÃŃo":5225,"ĠextraÃ±o":5226,"Ġrealizado":5227,"tente":5228,"Ġoscuridad":5229,"ĠSÃ³lo":5230,"Ġhaga":5231,"isiones":5232,"ĠLin":5233,"ĠLA":5234,"fas":5235,"dias":5236,"Ġflor":5237,"ĠBur":5238,"Ġdipu":5239,"rano":5240,"Ġ1989":5241,"Ġteatro":5242,"eropuerto":5243,"ĠOficina":5244,"Ġnombrado":5245,"ĠjurÃŃ":5246,"Ġprecisamente":5247,"continu":5248,"LE":5249,"Ġfiesta":5250,"Ġhospital":5251,"Ġcontrato":5252,"Ġcualquiera":5253,"Ġfalle":5254,"Ġindependiente":5255,"ĠpropÃ³sito":5256,"quie":5257,"Ġpubl":5258,"aj":5259,"Ġnegocios":5260,"Ġimporta":5261,"Ġherramient":5262,"Ġfar":5263,"Ã±Ã³":5264,"ĠSantiago":5265,"ĠVol":5266,"Ġvideo":5267,"Ġcorriente":5268,"Ġofer":5269,"ĠtendrÃ¡":5270,"Actu":5271,"Ã±ar":5272,"45":5273,"zados":5274,"Ġaceptar":5275,"alizada":5276,"ĠJer":5277,"Ġobtuvo":5278,"Ġtradicional":5279,"MA":5280,"Ġvalores":5281,"Ġcumplir":5282,"Ãºsque":5283,"Ġexactamente":5284,"anÃŃa":5285,"tudes":5286,"Ġrepente":5287,"Ġarran":5288,"eli":5289,"Ġabierta":5290,".Â»":5291,"Ġperspec":5292,"ĠllamÃ³":5293,"Ġinmediato":5294,"pens":5295,"ĠÃģn":5296,"gados":5297,"Ġlograr":5298,"ÃŃtulos":5299,"ini":5300,"UN":5301,"ombia":5302,"itarias":5303,"Ġplanes":5304,"Ġserio":5305,"Ġamplia":5306,"Ġpensando":5307,"Ġhid":5308,"ĠMir":5309,"ĠPaÃŃs":5310,"Ġpasando":5311,"Ġmismas":5312,"iada":5313,"Ġcomunitaria":5314,"Ġvenido":5315,"Ġcen":5316,"Ġmusical":5317,"fes":5318,"ĠlÃ¡grimas":5319,"vador":5320,"09":5321,"Cre":5322,"ierte":5323,"ĠInter":5324,"Ġfirme":5325,"Ġsuminist":5326,"Ġquerido":5327,"Ġmuertos":5328,"ĠAy":5329,"Ġcentros":5330,"ĠpÃ¡ginas":5331,"Lu":5332,"ĠRom":5333,"Ġllegaron":5334,"Ġmovimientos":5335,"caso":5336,"Pa":5337,"metro":5338,"ĠEmp":5339,"Ġdejando":5340,"Ġcreado":5341,"ni":5342,"ĠselecciÃ³n":5343,"grado":5344,"Ġfrancesa":5345,"Ġveo":5346,"ure":5347,"Ġquedaba":5348,"Ġignor":5349,"Ġayudas":5350,"Ġincluyen":5351,"IA":5352,"Ġgastos":5353,"Ġpropuestas":5354,"Ġdesl":5355,"Ġteniendo":5356,"ĠCre":5357,"rimiento":5358,"Ġtriun":5359,"Ã¨":5360,"Ġfrontera":5361,"ĠbaÃ±o":5362,"cidas":5363,"ĠEsc":5364,"ĠAlex":5365,"Ġsorpresa":5366,"ĠcatÃ³":5367,"San":5368,"ĠRev":5369,"cadem":5370,"Ġmexic":5371,"Ġhttp":5372,"Ġsalva":5373,"ĠjardÃŃn":5374,"masculino":5375,"Ġcompleta":5376,"Ġcarb":5377,"Ġreconocer":5378,"inal":5379,"Ġdespa":5380,"venida":5381,"Ġprotes":5382,"Ġrebel":5383,"ward":5384,"ĠquÃŃm":5385,"ĠGa":5386,"ĠCongreso":5387,"ĠTambiÃ©n":5388,"Ġreno":5389,"ĠFo":5390,"Ġnota":5391,"ĠelecciÃ³n":5392,"Ġconsist":5393,"Ġconst":5394,"Ġcultural":5395,"ĠdistribuciÃ³n":5396,"âĢķ":5397,"cluso":5398,"ĠNew":5399,"Ġescala":5400,"Ġorgu":5401,"Ġhojas":5402,"Ġlla":5403,"Ġnueve":5404,"lÃ³":5405,"ĠHum":5406,"ĠFu":5407,"ĠCOM":5408,"Ġdura":5409,"Sal":5410,"Ġperci":5411,"ĠPerÃº":5412,"Ġclave":5413,"jaba":5414,"ĠSuper":5415,"Ġgris":5416,"ĠhabrÃ¡":5417,"ĠDon":5418,"cracia":5419,"Ġrequier":5420,"ps":5421,"Ġblanca":5422,"Ġsobreviv":5423,"uba":5424,"Ġmiraba":5425,"aras":5426,"Ġcolores":5427,"Ġblancos":5428,"ĠDerecho":5429,"Ġobjetos":5430,"ĠÃºnicamente":5431,"ĠnaciÃ³":5432,"aca":5433,"ny":5434,"tÃŃ":5435,"ĠconsiguiÃ³":5436,"Ġcomand":5437,"32":5438,"ucle":5439,"Ġpone":5440,"Ġjuicio":5441,"Ġescapar":5442,"Ġrecordar":5443,"Ġinfan":5444,"Ġintentar":5445,"Ġtarea":5446,"Ġingles":5447,"Ġubicada":5448,"cab":5449,"ĠCons":5450,"ĠÃģfrica":5451,"Ġtranqui":5452,"ulo":5453,"Ġnoticias":5454,"Ġfen":5455,"Ġentra":5456,"Ġcau":5457,"Ġactitud":5458,"tamen":5459,"Ġganar":5460,"Ġhombro":5461,"Ġvoc":5462,"Ġdetalles":5463,"Ġnumerosos":5464,"Ġoficina":5465,"Ġdiario":5466,"ĠconocÃŃa":5467,"Ġconsumo":5468,"ĠdaÃ±o":5469,"igue":5470,"tones":5471,"Ġsentado":5472,"ĠIsrael":5473,"Ġutiliza":5474,"izÃ³":5475,"inter":5476,"Ġpersonajes":5477,"ĠsalÃ³n":5478,"ĠLi":5479,"Ġasc":5480,"Ġresponder":5481,"Ġregional":5482,"Ġadver":5483,"Ġavent":5484,"ĠCer":5485,"Ġfondos":5486,"Ġjuegos":5487,"Ġcoches":5488,"iernos":5489,"ricos":5490,"Ġpareja":5491,"pero":5492,"Ġmane":5493,"ware":5494,"Ġescen":5495,"Ġtren":5496,"Cap":5497,"Ġ2017":5498,"Ġpocas":5499,"vera":5500,"Ġinvers":5501,"Ġpilo":5502,"ster":5503,"'s":5504,"Ġpele":5505,"tienen":5506,"Ġferro":5507,"Ġconvo":5508,"Ġocurre":5509,"Ġequilib":5510,"Ġresponsable":5511,"ĠbÃºsque":5512,"Ġsomos":5513,"hesiÃ³n":5514,"ambre":5515,"Ġeuropeos":5516,"Ġreducir":5517,"ĠcayÃ³":5518,"ĠPlan":5519,"Ġcuestiones":5520,"Algunos":5521,"98":5522,"irÃŃa":5523,"Ġchico":5524,"Ġ1988":5525,"ĠsecciÃ³n":5526,"leza":5527,"Ġcampos":5528,"Ġreino":5529,"Ġarma":5530,"Ġetapa":5531,"inaba":5532,"ArtÃŃculo":5533,"drÃ¡":5534,"ĠHist":5535,"ivas":5536,"ĠgustarÃŃa":5537,"ĠGer":5538,"Ġmover":5539,"Ġcircunstancias":5540,"Ġtuvieron":5541,"Ġluch":5542,"dimientos":5543,"Ġcanal":5544,"Ġenam":5545,"Ġcombate":5546,"Ġbuscando":5547,"ĠSanto":5548,"irma":5549,"Ġinspec":5550,"Ġmecan":5551,"Ġconsiderado":5552,"Ġdocument":5553,"ede":5554,"icales":5555,"rismo":5556,"ĠasintiÃ³":5557,"ĠSegunda":5558,"aste":5559,"ĠEjÃ©rcito":5560,"ĠPu":5561,"Çģ":5562,"Ġexport":5563,"Ġoscuro":5564,"ificar":5565,"Ġfuentes":5566,"Ġascen":5567,"Ġdra":5568,"Ġinsist":5569,"Ġjugador":5570,"Ġsof":5571,"Ġpresupuesto":5572,"ĠterminÃ³":5573,"culaciÃ³n":5574,"ienen":5575,"usiones":5576,"Ã©ase":5577,"Ġcompuesto":5578,"terio":5579,"Ġefectu":5580,"ĠdivisiÃ³n":5581,"Ġmiles":5582,"ĠpÃ©rdida":5583,"iares":5584,"ditos":5585,"ĠmÃ³vil":5586,"ĠMedi":5587,"ĠPablo":5588,"Ġprac":5589,"Ġreflex":5590,"Ġlech":5591,"ĠoperaciÃ³n":5592,"Ġbio":5593,"Ġmuchacha":5594,"Ġposterior":5595,"Ġescol":5596,"tz":5597,"pirÃ³":5598,"Ġasign":5599,"ĠFernando":5600,"Ġsimp":5601,"quete":5602,"Ġbuenas":5603,"Ġimplic":5604,"Ġredes":5605,"Ġnaturales":5606,"Ġacord":5607,"Ġrodi":5608,"Ġdisc":5609,"mes":5610,"Ġnuevamente":5611,"75":5612,"Ġcomerciales":5613,"ĠColombia":5614,"Ġofrec":5615,"amo":5616,"ood":5617,"aller":5618,"lÃ¡n":5619,"Cada":5620,"entro":5621,"iendas":5622,"Ġ60":5623,"ĠFil":5624,"Ġcaja":5625,"Ġdormir":5626,"Ġllena":5627,"Ġrespeto":5628,"Ġvenir":5629,"Ġpreguntar":5630,"Ġespe":5631,"CU":5632,"puestas":5633,"Ġseres":5634,"Ġamist":5635,"ĠDivisiÃ³n":5636,"Ġater":5637,"Ġdoce":5638,"Ġnecesitaba":5639,"ĠejecuciÃ³n":5640,"Ġlleno":5641,"eth":5642,"puestos":5643,"lie":5644,"Ġrob":5645,"Jo":5646,"ĠimpresiÃ³n":5647,"ĠcolaboraciÃ³n":5648,"Ãģ":5649,"Ġtembl":5650,"Puede":5651,"Ġcomprar":5652,"Ġcontiene":5653,"Ġreina":5654,"Ġintento":5655,"lano":5656,"Ġmaravil":5657,"graciÃ³n":5658,"ĠSil":5659,"ĠJack":5660,"ĠmÃ©todo":5661,"Ġrestos":5662,"op":5663,"Ġprofesionales":5664,"ks":5665,"Ġmasa":5666,"Buenos":5667,"Ġdocumento":5668,"Ġgarantizar":5669,"ĠGon":5670,"Ġremo":5671,"Ġasust":5672,"ĠechÃ³":5673,"mites":5674,"ombre":5675,"Ġinquie":5676,"ting":5677,"Ġregu":5678,"Ġconex":5679,"inario":5680,"augu":5681,"Ġcontigo":5682,"Ġocurrido":5683,"Ġdev":5684,"Ġprofundi":5685,"Ġformul":5686,"ĠDesde":5687,"Ġciento":5688,"portes":5689,"Ġdetec":5690,"Ġseguido":5691,"Ġcif":5692,"Ġ35":5693,"tres":5694,"Ġdescubrir":5695,"Ġresistencia":5696,"Ġcorrer":5697,"ĠSÃŃ":5698,"Ġace":5699,"ecÃŃan":5700,"Ġ1987":5701,"iforn":5702,"cuenta":5703,"Ġpensamientos":5704,"exclamÃ³":5705,"comun":5706,"Ġdom":5707,"Ġ1986":5708,"Ġreconocimiento":5709,"Ġtanta":5710,"70":5711,"Ġestablece":5712,"yen":5713,"ĠÃºltimas":5714,"acer":5715,"Ġempezar":5716,"ĠespaÃ±oles":5717,"Ġartes":5718,"Ġapreci":5719,"Ġproteger":5720,"ĠdisposiciÃ³n":5721,"Ġparque":5722,"teles":5723,"Ġterminar":5724,"Ġhues":5725,"Ġalimentos":5726,"Ġunidades":5727,"ĠConstitu":5728,"Ġproduce":5729,"ĠpelÃŃculas":5730,"Ġnub":5731,"gro":5732,"ĠbÃºsqueda":5733,"Ġculpa":5734,"Ġhacerse":5735,"Ġposibilidades":5736,"Ġapun":5737,"ney":5738,"Ġsiglos":5739,"sus":5740,"Ġtocar":5741,"plicÃ³":5742,"Ġmaestro":5743,"ĠAlber":5744,"amÃ©rica":5745,"ĠreciÃ©n":5746,"44":5747,"Ġamiga":5748,"Ġninguno":5749,"ĠIndia":5750,"adio":5751,"ĠBre":5752,"Ġfantas":5753,"ĠprÃ¡cticas":5754,"Ġec":5755,"Ġproducir":5756,"ĠtÃ©cnicas":5757,"Ġcaballos":5758,"Ġocupar":5759,"tios":5760,"Ġbols":5761,"Ġnorma":5762,"Ġinaugu":5763,"ania":5764,"estival":5765,"ĠintervenciÃ³n":5766,"Ġexpan":5767,"Ġconstituye":5768,"Ġparedes":5769,"\"),":5770,"Ġbiblio":5771,"76":5772,"Ġreclam":5773,"jera":5774,"Ġcastillo":5775,"ĠFlor":5776,"idi":5777,"Ġregreso":5778,"ĠInternet":5779,"Ġjuz":5780,"ĠAnd":5781,"Ġaprender":5782,"Ġreemp":5783,"ĠBlan":5784,"idae":5785,"orro":5786,"Ġtomado":5787,"Ġbenefici":5788,"ĠevoluciÃ³n":5789,"Ġedificios":5790,"Ġapara":5791,"Ġglobal":5792,"Ġcoin":5793,"Ġexplor":5794,"ind":5795,"Ġindustrial":5796,"Ġplaya":5797,"Ġagentes":5798,"Ġape":5799,"arrollo":5800,"Ġgeo":5801,"ĠvÃŃ":5802,"ÃŃtica":5803,"ĠPh":5804,"Ġestrellas":5805,"Actualmente":5806,"Ã¡nico":5807,"ĠPortugal":5808,"torias":5809,"Ġ1980":5810,"rida":5811,"ĠRich":5812,"tedr":5813,"âĢ¦,":5814,"ys":5815,"Ġemi":5816,"Ġcomienza":5817,"arra":5818,"Ġlentamente":5819,"ĠÃģngel":5820,"ĠrespondiÃ³":5821,"adura":5822,"Ġmotivos":5823,"Ġespeciales":5824,"lez":5825,"peÃ³n":5826,"Ġprodujo":5827,"Hasta":5828,"Ġans":5829,"Ġsole":5830,"ĠpidiÃ³":5831,"Ġrecuer":5832,"Ġpago":5833,"Ġganado":5834,"Ġgusto":5835,"ĠMos":5836,"caron":5837,"ijo":5838,"Ġpreocu":5839,"Ġcha":5840,"Ġenm":5841,"Ġtienda":5842,"Ġutilizado":5843,"Ġenfo":5844,"Ġceleb":5845,"Ġdesem":5846,"Ġdirectiva":5847,"anes":5848,"Ġojo":5849,"Ġaliv":5850,"Ġconstruir":5851,"ĠMinisterio":5852,"Ġcomprome":5853,"trando":5854,"Antes":5855,"ĠPeter":5856,"Ġinicio":5857,"Ġcomunes":5858,"38":5859,"Ġtranquil":5860,"Ġterrible":5861,"Ġprov":5862,"ĠHen":5863,"ĠTodos":5864,"Ġcartas":5865,"ĠCampeonato":5866,"andro":5867,"ezas":5868,"Ġvisitas":5869,"ari":5870,"ĠenseÃ±anza":5871,"Ġiniciativa":5872,"DI":5873,"Ġdebemos":5874,"Ġconsol":5875,"Ġpesca":5876,"Ġhablaba":5877,"ĠmÃ©todos":5878,"ĠWal":5879,"entan":5880,"venir":5881,"Ġcontexto":5882,"Ġsacar":5883,"Ġoportun":5884,"Ġconde":5885,"we":5886,"Ġconside":5887,"Ġcompromiso":5888,"UU":5889,"Ġ90":5890,"ĠpÃºblicos":5891,"ĠvehÃŃculos":5892,"Ġsuyo":5893,"Ġrem":5894,"Ġantiguos":5895,"bita":5896,"Ġcans":5897,"Ġtemplo":5898,"Ġpiezas":5899,"oles":5900,"eler":5901,"ducciÃ³n":5902,"ĠcreÃŃa":5903,"reros":5904,"ĠFue":5905,"Tu":5906,"aliza":5907,"yendo":5908,"Ġprove":5909,"ĠSim":5910,"Ġinteg":5911,"ĠlÃŃder":5912,"mada":5913,"Ġbloque":5914,"inaria":5915,"Ġhuel":5916,"ĠLiber":5917,"Ġrue":5918,"Ġasom":5919,"Ġabsoluto":5920,"Ġpuestos":5921,"Ġcadena":5922,"ĠBas":5923,"selo":5924,"let":5925,"Ġitaliano":5926,"ĠUnivers":5927,"Ãºlti":5928,"Ġbelleza":5929,"ĠlÃ³g":5930,"Ġperm":5931,"Ġcorto":5932,"Usted":5933,"Ġcubierta":5934,"Ġcontinuar":5935,"esen":5936,"Ġfom":5937,"Ġarreglo":5938,"Ġpuente":5939,"ĠPaul":5940,"Ġcuerpos":5941,"Ġclaramente":5942,"Co":5943,"Ġvosotros":5944,"itivos":5945,"ifornia":5946,"Ġavi":5947,"cÃ©":5948,"Ġvolumen":5949,"Ġimpacto":5950,"Ġacuerdos":5951,"Ġlab":5952,"Ġmercados":5953,"Ġreserva":5954,"Ġacog":5955,"contestÃ³":5956,"Ġrin":5957,"ĠMun":5958,"78":5959,"46":5960,"ĠrevoluciÃ³n":5961,"Ġclima":5962,"ĠmÃŃnimo":5963,"iller":5964,"ĠfÃ¡b":5965,"Ġvirtud":5966,"Ġraza":5967,"ĠPr":5968,"Ġdesh":5969,"UE":5970,"Ġdesgra":5971,"Ġcenso":5972,"Ġasegurar":5973,"Ġsug":5974,"puso":5975,"Ġimpon":5976,"art":5977,"Porque":5978,"teratura":5979,"Ġprobable":5980,"cy":5981,"zaje":5982,"ĠcaÃ±":5983,"Ġplaneta":5984,"Nos":5985,"Ġdescubierto":5986,"Ġaprendi":5987,"Ġsexo":5988,"Ġcurios":5989,"ĠFre":5990,"Ġempren":5991,"Ġpist":5992,"raciones":5993,"Ġnegra":5994,"DÃ³nde":5995,"Ġsuya":5996,"ĠcÃŃr":5997,"Ġpunta":5998,"ĠCruz":5999,"Ġais":6000,"Ġfuertes":6001,"Ġprofundo":6002,"Ġperfectamente":6003,"Ġnoches":6004,"ĠcÃ¡mara":6005,"ĠpublicÃ³":6006,"Ġmedal":6007,"48":6008,"Ġalo":6009,"inando":6010,"Ġgeneralmente":6011,"Ġalmacen":6012,"ĠIN":6013,"Ġartistas":6014,"Ġdulce":6015,"stos":6016,"ĠLeÃ³n":6017,"Ġaust":6018,"ĠcontinuÃ³":6019,"ĠLor":6020,"Ġinstalaciones":6021,"ĠDomin":6022,"Ġmira":6023,"garse":6024,"Ġestrategia":6025,"ĠBea":6026,"iosos":6027,"Ġrit":6028,"ĠhacÃŃan":6029,"Ġdecidido":6030,"Ġmuchacho":6031,"Ġpene":6032,"Ġasiento":6033,"ock":6034,"Ġfundamental":6035,"Ġimpuls":6036,"queta":6037,"ĠCasa":6038,"ĠAquel":6039,"Ġciertas":6040,"Ġsacu":6041,"tinos":6042,"Ġtrabajando":6043,"Ġextraord":6044,"Ġtej":6045,"ĠXIX":6046,"Ġnegocio":6047,"Ġcompos":6048,"uras":6049,"Ġembar":6050,"Ġveg":6051,"Ġconsecuencias":6052,"Ġpasaba":6053,"ices":6054,"ĠJor":6055,"inadas":6056,"Ġregresar":6057,"Ġislas":6058,"Ġnoticia":6059,"ĠEr":6060,"teros":6061,"Ġimpe":6062,"SeÃ±":6063,"Ġacostumb":6064,"ÃŃdos":6065,"Ġretro":6066,"Ġcincuenta":6067,"Ġportu":6068,"ĠRÃŃo":6069,"Ġusuarios":6070,"ĠestarÃŃa":6071,"ezuela":6072,"tiende":6073,"Ġalej":6074,"Ġtemperatura":6075,"Ġfuncionamiento":6076,"Ġpantal":6077,"Ġapres":6078,"Ġpremio":6079,"ĠdeclaraciÃ³n":6080,"Ġvisitar":6081,"Ġcruz":6082,"Ġlin":6083,"uf":6084,"ĠVe":6085,"SÃ³lo":6086,"Ġsacri":6087,"Ġposee":6088,"rigo":6089,"Ġnumerosas":6090,"Ġpus":6091,"Ġ2018":6092,"Ġregistro":6093,"guÃ©":6094,"Ġvieja":6095,"ĠWilliam":6096,"uncia":6097,"ecieron":6098,"ĠâĢĺ":6099,"Ã¤":6100,"Ġcatal":6101,"ĠAna":6102,"ertura":6103,"Ġpartida":6104,"tarÃ¡":6105,"Ġnucle":6106,"Creo":6107,"forme":6108,"Ġactos":6109,"Ġgobernador":6110,"Ġ=":6111,"Ġvive":6112,"Ġ1985":6113,"ĠmÃŃa":6114,"ĠocurriÃ³":6115,"ĠtradiciÃ³n":6116,"logÃŃa":6117,"Ġdevol":6118,"cademia":6119,"desa":6120,"ĠLiga":6121,"ĠBanco":6122,"ella":6123,"Ġacarici":6124,"ubo":6125,"Ġcercan":6126,"ĠevaluaciÃ³n":6127,"ĠalegrÃŃa":6128,"Ġbuenos":6129,"Ġgira":6130,"Ġalcance":6131,"ociaciÃ³n":6132,"estas":6133,"Ġdetener":6134,"39":6135,"ĠasociaciÃ³n":6136,"Ġfueran":6137,"Ġrelo":6138,"Ġmetal":6139,"ologÃŃas":6140,"ĠES":6141,"landa":6142,"Ġconsiste":6143,"Ġsombr":6144,"Ġresid":6145,"Ġtuviera":6146,"ĠCul":6147,"Ġletra":6148,"Ġ80":6149,"lectu":6150,"vir":6151,"ĠComunidades":6152,"Ġconvertirse":6153,"ĠVI":6154,"Ġunif":6155,"adÃ¡ver":6156,"ĠImperio":6157,"Ġilust":6158,"Ġservir":6159,"ĠtÃŃp":6160,"ĠBor":6161,"gaba":6162,"Ġreforma":6163,"Âª":6164,"Ġsuave":6165,"tol":6166,"cambi":6167,"ĠprÃŃncipe":6168,"Ãºl":6169,"ĠpublicaciÃ³n":6170,"ĠanunciÃ³":6171,"Ġ186":6172,"Ese":6173,"Ġquisiera":6174,"ĠlegislaciÃ³n":6175,"Ġperro":6176,"Ġprocesos":6177,"ĠAsamblea":6178,"Ġpalacio":6179,"ormes":6180,"ĠtrÃ¡fico":6181,"Ġconflicto":6182,"Ġago":6183,"ĠsentÃ³":6184,"Ġpreciso":6185,"ĠsacÃ³":6186,"pado":6187,"Ġpatr":6188,"dea":6189,"Ġtratado":6190,"Ġeuros":6191,"Ġopera":6192,"cesa":6193,"Ġprivado":6194,"ĠharÃŃa":6195,"my":6196,"ek":6197,"Ġcuch":6198,"Ġemerg":6199,"mado":6200,"uevo":6201,"Ġpeti":6202,"estruc":6203,"Ġenemigos":6204,"ĠcadÃ¡ver":6205,"!!":6206,"ĠServ":6207,"Ġposibles":6208,"Ã³p":6209,"villa":6210,"radas":6211,"gando":6212,"Ġtratando":6213,"cionar":6214,"Ġinstrumentos":6215,"Ġdieron":6216,"Ġcomplic":6217,"ĠextensiÃ³n":6218,"Ġexperim":6219,"Ġespada":6220,"Ġfol":6221,"Ġmediados":6222,"Ġcampes":6223,"Ġacon":6224,"Ġnaveg":6225,"ĠÇģ":6226,"Ġrepresentantes":6227,"ĠseÃ±orita":6228,"Ġabund":6229,"Ġbi":6230,"zz":6231,"Ġsombra":6232,"tidas":6233,"HabÃŃa":6234,"Ġacababa":6235,"tesis":6236,"ĠAp":6237,"Ġciertos":6238,"-.":6239,"ĠfÃŃsica":6240,"Ġcontribuy":6241,"Ġclasific":6242,"icciÃ³n":6243,"ĠSud":6244,"ĠNunca":6245,"à¸":6246,"acÃŃfico":6247,"Ġdespre":6248,"Ġpaisa":6249,"Ġrab":6250,"iertas":6251,"tual":6252,"Ġcontrolar":6253,"Ġdemon":6254,"Ġcontam":6255,"Ġaumentar":6256,"ĠNos":6257,"tional":6258,"Ġmedicam":6259,"Ġcerebro":6260,"iverso":6261,"cÃŃas":6262,"Ġcliente":6263,"ĠGonz":6264,"Ġdificultades":6265,"Ġduro":6266,"ĠGab":6267,"confirm":6268,"Ġcantante":6269,"Ġrealiza":6270,"tificaciÃ³n":6271,"ĠFuer":6272,"ĠKar":6273,"Ġtantos":6274,"->":6275,"ĠPon":6276,"Ġquedar":6277,"Ġentorno":6278,"tag":6279,"Ġindica":6280,"Ġreform":6281,"Ġlago":6282,"Ġimpresion":6283,"Ġmodelos":6284,"Ġvariedad":6285,"Ġzapa":6286,"99":6287,"ĠCalifornia":6288,"up":6289,"ĠopciÃ³n":6290,"Ġabre":6291,"ĠGarcÃŃa":6292,"TÃº":6293,"Ġcomienzo":6294,"ĠLib":6295,"guar":6296,"Ġensay":6297,"Ġgig":6298,"LI":6299,"Ġterminado":6300,"eld":6301,"tn":6302,"Ġalcal":6303,"Ġalf":6304,"ĠAz":6305,"ĠparticipÃ³":6306,"Ġdicen":6307,"dul":6308,"ĠmontaÃ±a":6309,"olÃ³gicos":6310,"Ġalco":6311,"ÃŃficas":6312,"Ġformado":6313,"ieren":6314,"ford":6315,"Ġestancia":6316,"Ġadu":6317,"ĠDis":6318,"quinas":6319,"grÃ¡fic":6320,"Ġvigor":6321,"Ġtorneo":6322,"ĠreducciÃ³n":6323,"47":6324,"ĠlÃŃmite":6325,"americanos":6326,"ense":6327,"ĠespectÃ¡":6328,"Ġformula":6329,"igh":6330,"Ġdieci":6331,"Ġinvierno":6332,"Ġpantalla":6333,"Ġparecido":6334,"into":6335,"Ġmanda":6336,"ĠrÃ¡pida":6337,"Ġbrin":6338,"Ġasistencia":6339,"todo":6340,"ĠparecÃŃan":6341,"ĠcÃ¡ncer":6342,"ĠprÃ³ximo":6343,"Ġdesaf":6344,"ĠlÃŃmites":6345,"tadores":6346,"Ġdirigida":6347,"Ġ+":6348,"ĠNaciones":6349,"uye":6350,"cara":6351,"Ġvul":6352,"55":6353,"ĠsÃ¡b":6354,"Ġestatu":6355,"ĠreÃŃr":6356,"Ġpolvo":6357,"Ġcit":6358,"ela":6359,"ĠcogiÃ³":6360,"ĠaÃ©":6361,"imas":6362,"Ġclara":6363,"Ġdemanda":6364,"asiÃ³n":6365,"Ġprision":6366,"Clar":6367,"Ġestablecimiento":6368,"Bien":6369,"garon":6370,"Ġgana":6371,"Estoy":6372,"Ġfrase":6373,"Ġtorre":6374,"Ġdarse":6375,"ĠEscuela":6376,"Ġconsciente":6377,"Ġconseguido":6378,"ĠAustral":6379,"Ġcari":6380,"Ġrevolucion":6381,"cadas":6382,"Ġnecesaria":6383,"Ġapo":6384,"Ãºmero":6385,"ventud":6386,"Ġsentimientos":6387,"ĠaviÃ³n":6388,"Ġolor":6389,"Ġcomenzar":6390,"________":6391,"usos":6392,"portar":6393,"Ġhayan":6394,"ÃŃg":6395,"Ġartista":6396,"ĠMientras":6397,"Ġluna":6398,"ĠgeneraciÃ³n":6399,"Ġasal":6400,"Ã¡mica":6401,"ĠfenÃ³m":6402,"Ã¡ndez":6403,"idar":6404,"Ġpresentes":6405,"ami":6406,"Ġpatri":6407,"ĠdeberÃ¡":6408,"Ġplane":6409,"reras":6410,"ĠinversiÃ³n":6411,"Ġpoca":6412,"ld":6413,"Ġeventos":6414,"Ġrelacionados":6415,"%)":6416,"Ġsuele":6417,"toc":6418,"verdad":6419,"umbr":6420,"Ġdespacho":6421,"Ġmaravillos":6422,"ĠJef":6423,"VI":6424,"ĠvehÃŃculo":6425,"erra":6426,"Dis":6427,"ux":6428,"Ġagente":6429,"Ġanual":6430,"Ġhubieran":6431,"Ã¡nica":6432,"ĠindÃŃ":6433,"ray":6434,"ichael":6435,"Ġdejaba":6436,"Ġbr":6437,"adÃ©m":6438,"Ġevento":6439,"ĠCenso":6440,"ĠoyÃ³":6441,"teo":6442,"ĠintentÃ³":6443,"Ġdipl":6444,"AquÃŃ":6445,"Ġrazas":6446,"ĠperiÃ³dico":6447,"Ġlluvia":6448,"Ġesco":6449,"Ġdisponibles":6450,"Man":6451,"Ã±ad":6452,"Ġdisponible":6453,"Ã³logo":6454,"ĠrealizaciÃ³n":6455,"eramente":6456,"Ġcomunidades":6457,"Ġdeleg":6458,"ĠvacÃŃo":6459,"orada":6460,"ĠcÃ¡r":6461,"ĠVenezuela":6462,"hol":6463,"Finalmente":6464,"Ġconse":6465,"Ġmate":6466,"Uno":6467,"Ġeduca":6468,"Ġreempla":6469,"tab":6470,"Ġcristal":6471,"Ġsar":6472,"Ã©ndole":6473,"Ġatrac":6474,"Ġperteneciente":6475,"ĉĉĉ":6476,"Ġvalle":6477,"Ġcomis":6478,"ĠCosta":6479,"Ġmejora":6480,"ĠDaniel":6481,"ĠMuseo":6482,"Ġfus":6483,"seguida":6484,"Ġuniversidad":6485,"Ġdirecta":6486,"unciÃ³":6487,"Ġarmon":6488,"Ġalter":6489,"Ġintelectu":6490,"Ġarque":6491,"Ġadmi":6492,"Ġemperador":6493,"ĠBla":6494,"ides":6495,"Ġsem":6496,"osofÃŃa":6497,"Ġlanzado":6498,"ĠcerrÃ³":6499,"Ġhabitaciones":6500,"Ġcontaba":6501,"hal":6502,"ĠWil":6503,"Ġvidas":6504,"ĠGol":6505,"Ġul":6506,"itz":6507,"lig":6508,"ĠhistÃ³rico":6509,"Ġama":6510,"Ġcuentas":6511,"acidad":6512,"Ġcorriendo":6513,"grÃ¡fico":6514,"ĠpÃ¡r":6515,"ĠcompaÃ±ero":6516,"ĠBill":6517,"mÃ¡tica":6518,"sal":6519,"rente":6520,"ĠregresÃ³":6521,"Fran":6522,"Ġgargan":6523,"Ġ70":6524,"ĠreacciÃ³n":6525,"ME":6526,"Ġlenguaje":6527,"ĠexcepciÃ³n":6528,"COM":6529,"Ġponerse":6530,"ĠinstituciÃ³n":6531,"dador":6532,"Ġmezcla":6533,"ĠIrlanda":6534,"icho":6535,"Ġcamar":6536,"Ġencog":6537,"Ġpuesta":6538,"Ġdecirle":6539,"ĠreligiÃ³n":6540,"ĠJean":6541,"ĠpÃºblicas":6542,"ĠWin":6543,"Ġidentidad":6544,"ĠexposiciÃ³n":6545,"Ġinci":6546,"Tal":6547,"uta":6548,"ĠBos":6549,"piro":6550,"Ġhere":6551,"ĠMel":6552,"Ġsusur":6553,"Ġacabar":6554,"Ġresolver":6555,"ĠJac":6556,"ĠChrist":6557,"Ġapropi":6558,"Ġpsic":6559,"ĠAcuerdo":6560,"Ġvuelo":6561,"Ġcuarenta":6562,"Ġelemento":6563,"Ġdisminu":6564,"pr":6565,"cula":6566,"ĠmÃ¡xima":6567,"Ġjugadores":6568,"Ca":6569,"ĠEsto":6570,"Ġcuadro":6571,"Ġganas":6572,"bos":6573,"ĠJames":6574,"ĠOri":6575,"Ġmantuvo":6576,"SA":6577,"Ġsimilares":6578,"dras":6579,"Ġglor":6580,"rillo":6581,"itaciÃ³n":6582,"Ġsober":6583,"Ġpresentado":6584,"Ġhumanidad":6585,"Ġmur":6586,"lÃŃn":6587,"Ġobst":6588,"ĠCuba":6589,"ĠcreÃ³":6590,"gipto":6591,"omos":6592,"56":6593,"Ġargent":6594,"Ġpobres":6595,"Ġtecho":6596,"Ġdefender":6597,"cura":6598,"CH":6599,"Ġdirecto":6600,"confirmado":6601,"Ġvecinos":6602,"Ġestados":6603,"ĠutilizaciÃ³n":6604,"Ġreda":6605,"ĠcapÃŃtulo":6606,"Ġcomportamiento":6607,"ĠGeorge":6608,"Ġbron":6609,"Ġlectura":6610,"ĠEN":6611,"Ġamplio":6612,"zca":6613,"Ġpermanente":6614,"Ġgustaba":6615,"ĠduraciÃ³n":6616,"tible":6617,"Ġinicial":6618,"Ġmort":6619,"istros":6620,"tÃºa":6621,"Ġasent":6622,"ĠDar":6623,"ĠHel":6624,"bamos":6625,"Ġ000":6626,"ith":6627,"Ġobliga":6628,"Ġalemanes":6629,"Ġintentando":6630,"Ġpensado":6631,"Ġbeneficios":6632,"ĠmÃ¡quina":6633,"ĠTrans":6634,"ejas":6635,"Ġaeropuerto":6636,"dije":6637,"Ġexcep":6638,"ftware":6639,"ĠSolo":6640,"ĠsÃŃmb":6641,"Ġsalido":6642,"yecto":6643,"Ġdesesper":6644,"Ġfrag":6645,"ĠmontaÃ±as":6646,"Ġplano":6647,"Ġactuar":6648,"Ġindependencia":6649,"Cons":6650,"Ġactor":6651,"Ġenca":6652,"eos":6653,"41":6654,"Ġembara":6655,"ĠHon":6656,"Ġhoriz":6657,"ĠiniciÃ³":6658,"Ġconces":6659,"MI":6660,"gin":6661,"Ġculp":6662,"Ġrelativas":6663,"Ġpeg":6664,"Ġpasillo":6665,"Ġrequis":6666,"Ġcabello":6667,"tusias":6668,"ĠmercancÃŃas":6669,"ĠNor":6670,"Ã§":6671,"Ġdivis":6672,"Ġcien":6673,"jÃ³n":6674,"Ġhierro":6675,"Ġdiferencias":6676,"Ġenla":6677,"Ġdisfrutar":6678,"Ġasesinato":6679,"ĠPens":6680,"Ġhabitual":6681,"ĠEnrique":6682,"Ġechar":6683,"Ġprecip":6684,"79":6685,"cientos":6686,"ĠcaÃŃda":6687,"Ġretra":6688,"Ġamenaza":6689,"Ġalquiler":6690,"lÃŃmp":6691,"tral":6692,"ĠPuerto":6693,"Ġdesea":6694,"Ġhem":6695,"Ġguardia":6696,"42":6697,"lantes":6698,"Ġpobreza":6699,"ĠUr":6700,"ĠcrÃŃtica":6701,"ĠPorque":6702,"ĠperdiÃ³":6703,"Ġhablado":6704,"Ġcria":6705,"Ġopon":6706,"Ġefic":6707,"Ġprocedimientos":6708,"edores":6709,"Ġrefor":6710,"ĠEuropeas":6711,"Ġmetro":6712,"ĠEspaÃ±":6713,"terios":6714,"pez":6715,"grad":6716,"estructura":6717,"ĠvÃŃctimas":6718,"Ġentusias":6719,"Ġparticipantes":6720,"uelos":6721,"ĠAsia":6722,"Ġnacimiento":6723,"Ġintercambi":6724,"ĠpreocupaciÃ³n":6725,"ĠProvin":6726,"Ġexpon":6727,"Ġinteligencia":6728,"ey":6729,"ĠoposiciÃ³n":6730,"Ġtorm":6731,"Ġbanco":6732,"ish":6733,"Ġimpul":6734,"Ġleche":6735,"Ġconocimientos":6736,"Ġritmo":6737,"Ġquince":6738,"Ġdedo":6739,"Ġentrega":6740,"Ġgradu":6741,"ĠCreo":6742,"Ġsirve":6743,"Ġnariz":6744,"ĠTan":6745,"idez":6746,"ĠPadre":6747,"jor":6748,"ĠUnidas":6749,"Ġidioma":6750,"Ġaccidente":6751,"Ġhambre":6752,"Ġhumor":6753,"uyÃ³":6754,"ĠGrecia":6755,"Ġcerem":6756,"dencias":6757,"derÃŃa":6758,"43":6759,"caban":6760,"Ġliteratura":6761,"ĠfinanciaciÃ³n":6762,"Ġpista":6763,"vel":6764,"ot":6765,"vestig":6766,"Ġautores":6767,"ĠrepresentaciÃ³n":6768,"Ġacumul":6769,"Ġasi":6770,"ĠFederal":6771,"Ġdichos":6772,"Ġcuyos":6773,"vio":6774,"ĠmÃºlti":6775,"cambio":6776,"fera":6777,"Ġestren":6778,"ĠSara":6779,"iosas":6780,"Ġoccidental":6781,"unes":6782,"Ġestructuras":6783,"Ġepisodio":6784,"ĠfÃ¡cilmente":6785,"chi":6786,"licos":6787,"uelto":6788,"Ġescuelas":6789,"ĠAndr":6790,"Ġbeso":6791,"menes":6792,"Ġdesas":6793,"Ġestudiar":6794,"Ġpacientes":6795,"ĠVilla":6796,"Ġabandonar":6797,"ĠsÃ³l":6798,"tillas":6799,"ĠAsociaciÃ³n":6800,"Ġagricultura":6801,"ĠhablÃ³":6802,"ĠMen":6803,"Ġsemejante":6804,"ĠpresentaciÃ³n":6805,"Ġcambiado":6806,"Ġaltos":6807,"ĠEdi":6808,"ĠAst":6809,"Ġprofunda":6810,"Ġfui":6811,"Ġnacido":6812,"Ġllan":6813,"ĠextraÃ±a":6814,"Ġestablecido":6815,"Ġproducido":6816,"Ġgarganta":6817,"ĠpodrÃ¡n":6818,"Ġcomandante":6819,"-Â¿":6820,"ĠUN":6821,"gente":6822,"ĠBra":6823,"ĠDesarrollo":6824,"Ġatribu":6825,"ĠpermitiÃ³":6826,"Ġsalvar":6827,"ĠVie":6828,"Ġtantas":6829,"Ãºme":6830,"Ġadelan":6831,"undamente":6832,"Ġfactores":6833,"ĠquizÃ¡s":6834,"Cas":6835,"Ġaceler":6836,"ÃŃsima":6837,"Ġbrillante":6838,"Ġvuestra":6839,"Ġhaberse":6840,"pla":6841,"Ġsubir":6842,"ĠEgipto":6843,"Ġsiguen":6844,"Ã³cra":6845,"Ġacontecimientos":6846,"Ġdeba":6847,"Ġsupone":6848,"ĠestarÃ¡":6849,"Ġagradable":6850,"Ġambient":6851,"Ġabogado":6852,"lesc":6853,"Ġtrist":6854,"ĠcontÃ³":6855,"Ġperf":6856,"ĠprÃ¡cticamente":6857,"ĠapariciÃ³n":6858,"Ġmoral":6859,"Ob":6860,"alizÃ³":6861,"diera":6862,"Ġsimul":6863,"pin":6864,"Ġenfermedades":6865,"ĠJim":6866,"Ġ1984":6867,"ant":6868,"istos":6869,"Ġmenores":6870,"uÃ±a":6871,"Ġ36":6872,"gadas":6873,"Ġecus":6874,"Ġobservar":6875,"Ġarchivos":6876,"ĠcÃ³digo":6877,"Ġsexual":6878,"igas":6879,"Ġconvierte":6880,"ieres":6881,"ĠdÃ©bil":6882,"geno":6883,"Ġfinanciera":6884,"Ġlenguas":6885,"Ġgobiernos":6886,"cien":6887,"Ġtarje":6888,"undaciÃ³n":6889,"Ġsonre":6890,"Ġhin":6891,"ferencias":6892,"sula":6893,"ĠcrÃ©dito":6894,"Ġinformes":6895,"murÃ³":6896,"ĠRobert":6897,"ragÃ³n":6898,"Ġ92":6899,"Ġsignificado":6900,"tÃº":6901,"ĠLan":6902,"Ġnoble":6903,"Ġcombust":6904,"ĠIsabel":6905,"Ġmister":6906,"Ġprol":6907,"Ġdeterminados":6908,"ples":6909,"ashington":6910,"usto":6911,"Ġescenario":6912,"ĠnÃºmeros":6913,"ĠalcanzÃ³":6914,"Ġsobres":6915,"84":6916,"edades":6917,"Ġreglamento":6918,"Ġempleados":6919,"Ã©spe":6920,"mios":6921,"ĠDef":6922,"Ã©ro":6923,"Ġdescans":6924,"ĠeconÃ³micos":6925,"Ġequivoc":6926,"PA":6927,"Aquel":6928,"genas":6929,"elipe":6930,"EE":6931,"vido":6932,"Ġdecre":6933,"arnos":6934,"rores":6935,"org":6936,"rey":6937,"Ġoferta":6938,"vangel":6939,"Ã³nimo":6940,"Ãºcar":6941,"Ġarru":6942,"ĠÃ©stos":6943,"Ġcomenzaron":6944,"Ġimpuestos":6945,"Ġadmir":6946,"Ġmodos":6947,"americana":6948,"Ġesencial":6949,"ficientes":6950,"misiÃ³n":6951,"Ġespiritual":6952,"olina":6953,"xil":6954,"Ġausencia":6955,"Ġcomprob":6956,"ĠMonte":6957,"Ġcena":6958,"Ġbotel":6959,"Ãºc":6960,"ganizaciÃ³n":6961,"71":6962,"Ġoportunidades":6963,"Ser":6964,"Dos":6965,"49":6966,"Ġarrastr":6967,"Ġfranceses":6968,"Ġescalera":6969,"Ġmoles":6970,"Ġpedido":6971,"chada":6972,"Ġnegros":6973,"Ġinca":6974,"tamos":6975,"Ġideal":6976,"pidez":6977,"ruguay":6978,"Ġquiso":6979,"Ġgem":6980,"Ġpresiden":6981,"udicial":6982,"Ã³ma":6983,"ĠTele":6984,"ĠJuegos":6985,"dita":6986,"ĠBern":6987,"Ġsospech":6988,"ĠPacÃŃfico":6989,"ĠSen":6990,"Ġmultitud":6991,"ĠuniÃ³n":6992,"Ġelector":6993,"Ġcompa":6994,"ĠSalvador":6995,"Fu":6996,"Ġconsejo":6997,"Ġcopa":6998,"Ġhistorias":6999,"tocolo":7000,"Ġpatio":7001,"Ġregionales":7002,"72":7003,"Ġsabemos":7004,"Ġincen":7005,"Ġenviado":7006,"ĠjudÃŃos":7007,"Ġsiente":7008,"ĠactuaciÃ³n":7009,"Ġcoinci":7010,"Ġelegir":7011,"tedral":7012,"Ġruta":7013,"Ġquieren":7014,"onado":7015,"riel":7016,"ĠdemocrÃ¡":7017,"Ġtextos":7018,"ĠacadÃ©m":7019,"Ġllamaba":7020,"Ã³nico":7021,"amas":7022,"ĠagrÃŃcolas":7023,"ĠVan":7024,"viese":7025,"Ġprovis":7026,"Ġinspir":7027,"esÃŃa":7028,"Ġcm":7029,"ĠmÃ©dicos":7030,"ĠharÃ¡":7031,"ĠOrden":7032,"icaciÃ³n":7033,"Ġarena":7034,"Ġtribu":7035,"Ġfamiliares":7036,"à¸Ģ":7037,"ĠsesiÃ³n":7038,"ĠPremio":7039,"ling":7040,"Ġ1970":7041,"Ġinteresante":7042,"plan":7043,"Ġpude":7044,"ĠAustralia":7045,"ĠJorge":7046,"Ġinterro":7047,"Ġdirigido":7048,"vados":7049,"Ġnecesarias":7050,"Ġgor":7051,"fal":7052,"ĠhÃºme":7053,"Ġprece":7054,"ĠDepartamento":7055,"davÃŃa":7056,"ement":7057,"uestros":7058,"trol":7059,"Ġcuidados":7060,"Ġcapaces":7061,"ĠeconÃ³micas":7062,"Ġconquist":7063,"gano":7064,"Ġveinti":7065,"Ay":7066,"Ġpiensa":7067,"Ġchil":7068,"Ġ)":7069,"Ġresiden":7070,"ĠautomÃ³vil":7071,"Ġvoces":7072,"Ġase":7073,"Ġindis":7074,"Ġluchar":7075,"Ġguitar":7076,"Ġpic":7077,"Ġencer":7078,"Ġtaller":7079,"Ġresca":7080,"Ġpintura":7081,"Ġescog":7082,"xi":7083,"entaciÃ³n":7084,"ries":7085,"Ġinstrumento":7086,"Ġadolesc":7087,"Ġexplos":7088,"Ġescas":7089,"Ġinoc":7090,"Ġdeseaba":7091,"ĠinterpretaciÃ³n":7092,"Ġrazon":7093,"Ġrequer":7094,"Ġinvolu":7095,"LL":7096,"Ġhisp":7097,"Ġconferencia":7098,"ĠYu":7099,"Ġtareas":7100,"Ġbril":7101,"Ġforman":7102,"Ġconsiderar":7103,"Ġsupo":7104,"cionado":7105,"ecciÃ³n":7106,"Estaba":7107,"Ġacaba":7108,"Ġjorn":7109,"orÃ¡n":7110,"Ġrecibe":7111,"ĠcolecciÃ³n":7112,"Ġplen":7113,"ĠintegraciÃ³n":7114,"sin":7115,"Ġdiscurso":7116,"Ġcompartir":7117,"Ġrique":7118,"Ġcorresponde":7119,"lico":7120,"way":7121,"Ġbosques":7122,"Ġperspectiva":7123,"Ġestrella":7124,"Ġconstruido":7125,"Ġcorta":7126,"fonso":7127,"Ad":7128,"Ġigualmente":7129,"Ġligeramente":7130,"CapÃŃtulo":7131,"tora":7132,"ortun":7133,"ĠTri":7134,"rupciÃ³n":7135,"Ġgriego":7136,"Ġcorreo":7137,"Ġ~":7138,"Ġorganismos":7139,"oras":7140,"Ġreales":7141,"medio":7142,"itales":7143,"Ġrespir":7144,"ĠMus":7145,"ĠprÃ©st":7146,"viamente":7147,"Ġexcelente":7148,"Ġaclar":7149,"EstÃ¡s":7150,"Ni":7151,"Ġvag":7152,"Hoy":7153,"ĠdebÃŃan":7154,"Ġequival":7155,"ĠbritÃ¡nico":7156,"ivia":7157,"52":7158,"Ġvuestro":7159,"turalmente":7160,"ĠpÃ¡":7161,"Ġinfin":7162,"tumbre":7163,"americano":7164,"Ġsolicitud":7165,"tramos":7166,"Ġmono":7167,"Ġabsor":7168,"fos":7169,"Ġvenci":7170,"Ġfamoso":7171,"ique":7172,"ville":7173,"Ġactuales":7174,"ĠcientÃŃficos":7175,"Ġalemana":7176,"ĠcuÃ¡l":7177,"Ġcho":7178,"ualmente":7179,"Ġvaya":7180,"ĠcÃ¡rcel":7181,"isten":7182,"bla":7183,"ĠAcademia":7184,"Ġtap":7185,"83":7186,"Ġapertura":7187,"Ġhice":7188,"Ġdeterminadas":7189,"ĠEdu":7190,"paz":7191,"Ġsale":7192,"ĠtÃºn":7193,"Ã©ramos":7194,"Ġ1983":7195,"Ġjuez":7196,"ĠCastilla":7197,"cÃ¡n":7198,"CION":7199,"Ġprohi":7200,"Asimismo":7201,"Ġextranjero":7202,"Ġreloj":7203,"ĠRed":7204,"ĠFrank":7205,"ĠCanadÃ¡":7206,"Ġtriste":7207,"ĠmamÃ¡":7208,"Ġbarcos":7209,"Ġdeterminar":7210,"ĠprÃ³xima":7211,"Ġger":7212,"ĠÃºtil":7213,"ĠtÃŃa":7214,"Ġrequiere":7215,"ĠIS":7216,"ĠtÃŃtulos":7217,"Ġaltas":7218,"Ġperfecto":7219,"Ġcoronel":7220,"wer":7221,"Ġgratu":7222,"?,":7223,"Ġprevisto":7224,"eladas":7225,"ĠTraba":7226,"Ġpoeta":7227,"ĠaprobaciÃ³n":7228,"Ġrevis":7229,"Ġconsiguiente":7230,"tencias":7231,"Ġces":7232,"Ãºp":7233,"cop":7234,"Ġprofundamente":7235,"ĠRichard":7236,"cipl":7237,"Ġcaliente":7238,"sie":7239,"iÃ©ndo":7240,"Ã©lulas":7241,"Ġfotos":7242,"66":7243,"Ġmalo":7244,"itorio":7245,"itaba":7246,"IT":7247,"Ġpp":7248,"ĠBus":7249,"Ġsitios":7250,"ight":7251,"Ġacero":7252,"ade":7253,"rador":7254,"Ġcostumbre":7255,"ĠPri":7256,"ĠclasificaciÃ³n":7257,"Ġalumnos":7258,"Ġrestau":7259,"51":7260,"],":7261,"Ġhun":7262,"ĠdeclarÃ³":7263,"Ġmm":7264,"Ġgrito":7265,"Ġconfes":7266,"ĠlÃ¡":7267,"Ġdemocracia":7268,"ganos":7269,"82":7270,"Ġperiodista":7271,"Ġdominio":7272,"Ġcompra":7273,"Ġrecuperar":7274,"ordenadas":7275,"Ġconfi":7276,"taÃ±a":7277,"ĠPaÃŃses":7278,"ĠMÃ¡s":7279,"ĠLes":7280,"Ġlados":7281,"Ġluces":7282,"ĠobservÃ³":7283,"\").":7284,"Ġmunicipal":7285,"Ġsiguiendo":7286,"ficaz":7287,"roso":7288,"Ã©ticos":7289,"Ġequilibrio":7290,"ĠtecnologÃŃas":7291,"ĠbajÃ³":7292,"Ġvotos":7293,"ĠAustria":7294,"Ġtrop":7295,"Otros":7296,"Vamos":7297,"izados":7298,"ĠEstoy":7299,"81":7300,"ĠÂŃ":7301,"ĠcampeÃ³n":7302,"--":7303,"ĠMedio":7304,"73":7305,"ĠtÃ©cnico":7306,"endas":7307,"Ġexcepto":7308,"Ġromp":7309,"Ġproductor":7310,"Ġreglas":7311,"trop":7312,"viÃ©tica":7313,"Ġintercambio":7314,"Ġmonum":7315,"Ġahor":7316,"pora":7317,"Ġeficaz":7318,"cultad":7319,"ĠMur":7320,"ĠtÃ©":7321,"Ġhermosa":7322,"Ġreciente":7323,"Ġventanas":7324,"sto":7325,"ibe":7326,"Ġquedaron":7327,"Ġpapeles":7328,"Ġpeda":7329,"ĠnÃºc":7330,"ĠfÃŃsico":7331,"Ġjuris":7332,"Ġgracia":7333,"Ġpermanecer":7334,"Ġpiedras":7335,"Dios":7336,"Ġnegociaciones":7337,"ariamente":7338,"alla":7339,"Ab":7340,"Ġavis":7341,"Ġcig":7342,"Ġresultaba":7343,"mann":7344,"Debido":7345,"Ġreglam":7346,"Ġ1982":7347,"ĠmuÃ±":7348,"uth":7349,"Ġdioses":7350,"Ġprisa":7351,"Ġbe":7352,"Ġcaptur":7353,"serv":7354,"Ġaves":7355,"ÃŃble":7356,"US":7357,"ciles":7358,"tadora":7359,"ĠNuevo":7360,"74":7361,"ĠFelipe":7362,"Muy":7363,"Ġflex":7364,"Ġparro":7365,"vie":7366,"tÃ¡ndose":7367,"Ġfelicidad":7368,"cher":7369,"venciones":7370,"53":7371,"Ġtomando":7372,"Ġsuma":7373,"ĠWashington":7374,"ĠMis":7375,"Ġdecidir":7376,"Ġreuniones":7377,"formaciÃ³n":7378,"ÃŃsticos":7379,"epres":7380,"âĢĶ:":7381,"mal":7382,"Ġpura":7383,"Ġbolsillo":7384,"Ġbro":7385,"Ġcerrar":7386,"nal":7387,"Ġlegisla":7388,"ĠdefiniciÃ³n":7389,"ĠNeg":7390,"ĠTar":7391,"Ġexperiencias":7392,"Ġlevantar":7393,"Ġriesgos":7394,"bit":7395,"ĠdiÃ¡logo":7396,"jun":7397,"Ġresidencia":7398,"Ġpieza":7399,"Ġorilla":7400,"ĠSeÃ±ora":7401,"Segu":7402,"Ġtraje":7403,"Ġapos":7404,"Mo":7405,"Ġdiscre":7406,"Ġruso":7407,"Ġcoordenadas":7408,"Ġmodi":7409,"ĠresultÃ³":7410,"Ġnotas":7411,"Ġge":7412,"Ġoriental":7413,"Ġador":7414,"Ġconformidad":7415,"Ġexplica":7416,"Ġdesarrollado":7417,"Ġobispo":7418,"Ġpese":7419,"Ġtemor":7420,"depen":7421,"ĠSab":7422,"ĠcÃ©lulas":7423,"Ġreca":7424,"Ġreh":7425,"tigu":7426,"Ġmicro":7427,"Ġlogrado":7428,"Ġcerv":7429,"Ġaparecer":7430,"ugh":7431,"izan":7432,"Ãºr":7433,"Ġregal":7434,"vino":7435,"jandro":7436,"Ġdelic":7437,"tte":7438,"Ġquedarse":7439,"Ġvacaciones":7440,"ĠAsuntos":7441,"Ġhiciera":7442,"Ġrodillas":7443,"ĠEducaciÃ³n":7444,"Ġdebo":7445,"Ġmag":7446,"ernam":7447,"Ġanal":7448,"Ġacces":7449,"ĠnaciÃ³n":7450,"istema":7451,"ĠprisiÃ³n":7452,"gritÃ³":7453,"ĠagrÃŃcola":7454,"ĠAmb":7455,"ĠtensiÃ³n":7456,"Â³":7457,"Ġsobr":7458,"deos":7459,"Ġletras":7460,"tilidad":7461,"Ġmantiene":7462,"ĠestÃ³ma":7463,"Ġpersonales":7464,"Ġaden":7465,"Ġbasado":7466,"Ġexplicar":7467,"Ġsatisf":7468,"Ġpareci":7469,"Cor":7470,"ĠconexiÃ³n":7471,"Ġamistad":7472,"Ġasimismo":7473,"Ġanteriormente":7474,"ĠlÃŃqu":7475,"ĠBajos":7476,"ĠAf":7477,"Ġllevan":7478,"ĠTengo":7479,"Ġpoderes":7480,"ser":7481,"ĠmostrÃ³":7482,"Ã¡ticas":7483,"CuÃ¡n":7484,"Ġprogram":7485,"Ġecu":7486,"Ġretras":7487,"vieran":7488,"Posteriormente":7489,"ĠSiempre":7490,"Ġileg":7491,"enca":7492,"ĠDiego":7493,"omÃ©":7494,"Ven":7495,"Ġconclu":7496,"Ġadultos":7497,"Ġsoftware":7498,"Ġtuve":7499,"ĠordenÃ³":7500,"ĠConstituciÃ³n":7501,"mula":7502,"Ġactriz":7503,"ĠpÃ¡l":7504,"itivamente":7505,"Ġfacilitar":7506,"Ġverlo":7507,"ĠTÃº":7508,"ua":7509,"Ġcomplejo":7510,"RES":7511,"Ġmantenimiento":7512,"Ġdiplom":7513,"Ġafirma":7514,"Ġpiloto":7515,"vemente":7516,"Ġusa":7517,"orld":7518,"Ġsituaciones":7519,"ĠpromociÃ³n":7520,"ĠacabÃ³":7521,"Ġobligado":7522,"terrÃ¡neo":7523,"ĠCivil":7524,"Ġloco":7525,"Ġpreparado":7526,"Ġsentimiento":7527,"ĠWh":7528,"ĠEntre":7529,"Ġchicos":7530,"ĠcirculaciÃ³n":7531,"ĠvÃŃas":7532,"ĠCON":7533,"Ġretor":7534,"Ġcamisa":7535,"grafÃŃas":7536,"Ġminuto":7537,"landia":7538,"ĠSeguridad":7539,"Ġindividuo":7540,"duras":7541,"Ġpersegu":7542,"Ġinterac":7543,"Ġfirma":7544,"Ġadoptar":7545,"ĠgrÃ¡":7546,"Ġtitular":7547,"Ġsacerdote":7548,"gamos":7549,"Ġrecl":7550,"lement":7551,"Ġid":7552,"Sobre":7553,"ĠfrÃŃa":7554,"54":7555,"Ġsuger":7556,"Ġcaballero":7557,"ĠEm":7558,"Ġvistas":7559,"pongo":7560,"quilla":7561,"Ġ500":7562,"ĠTro":7563,"Ġtos":7564,"Ġpotencial":7565,"olÃ³gicas":7566,"Ġabuela":7567,"Ġtrato":7568,"Ġnieve":7569,"Ġparecen":7570,"Ġagres":7571,"Ġsucedido":7572,"Ġindividuos":7573,"Ġcomprobar":7574,"Ġbronce":7575,"Ġfiguras":7576,"NÃºmero":7577,"ĠVa":7578,"ĠEspÃŃritu":7579,"apones":7580,"Ġaverigu":7581,"Ġenferm":7582,"ĠMichael":7583,"Ġgritos":7584,"Ġcola":7585,"Ġparticularmente":7586,"Ġempieza":7587,"Ġterra":7588,"Ġnecesarios":7589,"Ã©lgica":7590,"Ġdesaparecido":7591,"Ġpertenece":7592,"osamente":7593,"Ġmanifi":7594,"Ġaument":7595,"Ġfren":7596,"Ġmig":7597,"enza":7598,"Ġcreciente":7599,"inam":7600,"ĠconclusiÃ³n":7601,"Ġsuelen":7602,"Ġutilizando":7603,"ridos":7604,"Ġcita":7605,"ĠvenÃŃa":7606,"xem":7607,"Ã³pez":7608,"Ġexces":7609,"ED":7610,"ĠQuer":7611,"Ġvincul":7612,"ĠpasiÃ³n":7613,"tano":7614,"ĠcambiÃ³":7615,"ĠconcentraciÃ³n":7616,"ĠestÃ³mago":7617,"Ġamo":7618,"Ġcorrespondiente":7619,"ĠserÃŃan":7620,"Ġbajar":7621,"ĠmÃ¡r":7622,"Ġexci":7623,"Ġvel":7624,"57":7625,"Ġinmig":7626,"Ġbasada":7627,"Tengo":7628,"Ġprivada":7629,"ĠseÃ±alÃ³":7630,"ans":7631,"ĠvivÃŃa":7632,"Ġapartamento":7633,"Ġterritorios":7634,"Ġlanzamiento":7635,"Ġabuelo":7636,"Ver":7637,"Ġaprendizaje":7638,"Ġenseguida":7639,"ĠCEE":7640,"raron":7641,"Ġexistentes":7642,"Ġviven":7643,"Ġpermiso":7644,"gor":7645,"Ġlegal":7646,"Ġpienso":7647,"Esa":7648,"Ġancho":7649,"Ġreconstru":7650,"ĠcomisiÃ³n":7651,"Ġtestimon":7652,"Ġfemen":7653,"Ġprivi":7654,"guez":7655,"parte":7656,"Ġcertific":7657,"ualidad":7658,"ĠRen":7659,"ĠHun":7660,"ĠpensÃ©":7661,"ony":7662,"ĠDÃŃa":7663,"bus":7664,"tidi":7665,"Ġaliento":7666,"ĠEU":7667,"tle":7668,"rana":7669,"Ġchicas":7670,"Ġcontras":7671,"ID":7672,"Ġ1979":7673,"Tra":7674,"58":7675,"Ġindividual":7676,"Ġplena":7677,"Ġrecuerdos":7678,"eme":7679,"Ġintens":7680,"uelta":7681,"ĠCÃ³r":7682,"uega":7683,"Ġterceros":7684,"Ba":7685,"Ġescrita":7686,"Ġlater":7687,"ĠformÃ³":7688,"Ġincom":7689,"Ġigualdad":7690,"ENTE":7691,"Ġconocidos":7692,"Ġaj":7693,"continuaciÃ³n":7694,"arlos":7695,"ĠTim":7696,"kin":7697,"Ġhoja":7698,"Ġsaben":7699,"wood":7700,"Ġenfoque":7701,"ĠWar":7702,"ann":7703,"mu":7704,"Ġpref":7705,"Ġinvestigaciones":7706,"Ġdrogas":7707,"Gu":7708,"tarle":7709,"Ġcristianos":7710,"uos":7711,"Ġcercano":7712,"nÃ³":7713,"rick":7714,"ĠVirgen":7715,"ĠtrabajÃ³":7716,"Ġsuperiores":7717,"Ġjuventud":7718,"Ġodio":7719,"Ġsecretario":7720,"Ġpromover":7721,"ĠDurante":7722,"Ġculturales":7723,"ionado":7724,"ĠazÃºcar":7725,"ĠsueÃ±os":7726,"Ġdetalle":7727,"Pres":7728,"ctur":7729,"Ġsat":7730,"!,":7731,"Ġescaleras":7732,"Ġuniverso":7733,"Ġpopul":7734,"Ġfuncionarios":7735,"Ġtrabaja":7736,"Ġaceite":7737,"ĠSta":7738,"ĠmÃºltiples":7739,"Ju":7740,"Ġmostrar":7741,"orth":7742,"Claro":7743,"Ġentero":7744,"Ġaport":7745,"ĠEstÃ¡":7746,"ĠjugÃ³":7747,"Ġfiscal":7748,"gulo":7749,"queros":7750,"ĠValle":7751,"yan":7752,"Ġproven":7753,"Ġmeter":7754,"ĠRecord":7755,"ficiencia":7756,"tecciÃ³n":7757,"mis":7758,"laron":7759,"Ġsemi":7760,"Ġhallaba":7761,"ĠdebiÃ³":7762,"Ġesquina":7763,"dol":7764,"ath":7765,"Ġerrores":7766,"Ġlej":7767,"ĠGuar":7768,"ĠpermaneciÃ³":7769,"Ġrecoger":7770,"lice":7771,"Ġira":7772,"ĠplÃ¡":7773,"Ġconcep":7774,"Ġempe":7775,"Ġcolegio":7776,"ombi":7777,"Ġdudas":7778,"blo":7779,"crito":7780,"ĠTam":7781,"Ġcuriosidad":7782,"ingÃ¼":7783,"alizados":7784,"Ġinex":7785,"Ġcomunitarias":7786,"Ġquie":7787,"ĠHasta":7788,"Quer":7789,"ĠsÃº":7790,"Ġbarro":7791,"jal":7792,"ĠAC":7793,"hab":7794,"ites":7795,"Ġindic":7796,"Ġconforme":7797,"damente":7798,"edi":7799,"Ġprocedentes":7800,"Ġrecorrido":7801,"tent":7802,"dill":7803,"titu":7804,"Ġcaza":7805,"ĠKo":7806,"Ġbolsa":7807,"Ġincluido":7808,"Ġasomb":7809,"ĠAdminist":7810,"Ġapoyar":7811,"Ġrecientemente":7812,"Ġllorar":7813,"Ġ1981":7814,"Ġcrimen":7815,"Ġviendo":7816,"Ġhecha":7817,"Ġchar":7818,"Ġpotencia":7819,"ilaciÃ³n":7820,"Ġbases":7821,"Vol":7822,"lados":7823,"ĠIb":7824,"ĠQuizÃ¡":7825,"Ġinvoluc":7826,"ĠnegÃ³":7827,"Ġconvencer":7828,"Ġllegando":7829,"Ġataques":7830,"ĠSociedad":7831,"Ġquerer":7832,"Ġcriterios":7833,"ĠraÃŃz":7834,"ĠSue":7835,"Ġtranspar":7836,"zadas":7837,"acÃŃa":7838,"rista":7839,"Ġtiro":7840,"elle":7841,"Ġconsigo":7842,"camente":7843,"Ne":7844,"Ġpercib":7845,"centa":7846,"letas":7847,"ĠSE":7848,"pren":7849,"Ġdesay":7850,"Ġlargas":7851,"jando":7852,"Ġdecide":7853,"ĠPos":7854,"Ġencontraban":7855,"IC":7856,"ĠLeon":7857,"ĠLeg":7858,"ĠcompaÃ±ÃŃas":7859,"Ġlabora":7860,"ĠhÃ¡":7861,"Ġabst":7862,"Ġesposo":7863,"Ġaparecen":7864,"Ġincluir":7865,"Ġllegaba":7866,"Ġdepende":7867,"Ġutilizan":7868,"ĠUno":7869,"Ġcuyas":7870,"Ġexamen":7871,"ĠestratÃ©":7872,"tiÃ©ndose":7873,"zaban":7874,"ĠpreparaciÃ³n":7875,"Ġvender":7876,"Ġdecor":7877,"Ġpide":7878,"Ġexpertos":7879,"Ãł":7880,"Ġextranjeros":7881,"Ġmutu":7882,"Ġcuantos":7883,"59":7884,"Ġtendencia":7885,"Ġseguida":7886,"ĠUS":7887,"Ġmargen":7888,"Ġtripul":7889,"ĠconservaciÃ³n":7890,"ĠSy":7891,"Ġhistori":7892,"Ġdelan":7893,"yeron":7894,"ĠJun":7895,"citos":7896,"Ã¡lez":7897,"Ġfinanciero":7898,"uti":7899,"ĠLÃ³pez":7900,"ĠenviÃ³":7901,"sk":7902,"Ġpermiten":7903,"trices":7904,"Ġvid":7905,"Ġderrota":7906,"ÃŃficamente":7907,"ĠMartin":7908,"Ġdedicado":7909,"Ġangust":7910,"Nunca":7911,"Ġestric":7912,"Ġinversiones":7913,"zi":7914,"ĠOriente":7915,"Ġciclo":7916,"Ġpresentan":7917,"orio":7918,"ÃŃes":7919,"ĠSub":7920,"vada":7921,"Ġaplicar":7922,"ĠfilosofÃŃa":7923,"Ġcorresponden":7924,"Ġrespectivamente":7925,"Ġdiag":7926,"Ġrespal":7927,"Ġencargado":7928,"Ġtoneladas":7929,"ĠpeticiÃ³n":7930,"Ġlibres":7931,"eamente":7932,"ĠCada":7933,"ĠvolvÃŃa":7934,"Ã£":7935,"ĠelectrÃ³nico":7936,"Ġhorm":7937,"Ġrecuerda":7938,"Ġjapones":7939,"Ġimpro":7940,"Ġgesti":7941,"ĠinÃº":7942,"Ġextin":7943,"Pas":7944,"isos":7945,"Ġversiones":7946,"Ġfortuna":7947,"ĠDist":7948,"Ġom":7949,"ĠPen":7950,"Ġmotiv":7951,"Ġdificultad":7952,"Ġelig":7953,"cÃº":7954,"Ġmeta":7955,"Ġmedalla":7956,"Ġmusul":7957,"ĠEmil":7958,"ĠJulio":7959,"quen":7960,"ĠguÃŃa":7961,"ĠEcu":7962,"Ġviva":7963,"Ġescul":7964,"Ġespejo":7965,"Ġsoldado":7966,"cieron":7967,"Otro":7968,"ĠcÃŃrculo":7969,"Ġprimavera":7970,"Ġhorror":7971,"eria":7972,"ĠsatisfacciÃ³n":7973,"Ġclic":7974,"Ġpromedio":7975,"vÃ³":7976,"ĠaquÃ©":7977,"Ġnormalmente":7978,"ĠÂ«Â¡":7979,"Ġherramientas":7980,"Ġmoneda":7981,"Ġadecuado":7982,"Ġhacerle":7983,"AT":7984,"mith":7985,"Ġopciones":7986,"Ġdeseos":7987,"Ġapresur":7988,"Ġplu":7989,"ĠEstudi":7990,"Ġreferirse":7991,"Ġextrem":7992,"Ġsuficientemente":7993,"ĠHistoria":7994,"ĠestÃ©n":7995,"Ġtengan":7996,"terno":7997,"ear":7998,"ĠValencia":7999,"ĠAh":8000,"Ġprohib":8001,"Ġdiscipl":8002,"rich":8003,"eco":8004,"Ġseguramente":8005,"ĠobstÃ¡":8006,"ij":8007,"Ġhol":8008,"ĠdÃ©cadas":8009,"ĠMunicip":8010,"Ġrango":8011,"ĠhabÃŃamos":8012,"Ġpropiedades":8013,"ĠtratÃ³":8014,"Ġbeneficio":8015,"ĠexplotaciÃ³n":8016,"ĠespectÃ¡culo":8017,"Ġbrus":8018,"Ġimaginar":8019,"Ġsobresal":8020,"Ġrecurso":8021,"ĠrÃŃos":8022,"Ġromper":8023,"Col":8024,"Ġ...":8025,"Ġrestri":8026,"Ġmuseo":8027,"Ġarco":8028,"ĠAlfonso":8029,"ĠcomparaciÃ³n":8030,"Ġhumo":8031,"Ġobede":8032,"Ã¡ce":8033,"ĠBr":8034,"ulaciÃ³n":8035,"iti":8036,"68":8037,"Ġdiferenci":8038,"Ġusuario":8039,"Ġentrevista":8040,"ĠAlgun":8041,"AllÃŃ":8042,"Ġconfun":8043,"ĠON":8044,"ensiones":8045,"Ġcomentarios":8046,"Ġasesino":8047,"ĠAllÃŃ":8048,"Ġbara":8049,"ĠvÃŃctima":8050,"AC":8051,"ximos":8052,"Ġagrup":8053,"well":8054,"iguiÃ³":8055,"Ġinforma":8056,"Ġestan":8057,"ĠBerlÃŃn":8058,"Ġllave":8059,"ĠDr":8060,"iernes":8061,"Ġsentencia":8062,"estro":8063,"Ġabsoluta":8064,"ĠinclinÃ³":8065,"fr":8066,"Or":8067,"Ġcrees":8068,"itan":8069,"Ġsucede":8070,"fan":8071,"Ġdiscul":8072,"Ġarquitectura":8073,"ĠLou":8074,"untamiento":8075,"Ġtradicionales":8076,"Ġ1976":8077,"ĠmÃ¡quinas":8078,"Ġrendimiento":8079,"Ġventaja":8080,"Ġvest":8081,"Ġsubs":8082,"tizaciÃ³n":8083,"Ġpeces":8084,"Ġgraves":8085,"Ġpleno":8086,"Ġabor":8087,"Ġencontraron":8088,"ĠdeberÃŃan":8089,"doba":8090,"ificado":8091,"Ġtim":8092,"Ġlaboral":8093,"Ġrestaurante":8094,"ĠfÃ¡brica":8095,"ĠFondo":8096,"ĠcientÃŃfico":8097,"Ġteniente":8098,"Ġproductores":8099,"Ġtol":8100,"Ġreconocido":8101,"Ġ1978":8102,"Ġviajes":8103,"Ġ1975":8104,"Ġvieron":8105,"Ġpasajeros":8106,"Ġcolumna":8107,"Ġperros":8108,"Nada":8109,"Amb":8110,"istÃ¡n":8111,"Bo":8112,"ĠcontestÃ³":8113,"ĠPolonia":8114,"tive":8115,"ĠPopular":8116,"ĠcariÃ±o":8117,"rones":8118,"irÃ³":8119,"ĠfabricaciÃ³n":8120,"Ġhielo":8121,"Ġconfigu":8122,"Ġvueltas":8123,"Ã©ano":8124,"ensor":8125,"ritos":8126,"lag":8127,"Ġcompens":8128,"ĠKe":8129,"ĠobligaciÃ³n":8130,"Ġdispone":8131,"Ġpoblacional":8132,"Ġvilla":8133,"ĠbebÃ©":8134,"ĠSar":8135,"aÃ±ad":8136,"Ġparlam":8137,"Ġves":8138,"Ġconsta":8139,"carril":8140,"tamentos":8141,"Ġinvesti":8142,"Ġsuspen":8143,"Ġolvidado":8144,"ĠInvestig":8145,"Ġresponsables":8146,"Ġactiva":8147,"Ġindustriales":8148,"ĠAlejandro":8149,"Ġposiciones":8150,"ĠcomposiciÃ³n":8151,"hÃŃa":8152,"Ġquedan":8153,"Ġcoger":8154,"Ġafil":8155,"ĠMundo":8156,"Ġfle":8157,"ĠdueÃ±o":8158,"Ġbiblioteca":8159,"Ġdistinto":8160,"ume":8161,"Ġeti":8162,"ĠaÃ±adiÃ³":8163,"Ġusado":8164,"Ġbordo":8165,"Ġflota":8166,"Ġviejos":8167,"Ġrural":8168,"Ġhago":8169,"Na":8170,"ĠcontemporÃ¡n":8171,"Ġdichas":8172,"Ġvaso":8173,"Ac":8174,"Ġeuropeas":8175,"Ġfinancieros":8176,"Ġdefen":8177,"Ġaman":8178,"Ġoscura":8179,"ĠMinistro":8180,"Ġsalto":8181,"ĠautÃ©ntico":8182,"ĠindÃŃgenas":8183,"rioso":8184,"Ġestablecen":8185,"irecciÃ³n":8186,"Ġmand":8187,"Ġinvitados":8188,"onar":8189,"ĠmontÃ³n":8190,"Ġcostes":8191,"Ġimpedir":8192,"Ġdepos":8193,"Ġ1960":8194,"Ġcabe":8195,"Ġsoluciones":8196,"Ġindu":8197,"avier":8198,"Ġformato":8199,"ĠHor":8200,"Ġinstrucciones":8201,"Ġtraer":8202,"ĠFranco":8203,"Ġentregar":8204,"Ġlicencia":8205,"lÃ³n":8206,"Ġrelativamente":8207,"ĠGonzÃ¡lez":8208,"Ġsociedades":8209,"ĠHit":8210,"Ġbras":8211,"Ġtin":8212,"ĠDos":8213,"Ġtiendas":8214,"mpa":8215,"Ġfutbol":8216,"tuvieron":8217,"Ġciviles":8218,"Ġverla":8219,"ĠTras":8220,"Ġbancos":8221,"ĠDOL":8222,"ze":8223,"Ġsocio":8224,"Ġempezaron":8225,"Bar":8226,"2000":8227,"Ġtotalidad":8228,"trÃ³leo":8229,"ĠTea":8230,"ĠcaÃŃdo":8231,"Ġoficinas":8232,"ristas":8233,"replicÃ³":8234,"1999":8235,"ĠCD":8236,"ĠMary":8237,"Ġespaldas":8238,"Ġenviar":8239,"Ġdesierto":8240,"Ġclaridad":8241,"Ġx":8242,"Ġlargos":8243,"Ġ1977":8244,"ĠCharles":8245,"Ġventas":8246,"ĠThomas":8247,"ĠexplicaciÃ³n":8248,"ĠComis":8249,"ĠBueno":8250,"murmurÃ³":8251,"Ġduque":8252,"Ġcampamento":8253,"mala":8254,"Sa":8255,"Ġinfancia":8256,"Ġdeterminado":8257,"Ġbajas":8258,"Ġ45":8259,"ĠmarÃŃti":8260,"ĠtransformaciÃ³n":8261,"Ġreper":8262,"Ġtasa":8263,"Ġapor":8264,"ĠÃ¡ngel":8265,"mato":8266,"âĢĵ.":8267,"tomas":8268,"Ġrecordaba":8269,"Ġveget":8270,"ĠFestival":8271,"ĠdescubriÃ³":8272,"ĠlÃŃderes":8273,"Ġdign":8274,"Ġargentino":8275,"Ġfactor":8276,"ĠpÃ¡jar":8277,"Ġinterna":8278,"ĠvÃ¡l":8279,"Otra":8280,"ĠMax":8281,"Ġcoste":8282,"65":8283,"Ġdistra":8284,"Ġacceder":8285,"Ġrapidez":8286,"ĠestÃºp":8287,"ĠFederaciÃ³n":8288,"ota":8289,"bras":8290,"Ġllevaron":8291,"itando":8292,"mÃ¡tico":8293,"ĠLuna":8294,"imp":8295,"rie":8296,"................":8297,"ĠincreÃŃble":8298,"Ġmoderna":8299,"Ġincapaz":8300,"ĠsoltÃ³":8301,"erÃŃas":8302,"lando":8303,"stan":8304,"Ġmodifica":8305,"tables":8306,"Ġcaminar":8307,"Ġfronteras":8308,"Ġbailar":8309,"Ġverse":8310,"ĠsalÃŃa":8311,"nia":8312,"Algunas":8313,"AM":8314,"Ġrock":8315,"stein":8316,"ĠapartÃ³":8317,"ges":8318,"Ġsoportar":8319,"Ġronda":8320,".âĢĿ":8321,"Don":8322,"Ġencontramos":8323,"ĠPrin":8324,"Ġesque":8325,"Ġprovincias":8326,"Ġpoblaciones":8327,"greg":8328,"Ġpudieran":8329,"Ġeficacia":8330,"Ġlament":8331,"Ġmedicamentos":8332,"ĠcategorÃŃas":8333,"ÃŃna":8334,"Ġpaisaje":8335,"fael":8336,"Ġroja":8337,"ĠDemo":8338,"ĠMayor":8339,"ĠrespiraciÃ³n":8340,"Ġmonstru":8341,"Muchos":8342,"Ġalcalde":8343,"ĠponÃŃa":8344,"lom":8345,"Th":8346,"Ġcamis":8347,"Ġayer":8348,"urt":8349,"Ġreti":8350,"Ġusando":8351,"Ġnecesitan":8352,"ÃįA":8353,"ĠSra":8354,"ĠLen":8355,"pira":8356,"Ġejemplos":8357,"Ġaparte":8358,"Ġpaseo":8359,"ĠAmeric":8360,"2001":8361,"Ġapag":8362,"Ġprofundidad":8363,"ĠcelebraciÃ³n":8364,"ĠHal":8365,"Ġzar":8366,"till":8367,"ĠÂ«Â¿":8368,"Ġprepara":8369,"Ġrequisitos":8370,"Ġseno":8371,"ĠhabrÃŃan":8372,"Ġrisa":8373,"Ġconsumidores":8374,"FA":8375,"Ġramas":8376,"iemb":8377,"ĠdestrucciÃ³n":8378,"Ġpropa":8379,"Ġconsulta":8380,"tentes":8381,"Ġdespren":8382,"susur":8383,"Deci":8384,"Ġcaminos":8385,"\"\"":8386,"ĠTes":8387,"Ġpaciente":8388,"ĠPÃ©":8389,"Ġtemprano":8390,"Ġcubierto":8391,"Ġplataforma":8392,"ierda":8393,"Ġespacios":8394,"Ġseguros":8395,"64":8396,"BC":8397,"ellos":8398,"ĠdeberÃ¡n":8399,"ĠclÃŃn":8400,"ĠHenry":8401,"ĠSevilla":8402,"Ġherida":8403,"fecto":8404,"Ġestadounidenses":8405,"ther":8406,"exo":8407,"Ġmural":8408,"xemburgo":8409,"grafo":8410,"Ġrespuestas":8411,"ĠCataluÃ±a":8412,"Ġsufrir":8413,"lamos":8414,"ĠexpediciÃ³n":8415,"Ġiniciativas":8416,"ĠPaz":8417,"cismo":8418,"ĠFundaciÃ³n":8419,"how":8420,"ĠcatÃ¡":8421,"ĠXVI":8422,"cran":8423,"rientes":8424,"ĠComer":8425,"Ġperfecta":8426,"rena":8427,"ĠoraciÃ³n":8428,"kov":8429,"Ġbaile":8430,"Ġrealizada":8431,"ĠWe":8432,"Ġaloj":8433,"Ġconcier":8434,"Ġcerrado":8435,"ĠcuÃ¡nto":8436,"Ġrepent":8437,"ĠBÃ©lgica":8438,"enten":8439,"TER":8440,"Ġabsolutamente":8441,"ĠFor":8442,"ĠdaÃ±os":8443,"Ġalm":8444,"Ġauxil":8445,"trina":8446,"Ġabord":8447,"Ġquitar":8448,"entaria":8449,"Jos":8450,"Ġorganismo":8451,"ĠDEL":8452,"risto":8453,"Ġnecesito":8454,"biciÃ³n":8455,"Ġimpulso":8456,"Ġvolvieron":8457,"ĠMed":8458,"ĠLatina":8459,"inamarca":8460,"Ġseco":8461,"Ġquiera":8462,"Ġnervios":8463,"Ġ300":8464,"ĠcoordinaciÃ³n":8465,"Ġadecuada":8466,"Ġpez":8467,"Ġmaterias":8468,"har":8469,"ĠestableciÃ³":8470,"ĠCro":8471,"ĠConferencia":8472,"emor":8473,"bert":8474,"Ġencontrarse":8475,"Ġactivo":8476,"Ġaplicaciones":8477,"mica":8478,"Ġcomponentes":8479,"Ġpistola":8480,"Ġretroce":8481,"ezca":8482,"Ġocupa":8483,"nie":8484,"Ġbille":8485,"Ra":8486,"Ġpopulares":8487,"ĠBon":8488,"Ġpresupues":8489,"Ġcubrir":8490,"ĠJane":8491,"ĠVas":8492,"ĠSha":8493,"Ġmuestran":8494,"ĠdiscusiÃ³n":8495,"Ġdesf":8496,"Ġrenunci":8497,"glesias":8498,"ku":8499,"Ġsujeto":8500,"Soy":8501,"ĠcientÃŃfica":8502,"ĠcÃ©":8503,"Ġparticulares":8504,"Ġdemostrar":8505,"Ġris":8506,"ĠhÃ©ro":8507,"arquÃŃa":8508,"Ġexpuls":8509,"Ġcircu":8510,"Ġdirigir":8511,"ĠXVIII":8512,"cro":8513,"ilos":8514,"Ġcalma":8515,"Ġrepresentante":8516,"culares":8517,"medi":8518,"Ġodi":8519,"Ġtranquilo":8520,"Ġbeber":8521,"ĠrecordÃ³":8522,"Ġpreparar":8523,"ruselas":8524,"ĠpapÃ¡":8525,"SeÃ±or":8526,"Ġtranscur":8527,"ĠcombinaciÃ³n":8528,"Ġchoc":8529,"Ġfundamentales":8530,"Ġformal":8531,"Ġcintura":8532,"Pe":8533,"Ġnoctur":8534,"Ġadicional":8535,"Todas":8536,"drÃŃ":8537,"Ġperdon":8538,"ĠsolÃŃa":8539,"ĠNadie":8540,"acas":8541,"Ġagreg":8542,"Ġgoles":8543,"ĠQuiero":8544,"âĢĵÂ¿":8545,"Ġcultiv":8546,"ĠfenÃ³meno":8547,"laciones":8548,"Ġhumil":8549,"tiera":8550,"Ġrever":8551,"ÃŃnsula":8552,"Ġcantidades":8553,"field":8554,"Ġox":8555,"ĠÃ¡nimo":8556,"Ġatacar":8557,"Naci":8558,"Ġrumb":8559,"icias":8560,"Ġaparato":8561,"ĠUruguay":8562,"Ġcompetencias":8563,"Ġingenier":8564,"Ġconcreto":8565,"ĠexplicÃ³":8566,"Ġreprodu":8567,"mol":8568,"Ġsuici":8569,"erta":8570,"Ġcortes":8571,"Ġantiguas":8572,"ĠadhesiÃ³n":8573,"ĠTre":8574,"ĠsentÃŃ":8575,"tenta":8576,"Tom":8577,"chado":8578,"Ġdor":8579,"Ġvale":8580,"Ġhermanas":8581,"Ġcandidato":8582,"Ġcastel":8583,"ĠofreciÃ³":8584,"ĠacompaÃ±ado":8585,"ĠaÃ±adir":8586,"ĠVil":8587,"Ġllevaban":8588,"Ġtron":8589,"ĠGil":8590,"ĠfundaciÃ³n":8591,"onÃŃa":8592,"Ġmarcas":8593,"ĠIncluso":8594,"Ġhaces":8595,"Ġdictamen":8596,"Ġboda":8597,"ĠinnovaciÃ³n":8598,"Ġtrono":8599,"basti":8600,"ĠsofÃ¡":8601,"Ġ85":8602,"ĠFon":8603,"ĠÃ³rgano":8604,"Ġrelacionadas":8605,"win":8606,"Ġdefinitiva":8607,"Ġdomingo":8608,"ĠSÃ©":8609,"Ġcargos":8610,"Ġonce":8611,"Ġdebut":8612,"Ġsombras":8613,"donos":8614,"ĠperiÃ³dicos":8615,"Ġirri":8616,"ĠSaint":8617,"TULO":8618,"unciÃ³n":8619,"Ġaga":8620,"Ġeliminar":8621,"ĠseÃ±ales":8622,"Ġcontrad":8623,"Ġ32":8624,"ĠCÃ³rdoba":8625,"ĠHam":8626,"Ġuniforme":8627,"ĠcrÃ©ditos":8628,"ĠCorte":8629,"CAP":8630,"Ġ1973":8631,"ald":8632,"Ġcientos":8633,"aÃ±adiÃ³":8634,"utÃ³":8635,"Ġartifici":8636,"Ġdescrito":8637,"ander":8638,"ĠTV":8639,"pers":8640,"ĠsÃŃntomas":8641,"Ġcursos":8642,"Ġoficialmente":8643,"Ġliga":8644,"ĠinstalaciÃ³n":8645,"Ġtub":8646,"Ġcumplimiento":8647,"ĠsirviÃ³":8648,"Ġcumple":8649,"ĠdescripciÃ³n":8650,"oroeste":8651,"Ġinfantil":8652,"Ġfich":8653,"drÃŃguez":8654,"Ġsentada":8655,"ĠTex":8656,"Ġalcohol":8657,"ĠChi":8658,"lle":8659,"Ġlum":8660,"mÃ¡ticas":8661,"Ġexclusivamente":8662,"leto":8663,"Ġtelevis":8664,"Ġitaliana":8665,"Ġumbr":8666,"ĠEu":8667,"Ġpecado":8668,"Ġespero":8669,"atemala":8670,"Ġgui":8671,"Ġqueremos":8672,"Ġdormitorio":8673,"Ġobligaciones":8674,"Ġporcenta":8675,"Cam":8676,"Ġnaciones":8677,"Ġintensidad":8678,"ĠFÃºtbol":8679,".[":8680,"ĠceÃ±o":8681,"ĠuniÃ³":8682,"ĠPers":8683,"Ġevidencia":8684,"ÃŃb":8685,"ĠelaboraciÃ³n":8686,"Ġestrecha":8687,"Ġinvad":8688,"arÃŃan":8689,"Ġcelebra":8690,"Mal":8691,"ĠCiencias":8692,"Ġcampeonato":8693,"Ġmedicina":8694,"ĠTemp":8695,"Ġconducta":8696,"Ġsimb":8697,"Ġprogreso":8698,"ĠadaptaciÃ³n":8699,"Ġprestig":8700,"Ġturismo":8701,"ĠsucediÃ³":8702,"Ġdiputados":8703,"ĠpetrÃ³leo":8704,"dirse":8705,"ĠcuÃ¡ndo":8706,"ĠRic":8707,"Ġbotella":8708,"Ã£o":8709,"Ġarres":8710,"Ġamante":8711,"ĠSuiza":8712,"ĠintroducciÃ³n":8713,"Ġorgullos":8714,"Ro":8715,"Emp":8716,"Ġsolar":8717,"Ġalas":8718,"ĠampliaciÃ³n":8719,"ĠCoo":8720,"ĠgirÃ³":8721,"ĠEconÃ³mica":8722,"Ġenormes":8723,"Ġdol":8724,"Ġnecesitar":8725,"juntivo":8726,"elaciones":8727,"baciÃ³n":8728,"Ġmunicipios":8729,"abilidades":8730,"Ġmaneras":8731,"ĠGro":8732,"Ġcuarta":8733,"Ġbatal":8734,"domin":8735,"Ġsuperviv":8736,"ĠfÃ³r":8737,"venio":8738,"Ġpasaron":8739,"Ã©sar":8740,"tarlo":8741,"tistas":8742,"aman":8743,"ĠIndust":8744,"Ġcausas":8745,"1994":8746,"Ġsubjuntivo":8747,"ĠhistÃ³rica":8748,"sol":8749,"Ġdesc":8750,"Ġconstituyen":8751,"Ġvoto":8752,"pic":8753,"Ġposteriores":8754,"Ġrecep":8755,"din":8756,"udos":8757,"ĠVi":8758,"Ġverte":8759,"Ġpersonalidad":8760,"Am":8761,"ĠcasÃ³":8762,"Ġpermitido":8763,"camiento":8764,"Ġfundada":8765,"bro":8766,"abo":8767,"Ġhuesos":8768,"Ġconsa":8769,"ĠMark":8770,"ĠNada":8771,"luy":8772,"Ġinjust":8773,"ternidad":8774,"SI":8775,"ema":8776,"ĠEse":8777,"ĠAri":8778,"Ġcontado":8779,"Ġresiduos":8780,"67":8781,"ianas":8782,"Ġcorrespondientes":8783,"Ġestadio":8784,"Ġimagin":8785,"Ġavance":8786,"Ġproclam":8787,"ilip":8788,"Ġresi":8789,"dest":8790,"af":8791,"ĠArtes":8792,"Ġaviones":8793,"Has":8794,"Ġcigar":8795,"rial":8796,"Ġolvidar":8797,"ĠFernÃ¡ndez":8798,"Poco":8799,"Ġmapa":8800,"Ġpropone":8801,"**":8802,"Ġgub":8803,"Ġbandera":8804,"ĠvÃŃdeo":8805,"Ġcontener":8806,"Ġacre":8807,"burg":8808,"iner":8809,"Ġtru":8810,"Ġsentirse":8811,"Ġnuclear":8812,"ĠautÃ³n":8813,"ĠEL":8814,"DAD":8815,"Ġcreada":8816,"Ġsel":8817,"ĠnÃºcleo":8818,"Ġpausa":8819,"Ġalegre":8820,"Ġmuro":8821,"Ġpudieron":8822,"ĠDoc":8823,"ĠretirÃ³":8824,"icaciones":8825,"ĠcontinÃºa":8826,"Ġclan":8827,"Ġapla":8828,"Ġmental":8829,"Ġdesplaz":8830,"ĠPalacio":8831,"Ġtea":8832,"ĠDra":8833,"Ġdecis":8834,"Ġtransmi":8835,"ĠVar":8836,"Ġriqueza":8837,"ĠJunta":8838,"ĠCat":8839,"ĠimportaciÃ³n":8840,"Ġdesconocido":8841,"Ġabur":8842,"Ġesclavos":8843,"Ġtercero":8844,"ĠRevoluciÃ³n":8845,"Ġinteligente":8846,"ĠÃ¡rabe":8847,"CAL":8848,"usal":8849,"old":8850,"Ġindividuales":8851,"Ġinsul":8852,"ilas":8853,"Ġsob":8854,"Ġblancas":8855,"Ġocupado":8856,"Ġofrecen":8857,"ĠPolÃŃtica":8858,"ĠAlberto":8859,"Ġllamadas":8860,"Ġobserva":8861,"Ġdesgracia":8862,"ĠfotografÃŃa":8863,"ĠIslas":8864,"esas":8865,"Ġintr":8866,"Ġentiendo":8867,"Ġrepublic":8868,"Ã±e":8869,"inete":8870,"Ġcruel":8871,"ĠvÃŃn":8872,"Ġinterno":8873,"ĠconcesiÃ³n":8874,"its":8875,"eph":8876,"Ġorgullo":8877,"Ġinn":8878,"igna":8879,"ĠcrÃŃticas":8880,"ĠexpansiÃ³n":8881,"Ġmodern":8882,"Ġmensajes":8883,"ĠEsa":8884,"Ġuniversal":8885,"ĠSt":8886,"hum":8887,"idaciÃ³n":8888,"terÃŃas":8889,"riera":8890,"Ġimplica":8891,"ĠestÃ¡bamos":8892,"Ġneu":8893,"ĠHotel":8894,"ĠOlÃŃmp":8895,"Ġprocur":8896,"Ġdimensiones":8897,"ĠWorld":8898,"Ġestaciones":8899,"Ġequip":8900,"ager":8901,"Ġvigilancia":8902,"ĠDerechos":8903,"ĠÃ³rganos":8904,"Ġfum":8905,"ĠPlaza":8906,"ĠGuad":8907,"Ġtrib":8908,"Ġhidro":8909,"Ġpredi":8910,"Ġinsec":8911,"Ġjuega":8912,"Ġcandidatos":8913,"Ġredon":8914,"Ġtelef":8915,"OL":8916,"ieras":8917,"Ġtemporal":8918,"lvar":8919,"Ġrelato":8920,"quez":8921,"ĠCÃ¡":8922,"Ġmoderno":8923,"iff":8924,"Ġlanzar":8925,"ĠEduardo":8926,"tron":8927,"Ġpapa":8928,"ĠBru":8929,"Ġdeuda":8930,"Ġrepresentan":8931,"Ġconclusiones":8932,"Ġcarro":8933,"larse":8934,"ĠorientaciÃ³n":8935,"ĠBob":8936,"dows":8937,"62":8938,"Ġactores":8939,"Ġbarb":8940,"lora":8941,"Ġincu":8942,"tha":8943,"Ġsufrido":8944,"gÃ¼enza":8945,"Ġconcur":8946,"Ġgras":8947,"Ġverdes":8948,"Ġandar":8949,"Ġamable":8950,"Ġdiscrim":8951,"ĠDec":8952,"ĠRica":8953,"Ġcontinua":8954,"ĠPapa":8955,"ĠhuÃ©spe":8956,"Ġnubes":8957,"Ġpracti":8958,"cita":8959,"enaje":8960,"Ġentidades":8961,"Ġmonas":8962,"Ġveter":8963,"brado":8964,"Ġelevado":8965,"allado":8966,"Ġportugu":8967,"Åį":8968,"ĠdedicÃ³":8969,"ĠHos":8970,"Ġmul":8971,"Ġmanifest":8972,"ĠCÃ¡mara":8973,"Ġdestinado":8974,"Ġpade":8975,"Ġllamas":8976,"Ġdaban":8977,"zones":8978,"ĠGuatemala":8979,"mus":8980,"Solo":8981,"ĠRodrÃŃguez":8982,"Ġproporcionar":8983,"dicas":8984,"Ġintim":8985,"ĠsÃŃmbolo":8986,"piÃ©":8987,"Ġacercarse":8988,"Ġtela":8989,"Ġimperial":8990,"Ġceremonia":8991,"Ġabandonado":8992,"pole":8993,"ĠÃ¡mb":8994,"Ġfunciona":8995,"Ġsesenta":8996,"Ġserp":8997,"AP":8998,"Ġcura":8999,"Ġentidad":9000,"Ġintelectual":9001,"TenÃŃa":9002,"Ġfederal":9003,"69":9004,"laci":9005,"Ġexpec":9006,"Ġelectri":9007,"Ġestuvieron":9008,"ĠBretaÃ±a":9009,"Ġ1974":9010,"ĠsubiÃ³":9011,"Ã³ptero":9012,"Ġcomuna":9013,"ĠOrganizaciÃ³n":9014,"Ġgua":9015,"ĠPrograma":9016,"ueve":9017,"Siempre":9018,"Ġfiestas":9019,"ĠPues":9020,"Ġordenador":9021,"Ġrumbo":9022,"Ġfama":9023,"Ġroca":9024,"Ġges":9025,"ĠParque":9026,"ĠgritÃ³":9027,"Ġreferente":9028,"Ġsovi":9029,"Ġdestaca":9030,"eral":9031,"Ġenvol":9032,"Do":9033,"ĠadopciÃ³n":9034,"Ġsabido":9035,"ĠDal":9036,"ĠemociÃ³n":9037,"ĠpoesÃŃa":9038,"menta":9039,"ĠOn":9040,"the":9041,"Ġvay":9042,"Ġembaj":9043,"Ġllamados":9044,"dones":9045,"ĠLea":9046,"iena":9047,"Ġindios":9048,"ĠdesapareciÃ³":9049,"Ġorganizado":9050,"Ġcocin":9051,"Ġabiertos":9052,"Ġrelacionado":9053,"Ġ33":9054,"Ġpantalones":9055,"Tienes":9056,"Ġprofun":9057,"Ġdespertar":9058,"Ġmascul":9059,"ĠNeces":9060,"Ġconsideraba":9061,"Ġreligiosa":9062,"Ġvos":9063,"ĠAntes":9064,"ĠdimensiÃ³n":9065,"ĠexistÃŃa":9066,"ĠPlata":9067,"IB":9068,"Ġbarra":9069,"ĠÃŃndice":9070,"ĠPra":9071,"Ġcuchillo":9072,"Ġfija":9073,"Ġfib":9074,"Prim":9075,"vimos":9076,"Ġformando":9077,"ings":9078,"Ale":9079,"traciÃ³n":9080,"ĠWol":9081,"ĠlÃ³gica":9082,"Can":9083,"questa":9084,"ĠStar":9085,"Ġzapatos":9086,"Ġmoverse":9087,"Ġquem":9088,"Ġjer":9089,"Ġtera":9090,"Ġaer":9091,"ĠZa":9092,"Ġtumba":9093,"Ġparar":9094,"Ġara":9095,"ĠhipÃ³":9096,"Ġexil":9097,"EA":9098,"CIONES":9099,"Ġcorpor":9100,"ĠalzÃ³":9101,"Ġcarca":9102,"cidentes":9103,"Ġimpuesto":9104,"Ter":9105,"tadura":9106,"Ġazules":9107,"ison":9108,"Ġfortaleza":9109,"ĠSco":9110,"Ġtabla":9111,"Ġllegan":9112,"trar":9113,"Ġfracas":9114,"Ġanciano":9115,"Ġaudiencia":9116,"Ġmandato":9117,"chez":9118,"Ġvengan":9119,"Ġdices":9120,"ĠMoscÃº":9121,"mÃ³s":9122,"quero":9123,"Ġplato":9124,"Ġcompuesta":9125,"Ġconvencido":9126,"-Â¡":9127,"Ġquit":9128,"ĠBruselas":9129,"Ġencam":9130,"Ġconozco":9131,"istiÃ³":9132,"Ġconducir":9133,"ii":9134,"ĠabandonÃ³":9135,"ĠcolocÃ³":9136,"Ġtriunfo":9137,"Ġnove":9138,"Ġdestruir":9139,"Ġhabido":9140,"Ġrico":9141,"61":9142,"ĠAD":9143,"bulo":9144,"ĠhÃ¡b":9145,"ĠtÃ©cnicos":9146,"63":9147,"Ġdescanso":9148,"ee":9149,"Ġapariencia":9150,"Ġabsur":9151,"Ġhabilidad":9152,"Ġcuero":9153,"Ã¡rselo":9154,"ĠpreguntÃ©":9155,"Ġhuir":9156,"Ġtristeza":9157,"Ġrenta":9158,"Ġocurrir":9159,"Ġempezaba":9160,"TR":9161,"Ġlanza":9162,"ĠmoviÃ³":9163,"Ġbasa":9164,"Ġintenta":9165,"Ġentusiasmo":9166,"Ġprimo":9167,"ĠbritÃ¡nica":9168,"cientes":9169,"Ġcabezas":9170,"ĠSoviÃ©tica":9171,"ĠPÃ©rez":9172,"ĠSem":9173,"omba":9174,"entada":9175,"Ġincluidos":9176,"Ġimporte":9177,"Ġutilizados":9178,"Ġpremios":9179,"ĠRamÃ³n":9180,"ĠTeatro":9181,"icion":9182,"iadas":9183,"Ġnovia":9184,"Ġnotable":9185,"vor":9186,"Ġterres":9187,"Ġfacilidad":9188,"Ġplatos":9189,"Ġvib":9190,"Ġdistinta":9191,"Ġcerveza":9192,"ĠSabÃŃa":9193,"ĠDem":9194,"Ġinvestigadores":9195,"Ġpeligroso":9196,"Ġconsideran":9197,"Hola":9198,"Ġtarjeta":9199,"Ã±ez":9200,"Ġacabado":9201,"istencia":9202,"mn":9203,"Ġsustancias":9204,"Ġencab":9205,"ady":9206,"ĠGas":9207,"reza":9208,"millas":9209,"Ġbuques":9210,"Ġdescribe":9211,"Ġdespi":9212,"ĠStu":9213,"urÃŃa":9214,"Ġfruto":9215,"Ġmejillas":9216,"ĠSebasti":9217,"Ġelegante":9218,"Ġcorrecta":9219,"ĠdirÃŃa":9220,"Ġrepos":9221,"Ġfing":9222,"ĠseÃ±ores":9223,"Ġproporciona":9224,"pus":9225,"Ġpresa":9226,"ĠrecuperaciÃ³n":9227,"ĠdifusiÃ³n":9228,"rilla":9229,"ĠFar":9230,"Ġdestro":9231,"line":9232,"Ġsello":9233,"ĠcentÃŃ":9234,"ĠRafael":9235,"Ġescritorio":9236,"Ġvivido":9237,"Ġrein":9238,"Ġbombar":9239,"Ġpierna":9240,"Ġentera":9241,"Ġherido":9242,"gusto":9243,"ĠubicaciÃ³n":9244,"Ġmanip":9245,"ĠLar":9246,"tase":9247,"Ġjugando":9248,"Ġ[[":9249,"Ġmezcl":9250,"Ġdama":9251,"die":9252,"Ġrega":9253,"Ġprisioneros":9254,"cialmente":9255,"uncio":9256,"Ġcober":9257,"Ġtitulado":9258,"ĠMol":9259,"alista":9260,"Ġviajar":9261,"ĠhabÃ©is":9262,"Ġpaquete":9263,"Ġconsiderable":9264,"Ġrecientes":9265,"ĠtraducciÃ³n":9266,"Ġmecanismo":9267,"Ġraro":9268,"Ġvisible":9269,"Ġimpera":9270,"Ġ1972":9271,"Ġtranquila":9272,"ĠCity":9273,"ĠrevisiÃ³n":9274,"Ġconcer":9275,"iense":9276,"zgo":9277,"enco":9278,"toÃ±o":9279,"Ġesfor":9280,"Ġpuro":9281,"Ġnor":9282,"ĠLis":9283,"dadas":9284,"Ġcomentario":9285,"unas":9286,"Ġcampesinos":9287,"for":9288,"Ġizquierdo":9289,"ĠâĢķ":9290,"ĠEle":9291,"Ġregla":9292,"Ġtemporadas":9293,"Ġbandas":9294,"ĠArte":9295,"ĠatmÃ³s":9296,"ĠJerusal":9297,"Ġpintor":9298,"ĠSalud":9299,"Ġenfad":9300,"Ġdefinitivamente":9301,"Ġempresar":9302,"Ġfundado":9303,"Ġauton":9304,"Ã¡les":9305,"Ġacomo":9306,"Ġcontratos":9307,"Ġvivos":9308,"Ġvistazo":9309,"rancel":9310,"Ġconcurso":9311,"Ġdejaron":9312,"Ġreservas":9313,"ĠWeb":9314,"ĠtransmisiÃ³n":9315,"ĠSecretario":9316,"Ġingreso":9317,"Quiero":9318,"Ġcens":9319,"ĠcatÃ³lica":9320,"Ġsesiones":9321,"Ġcercana":9322,"umer":9323,"ĠMedia":9324,"Ġcorrecto":9325,"Ho":9326,"Ġbalance":9327,"Ġmam":9328,"ĠEspaÃ±ola":9329,"Ġdemostrado":9330,"Ġjornada":9331,"Cal":9332,"Ġdijeron":9333,"Ġterren":9334,"Ġ75":9335,"teza":9336,"Ġinesper":9337,"hel":9338,"Ġescudo":9339,"Ġlogra":9340,"ĠHitler":9341,"Ġcontinente":9342,"Ġventajas":9343,".âĢĶ":9344,"bili":9345,"Ġaplica":9346,"Ġcruzar":9347,"Ġvende":9348,"gara":9349,"Ġmemor":9350,"eck":9351,"ĠRoy":9352,"ĠapoyÃ³":9353,"evit":9354,"SS":9355,"estia":9356,"Ġdigital":9357,"Ġmac":9358,"Ġgubernam":9359,"Ġumbral":9360,"Ġcostado":9361,"net":9362,"Ġaldea":9363,"Ġgigantes":9364,"Ġinglesa":9365,"ĠencogiÃ³":9366,"Ġromano":9367,"Ġimpaci":9368,"ĠseguÃŃan":9369,"Ġavanzar":9370,"Ġlatinos":9371,"ĠposesiÃ³n":9372,"fu":9373,"ius":9374,"Ġregalo":9375,"Ġprofesores":9376,"Ġherramienta":9377,"Ġlistas":9378,"Ġcasco":9379,"ĠelÃ©ctrica":9380,"Ġviviendo":9381,"Ġmasas":9382,"Ġdestinados":9383,"Ġconcierto":9384,"ife":9385,"ĠÃ©stas":9386,"ĠcontaminaciÃ³n":9387,"urg":9388,"Quieres":9389,"Ġpac":9390,"Ġcarreras":9391,"bara":9392,"uyendo":9393,"ĠAtlÃ¡n":9394,"Ġafro":9395,"Ġaltitud":9396,"Ġestando":9397,"Ġasesor":9398,"Ġsuperar":9399,"Ġestatal":9400,"Ġsocios":9401,"jadas":9402,"ĠDLL":9403,"ĠobservaciÃ³n":9404,"Ġespan":9405,"Ġfiel":9406,"Ġmejilla":9407,"ĠProvincia":9408,"ĠAten":9409,"rimir":9410,"ĠCaribe":9411,"Ġprincesa":9412,"ionar":9413,"Ġarries":9414,"ĠÃģngeles":9415,"Ġfijamente":9416,"Ġconveniente":9417,"Ġproto":9418,"Ġescritos":9419,"????":9420,"ĠEcuador":9421,"dam":9422,"ĠDinamarca":9423,"Ġascenso":9424,"Ġremedio":9425,"Ġmencionado":9426,"Ġconflictos":9427,"ĠNuestra":9428,"Ġhermoso":9429,"Ġtormenta":9430,"Ġestudiante":9431,"Ġfla":9432,"Ġrasgos":9433,"Ġadicionales":9434,"-,":9435,"Ġcatedral":9436,"Ġrabia":9437,"uestras":9438,"Estudi":9439,"Ã³sitos":9440,"Ġcostumb":9441,"quisiciÃ³n":9442,"Ġtermina":9443,"nto":9444,"Ġhierba":9445,"rosa":9446,"ĠTorre":9447,"Ġhipo":9448,"ĠGreg":9449,"vÃŃ":9450,"Ġgloria":9451,"tuario":9452,"Ġclim":9453,"Ġcomienzos":9454,"ĠSoy":9455,"Ġmoda":9456,"Ġple":9457,"ast":9458,"ĠespecÃŃficas":9459,"Ġcapilla":9460,"Ġcostos":9461,"Ġcombustible":9462,"ĠFal":9463,"Ġcomunitarios":9464,"Ġsencilla":9465,"ĠcomercializaciÃ³n":9466,"Ġempezado":9467,"Ġelectoral":9468,"Ġconsiderada":9469,"onces":9470,"Ġprovocar":9471,"Ġcaballeros":9472,"Ġcreen":9473,"Ġmonedas":9474,"ĠOro":9475,"Ġnutri":9476,"Ġsudor":9477,"Ġgolpes":9478,"Ġempleado":9479,"ĠimaginaciÃ³n":9480,"ani":9481,"ĠAgu":9482,"diciones":9483,"FI":9484,"Ġorganizar":9485,"ĠconsideraciÃ³n":9486,"Ġpublicada":9487,"Eres":9488,"ĠquerÃŃan":9489,"Ġponiendo":9490,"Ġcaz":9491,"BN":9492,"ĠSupre":9493,"Ġdoy":9494,"ĠcomprensiÃ³n":9495,"ĠÃģlvar":9496,"Ġllevando":9497,"Ġintenso":9498,"Ġalber":9499,"Existen":9500,"mita":9501,"Ġsill":9502,"uelve":9503,"ĠinÃºtil":9504,"Ġcuentan":9505,"ucÃŃa":9506,"cesis":9507,"gico":9508,"ÃŃculo":9509,"ĠParecÃŃa":9510,"ĠadoptÃ³":9511,"itada":9512,"Ġalcanzado":9513,"Ġperfil":9514,"Ġcolocar":9515,"Ġdispositivo":9516,"smo":9517,"Ġsemillas":9518,"Ġlocura":9519,"Ġdestacar":9520,"Ġcintur":9521,"Ġruedas":9522,"Ġsuficientes":9523,"Â·":9524,"Ġarrep":9525,"ĠMarina":9526,"ĠMartÃŃnez":9527,"Ġsalieron":9528,"ĠÃŃnti":9529,"Ġejercer":9530,"Ġimperio":9531,"Ġcorona":9532,"ĠCÃ©sar":9533,"ĠAndrÃ©s":9534,"Ġmonte":9535,"ĠmÃ¡g":9536,"Ġhorrible":9537,"ementerio":9538,"Ġemig":9539,"Ġdiga":9540,"Ġ1950":9541,"ĠWa":9542,"tela":9543,"Ġacaso":9544,"Ġdetenido":9545,"ĠexportaciÃ³n":9546,"ĠConvenio":9547,"Ġcerrada":9548,"ĠBien":9549,"ĠTec":9550,"king":9551,"Ġexaminar":9552,"ĠconociÃ³":9553,"uma":9554,"Ġcuadros":9555,"Ġsorprendido":9556,"ĠfundÃ³":9557,"GA":9558,"ĠsorprendiÃ³":9559,"ĠmillÃ³n":9560,"Ġdirige":9561,"Ġculpable":9562,"Ġfrust":9563,"ienta":9564,"ĠTurquÃŃa":9565,"ĠVictoria":9566,"anti":9567,"ĠoÃŃdos":9568,"quÃ©s":9569,"izas":9570,"Ġmexicano":9571,"Ġpresidencia":9572,"Ġmusicales":9573,"Ġreyes":9574,"ĠRod":9575,"Ġmentir":9576,"Ġinevit":9577,"Ġopiniones":9578,"Ġrobo":9579,"ĠMic":9580,"ĠRadio":9581,"Ġestructurales":9582,"ĠOficial":9583,"Ġllaman":9584,"Ġrelev":9585,"Ġaconse":9586,"Ġbrasile":9587,"2002":9588,"Ġvisitantes":9589,"Ġdemonios":9590,"Ġporcentaje":9591,"Ġcomprende":9592,"ĠentregÃ³":9593,"ĠSobre":9594,"Ġincons":9595,"Ġenfermo":9596,"Ġalternativa":9597,"stica":9598,"Ġbala":9599,"Ġasociaciones":9600,"Ã±ada":9601,"Ġrayos":9602,"Ġsanto":9603,"ĠIra":9604,"Ġpru":9605,"Ġapell":9606,"Apro":9607,"ĠMich":9608,"Ġhijas":9609,"polit":9610,"Ġdisim":9611,"Ġconmo":9612,"Ġvemos":9613,"ĠatmÃ³sfera":9614,"Ġmostraba":9615,"ĠMarco":9616,"uerzo":9617,"ĠliberaciÃ³n":9618,"âĢ¦?":9619,"Ġalmas":9620,"ĠMont":9621,"ĠSmith":9622,"ĠIndepen":9623,"illermo":9624,"Ġmagia":9625,"aremos":9626,"Ġvon":9627,"Ġaplas":9628,"Ġsindica":9629,"Ġretirada":9630,"Ġsecundaria":9631,"Ellos":9632,"Ġdiscur":9633,"Ġ1968":9634,"derse":9635,"ĠleÃŃdo":9636,"oluciones":9637,"Ġgrieg":9638,"Ġapoder":9639,"ĠÃŃ":9640,"Ġsombrero":9641,"Ġfundador":9642,"ĠtraÃŃdo":9643,"Ġfechas":9644,"Mon":9645,"Ġporta":9646,"Ġglob":9647,"Ġmod":9648,"ĠocupaciÃ³n":9649,"ĠGrande":9650,"ĠfotografÃŃas":9651,"ĠEsco":9652,"Ġrocas":9653,"ĠDic":9654,"Ġnaves":9655,"ĠEsper":9656,"Ġsuyos":9657,"landÃ©s":9658,"\"Â».":9659,"guardia":9660,"ipo":9661,"IV":9662,"Ġviernes":9663,"Ġpostura":9664,"isco":9665,"Ġguardias":9666,"Ġcontribuir":9667,"Ġdenominado":9668,"jeras":9669,"Ġsonriendo":9670,"ĠcaracterÃŃstica":9671,"Ġentrado":9672,"ĠcontribuciÃ³n":9673,"ĠAma":9674,"MP":9675,"ĠestÃ¡ndar":9676,"Ġreducido":9677,"Ġfracaso":9678,"Ġgim":9679,"ĠAquÃŃ":9680,"Ġdesliz":9681,"ĠpÃ¡rra":9682,"Ġdada":9683,"Ġpretende":9684,"Gran":9685,"Ġaventura":9686,"Ġiniciar":9687,"resiÃ³n":9688,"ĠlatÃŃn":9689,"Ġinund":9690,"viendo":9691,"ĠCorea":9692,"ĠSierra":9693,"Ġdespacio":9694,"melo":9695,"Ġcuento":9696,"Ġobreros":9697,"ega":9698,"far":9699,"Ġmuerta":9700,"Ġsecretos":9701,"Ġdespla":9702,"cÃ©n":9703,"Ġgama":9704,"Ã©rico":9705,"ĠvotaciÃ³n":9706,"cador":9707,"ĠCel":9708,"BI":9709,"ĠinformÃ³":9710,"Ġconstantemente":9711,"ĠreÃºn":9712,"Ġpusieron":9713,"Ġorg":9714,"ÃįTULO":9715,"Ġemociones":9716,"ĠSac":9717,"Ġvienen":9718,"CuÃ¡l":9719,"Ġromanos":9720,"Ã¡nd":9721,"izaciones":9722,"ĠPC":9723,"cenas":9724,"Ġirse":9725,"Ġespecific":9726,"uestas":9727,"Ġrespecta":9728,"dumbre":9729,"Ġlaboratorio":9730,"Ġinfierno":9731,"ĠWindows":9732,"Ġpoderoso":9733,"ĠteÃ³":9734,"Ġemisiones":9735,"mm":9736,"Ġmotores":9737,"ĠBl":9738,"tologÃŃa":9739,"quÃŃn":9740,"Ġimpar":9741,"ĠViv":9742,"ĠRE":9743,"Ġ34":9744,"Ġdepar":9745,"ĠArm":9746,"ĠLima":9747,"anim":9748,"Ġcasti":9749,"xo":9750,"Ġuniversidades":9751,"Ġdesaparecer":9752,"500":9753,"dela":9754,"Ġdrama":9755,"Ġresplan":9756,"Ġlegales":9757,"Ġcasado":9758,"ĠmodificaciÃ³n":9759,"rueba":9760,"Ġprivileg":9761,"entimiento":9762,"Ġprobar":9763,"Ġoriginalmente":9764,"Ġguarda":9765,"tions":9766,"Ġdiputado":9767,"Ġcuerda":9768,"Ġcotidi":9769,"ĠraÃŃces":9770,"Ġsuavemente":9771,"Ġindicar":9772,"ĠLuxemburgo":9773,"ĠharÃ©":9774,"Ġrepetir":9775,"Ġquerida":9776,"ĠespecÃŃficos":9777,"ĠniÃ±as":9778,"Ġdevo":9779,"Ġheridas":9780,"Ġmuestras":9781,"Ġllegue":9782,"ĠalimentaciÃ³n":9783,"presiÃ³n":9784,"uto":9785,"Ġverdaderamente":9786,"100":9787,"Ġinvitado":9788,"Ġsignificaba":9789,"Ġnegras":9790,"ĠAragÃ³n":9791,"Ġpresi":9792,"Ġpastor":9793,"iri":9794,"ĠJefe":9795,"ificada":9796,"ĠPuede":9797,"Ġentrenamiento":9798,"Ġbajos":9799,"Ã¡maras":9800,"Ġfilas":9801,"ters":9802,"parse":9803,"ĠâĢ¢":9804,"Ġsiguieron":9805,"Ġlatino":9806,"talin":9807,"ĠtrasladÃ³":9808,"ĠcorriÃ³":9809,"ĠdesarrollÃ³":9810,"TOS":9811,"ĠCatÃ³":9812,"Ġpertin":9813,"Ġinvent":9814,"2010":9815,"Ġproducen":9816,"susurrÃ³":9817,"ĠsufriÃ³":9818,"Ġvivienda":9819,"Ġplenamente":9820,"ierre":9821,"Ġenmiendas":9822,"ĠStre":9823,"Ġacor":9824,"Ġadvir":9825,"Ġadvers":9826,"Ġescritura":9827,"Ġcanales":9828,"hen":9829,"eciendo":9830,"ebra":9831,"Ġinstantes":9832,"Ġestabilidad":9833,"NA":9834,"Ġtaba":9835,"Ġpira":9836,"Ġmisterio":9837,"Ġcolombi":9838,"Ġvulner":9839,"Ġconductor":9840,"Ġtas":9841,"uk":9842,"Ġimportaciones":9843,"ĠÃ¡mbitos":9844,"Juan":9845,"ĠseÃ±ala":9846,"Ġdemand":9847,"ski":9848,"Ġalrededores":9849,"itiÃ³":9850,"Ġ03":9851,"Ã¡ndolos":9852,"Ġreformas":9853,"ĠprÃ³ximos":9854,"Ġsabor":9855,"Ġidiomas":9856,"Ġcomunicaciones":9857,"dificado":9858,"Sol":9859,"ĠromÃ¡n":9860,"ium":9861,"iriÃ³":9862,"Ġdobl":9863,"Ġjudicial":9864,"Ġjefes":9865,"enny":9866,"ĠÐ":9867,"ĠTiene":9868,"Ġvient":9869,"onos":9870,"pel":9871,"ĠcÃ¡p":9872,"ĠVicente":9873,"Ġafer":9874,"ĠautorizaciÃ³n":9875,"ifa":9876,"Ġculto":9877,"Ġsostenible":9878,"Ġapa":9879,"ĠtendrÃ¡n":9880,"Ġende":9881,"Ġjuven":9882,"mÃ³":9883,"Ġricos":9884,"Ġborra":9885,"ĠWest":9886,"ĠAnna":9887,"Ġintroducir":9888,"Ġ;":9889,"Ġamarillo":9890,"Ġmiradas":9891,"Ġtoler":9892,"ecuciÃ³n":9893,"ĠayudÃ³":9894,"ĠincÃ³mo":9895,"Ġnoroeste":9896,"ĠRub":9897,"Ġentrenador":9898,"Ġpatrimonio":9899,"abeth":9900,"Ġcostumbres":9901,"ĠprofesiÃ³n":9902,"Ġegip":9903,"Ġaduan":9904,"ĠHern":9905,"ĠEdward":9906,"Ġtrabajado":9907,"tÃ¡l":9908,"Ġdespo":9909,"Ġprocede":9910,"ĠBib":9911,"Ġcometido":9912,"hat":9913,"Ġpata":9914,"ĠÃļ":9915,"Ġcultivo":9916,"Ġimportaba":9917,"Ã³nicas":9918,"Ġinmo":9919,"Ġcompletar":9920,"Ġperiodistas":9921,"Ġreba":9922,"ĠinmÃ³vil":9923,"Ġquedaban":9924,"Ġsingular":9925,"Ġfinancieras":9926,"Ġinicialmente":9927,"Ã¡ticamente":9928,"ĠDirecciÃ³n":9929,"Ġchaqueta":9930,"Ġescribe":9931,"Ġbienestar":9932,"Parti":9933,"Ġfachada":9934,"Ġinfraestructura":9935,"urope":9936,"oya":9937,"ĠestudiÃ³":9938,"Hace":9939,"ĠRay":9940,"riles":9941,"1998":9942,"ÃŃso":9943,"ĠLy":9944,"Ġdistinguir":9945,"ĠtransiciÃ³n":9946,"Direc":9947,"ĠrincÃ³n":9948,"Ġ1971":9949,"Ġaterri":9950,"ĠJan":9951,"Ġhabilidades":9952,"ĠcomitÃ©":9953,"Ġdosis":9954,"Ġeconom":9955,"adilla":9956,"Ġcobr":9957,"gaciÃ³n":9958,"Ġciencias":9959,"ĠPolic":9960,"Ġconquista":9961,"trÃŃa":9962,"Ġestrecho":9963,"ĠcarbÃ³n":9964,"ĠTour":9965,"ĠvergÃ¼enza":9966,"Ġ(Â«":9967,"Ġcriatura":9968,"Ġferrocarril":9969,"Ġdormido":9970,"Ġincremento":9971,"ĠquitÃ³":9972,"guera":9973,"Ġmaqu":9974,"ulos":9975,"Ġ1936":9976,"pÃ©":9977,"Ġintentado":9978,"Ã±aba":9979,"estre":9980,"Ġreconoce":9981,"Ġrece":9982,"Ġdeporte":9983,"utas":9984,"ervan":9985,"Ġdescubrimiento":9986,"Ġalivio":9987,"ess":9988,"ponÃ©s":9989,"Ġdefinir":9990,"Ġurbano":9991,"Ġfamosa":9992,"Ġinnov":9993,"ĠcrÃŃtico":9994,"ĠpermitÃŃa":9995,"tipo":9996,"tÃ¡neamente":9997,"ĠPresidencia":9998,"Ġnervioso":9999,"Ġseguimiento":10000,"Ġhuevos":10001,"Ġmecanismos":10002,"ambient":10003,"ĠColegio":10004,"ĠMy":10005,"Ġmarchar":10006,"Ġidentificar":10007,"Ġdispuesta":10008,"Ġcifras":10009,"Ã¡ns":10010,"Ġcastigo":10011,"raban":10012,"ĠGabriel":10013,"ĠotoÃ±o":10014,"ĠAdri":10015,"Ġconserva":10016,"ĠsatÃ©l":10017,"Ġcopias":10018,"Ġgrados":10019,"Ġ38":10020,"mond":10021,"Ġ37":10022,"Ġcenten":10023,"Ġpublicaciones":10024,"ĠInvestigaciÃ³n":10025,"Ġlujo":10026,"Ã¡nchez":10027,"ĠDirector":10028,"Ġincluida":10029,"Ġtalento":10030,"ĠgarantÃŃa":10031,"Ġmanio":10032,"Ġformada":10033,"ĠocÃ©ano":10034,"Ġego":10035,"Ġindependientes":10036,"ĠbritÃ¡nicos":10037,"Val":10038,"Ġconversaciones":10039,"derÃ¡":10040,"chel":10041,"Ġalianza":10042,"Ġexce":10043,"Ġamericano":10044,"Ġasistir":10045,"ĠBay":10046,"Ġsuministro":10047,"Dentro":10048,"ĠconfusiÃ³n":10049,"clar":10050,"Ġlisto":10051,"ĠprogramaciÃ³n":10052,"ĠInforme":10053,"ĠsabÃŃan":10054,"Ġrevistas":10055,"Ġmuros":10056,"ĠapretÃ³":10057,"Ġperj":10058,"Ġpublicidad":10059,"ĠviviÃ³":10060,"Ġdiversidad":10061,"tÃŃas":10062,"%.":10063,"Ġferrovi":10064,"egr":10065,"Ġcombatir":10066,"Ġdeclaraciones":10067,"Ġenfrentar":10068,"Ġflujo":10069,"Ġdiscos":10070,"ĠpatrÃ³n":10071,"Ġsolos":10072,"Ġ1969":10073,"Ġ01":10074,"ĠBolivia":10075,"]]":10076,"Ð°":10077,"Ġtrabajaba":10078,"Cer":10079,"Acaso":10080,"Ġdesvi":10081,"ĠExteriores":10082,"Ġirregular":10083,"Tenemos":10084,"Ġquinto":10085,"ĠinvasiÃ³n":10086,"Ġaguard":10087,"Ġencabez":10088,"Ġconsigue":10089,"Sabes":10090,"Ġintentaba":10091,"Ã©p":10092,"ĠdiÃ³":10093,"Ġcolegas":10094,"Ġguerras":10095,"vita":10096,"vida":10097,"Ġestall":10098,"Ġposiblemente":10099,"Ġsalv":10100,"Ġtumb":10101,"ĠlÃ¡mp":10102,"Ġnatal":10103,"Ġtransport":10104,"Ġtransportes":10105,"ĠaceptÃ³":10106,"Ġderrib":10107,"Ġinfec":10108,"Otras":10109,"Ġdesagrad":10110,"Ġadivin":10111,"Ġpartid":10112,"Ġprovisional":10113,"vangelio":10114,"Ġintu":10115,"Ġvientre":10116,"epresidente":10117,"Ġdiscutir":10118,"ĠtocÃ³":10119,"ms":10120,"ĠprecisiÃ³n":10121,"zob":10122,"Ġafici":10123,"ĠComercio":10124,"Ġhabiendo":10125,"Ġprevia":10126,"ĠcÃ³m":10127,"ĠAdministraciÃ³n":10128,"Ġingleses":10129,"Ġcenar":10130,"Pol":10131,"Ġagre":10132,"Her":10133,"cht":10134,"Ã¢":10135,"Ġaliados":10136,"usta":10137,"tÃŃan":10138,"Ġconciertos":10139,"Ġfutbolista":10140,"Ġtrabajan":10141,"Os":10142,"Ġrefugio":10143,"ĠPie":10144,"Ġarancel":10145,"Ġreunir":10146,"ĠRosa":10147,"ĠDomingo":10148,"alismo":10149,"Ġedific":10150,"ller":10151,"Da":10152,"ĠciÃ³n":10153,"ĠCarmen":10154,"ĠVin":10155,"Ġsupongo":10156,"ĠseÃ±alar":10157,"pia":10158,"ĠEdad":10159,"Ġfabri":10160,"Ġhispanos":10161,"cales":10162,"Ġligero":10163,"ĠaprobÃ³":10164,"ĠdifÃŃciles":10165,"Ġarreba":10166,"Ġparcial":10167,"Ġdesignado":10168,"Ġcolumnas":10169,"Ġsacerdotes":10170,"aduras":10171,"ĠAR":10172,"Ġpico":10173,"Ġtamb":10174,"ĠmetiÃ³":10175,"vÃ¡":10176,"Ġaprendido":10177,"ĠcelebrÃ³":10178,"ĠRum":10179,"ĠIl":10180,"Ġcubr":10181,"Ġchino":10182,"ory":10183,"Lle":10184,"olÃ¡s":10185,"tarme":10186,"tanos":10187,"ĠGranada":10188,"Ġcompu":10189,"Ã³logos":10190,"Ġmuch":10191,"ĠlÃŃquido":10192,"Ġbasta":10193,"Ġrama":10194,"Ġcinta":10195,"Ġrelativos":10196,"Ġhomenaje":10197,"Ġdeses":10198,"ĠAdam":10199,"mail":10200,"Ġcambia":10201,"Ġ1945":10202,"Ġverti":10203,"ĠespecÃŃfico":10204,"ĠdiseÃ±ado":10205,"ĠmantenÃŃa":10206,"Ġincur":10207,"Ġleve":10208,"Ġtribunal":10209,"ĠmarchÃ³":10210,"alizadas":10211,"ips":10212,"Ġinformaciones":10213,"Ġfascin":10214,"ĠdiscÃŃ":10215,"ĠreconociÃ³":10216,"Ġequivalente":10217,"ĠSala":10218,"Ġcuantas":10219,"Ġrealizados":10220,"Is":10221,"enzo":10222,"Ġcantar":10223,"Ġesencia":10224,"Ġcopia":10225,"Ġdestacan":10226,"Ġsimpl":10227,"Ġhosp":10228,"Ġestrech":10229,"venci":10230,"Ġsepul":10231,"ĠmÃºsculos":10232,"Ġbuque":10233,"ĠafirmÃ³":10234,"dremos":10235,"ĠsÃ¡bado":10236,"Ġbici":10237,"ĠSp":10238,"Ġinteresado":10239,"ĠdeterminaciÃ³n":10240,"?Â».":10241,"ĠLlev":10242,"Ġreconoc":10243,"cripciones":10244,"his":10245,"obo":10246,"Ġrosa":10247,"ledo":10248,"2011":10249,"Ġleal":10250,"Ġpendiente":10251,"Ġrespirar":10252,"Ġvapor":10253,"ĠSuperior":10254,"Ġcristiana":10255,"ced":10256,"econ":10257,"ĠCO":10258,"Ġperpe":10259,"Ġseg":10260,"Ġsolas":10261,"Ġvital":10262,"htm":10263,"Ġune":10264,"Ġventan":10265,"ĠEran":10266,"Muchas":10267,"ĠJerusalÃ©n":10268,"Ġsemin":10269,"Ġescenas":10270,"gol":10271,"paÃ±ÃŃa":10272,"apar":10273,"Ġamp":10274,"ilan":10275,"Ġcrey":10276,"Ġimplement":10277,"Ġracional":10278,"Ġadquirir":10279,"Ĥ¬":10280,"Ġ1940":10281,"Ġoptim":10282,"ĠXVII":10283,"ĠMario":10284,"Ġdesarrolla":10285,"Ġministros":10286,"Ġexpresar":10287,"denal":10288,"ĠclÃ¡sico":10289,"ĠNorm":10290,"Ġarquitecto":10291,"Ġelectricidad":10292,"Ġ400":10293,"Ġcontemplar":10294,"ĠEconÃ³mico":10295,"ĠAir":10296,"./":10297,"Ġespon":10298,"Ġparo":10299,"aragua":10300,"Ġescar":10301,"Ġcabec":10302,"Estamos":10303,"ĠDepor":10304,"Les":10305,"Ġcapacidades":10306,"Ġrele":10307,"Ġreligioso":10308,"Ġeditor":10309,"Ġabrigo":10310,"Ġdedu":10311,"Ġdispuestos":10312,"Ã©ticas":10313,"Ġpiano":10314,"Ġasesinado":10315,"Ġlat":10316,"Ġcrecer":10317,"Ġcifra":10318,"ĠrecepciÃ³n":10319,"Ġcae":10320,"Ġimpre":10321,"Ġinspector":10322,"chen":10323,"Ġhorizonte":10324,"Ġfomentar":10325,"CAPÃįTULO":10326,"ĠMetro":10327,"Ġ?":10328,"Ġjugue":10329,"Ġadoptado":10330,"Ġdedicada":10331,"Ġhalla":10332,"otas":10333,"Ġconsultar":10334,"Ġobtenido":10335,"Reci":10336,"hor":10337,"dimos":10338,"Ġseda":10339,"bablemente":10340,"Ġenro":10341,"Ġactivos":10342,"Ġlento":10343,"Ġcierre":10344,"ĠgrabaciÃ³n":10345,"ĠseparaciÃ³n":10346,"ĠTrabajo":10347,"ĠAnti":10348,"Ġprotagonista":10349,"Ġaguan":10350,".:":10351,"Ġhacemos":10352,"ĠcompeticiÃ³n":10353,"vÃ¡n":10354,"ĠencontrÃ©":10355,"Ġaspir":10356,"ĠcinturÃ³n":10357,"Ã¡menes":10358,"Ġenamor":10359,"gento":10360,"ĠLucas":10361,"Ġoch":10362,"ĠAndal":10363,"amilia":10364,"Ġalegr":10365,"EspaÃ±a":10366,"Ġlunes":10367,"dre":10368,"Neces":10369,"grada":10370,"Ġaltar":10371,"Ġdebes":10372,"Ġala":10373,"ĠServicio":10374,"Ġanf":10375,"jarse":10376,"Ġtrayec":10377,"ĠficciÃ³n":10378,"licas":10379,"enciado":10380,"Ġsaberlo":10381,"Ġnegar":10382,"ĠTel":10383,"ĠRiv":10384,"\";":10385,"UC":10386,"ĠBul":10387,"Ġloca":10388,"Ġcontenidos":10389,"Ġextiende":10390,"ĠCuer":10391,"Ġgravedad":10392,"tarias":10393,"ics":10394,"ĠprovocÃ³":10395,"Ġescolar":10396,"ija":10397,"ĠAra":10398,"Ġsentarse":10399,"Ġmaestros":10400,"sion":10401,"ĠÃĵ":10402,"lana":10403,"Ġcelebrar":10404,"iertamente":10405,"ĠProfes":10406,"Ġsufrimiento":10407,"blar":10408,"ombra":10409,"izos":10410,"Ġdarme":10411,"Ġtransferencia":10412,"Ġofens":10413,"ji":10414,"ĠinterrumpiÃ³":10415,"Ġdeclarado":10416,"igan":10417,"Ã©ndolo":10418,"ĠRico":10419,"Ġdignidad":10420,"ĠMediterrÃ¡neo":10421,"ĠÃºnicos":10422,"ĠMÃ¡":10423,"Ġeco":10424,"Ġampliamente":10425,"ĠEspeci":10426,"Ã³so":10427,"Ġdenunci":10428,"Ġmillas":10429,"acciÃ³n":10430,"ÃŃgenes":10431,"Ġdisciplina":10432,"Ġmodificaciones":10433,"ĠPresiden":10434,"tier":10435,"Ġobservaciones":10436,"Ġexistente":10437,"Ġ>":10438,"Ġpropietario":10439,"ĠSÃ¡nchez":10440,"ĠLibro":10441,"Ġpasada":10442,"gaz":10443,"ĠaproximaciÃ³n":10444,"legÃ³":10445,"ĠprÃ©stamos":10446,"Ġpasan":10447,"Ġaprobado":10448,"Ġcalcul":10449,"Ġrealizan":10450,"uerta":10451,"Ġsorprendente":10452,"Ġetapas":10453,"penas":10454,"sul":10455,"ĠdenominaciÃ³n":10456,"Ġnovelas":10457,"Ġinferiores":10458,"ĠPark":10459,"Ġconstruida":10460,"Ġemergencia":10461,"Ġimperativo":10462,"Ġdiera":10463,"ally":10464,"Ġmonasterio":10465,"ĠPueblo":10466,"ĠconstruyÃ³":10467,"Ġ1967":10468,"ĠNatural":10469,"Ġoriginales":10470,"ĠRicardo":10471,"ecas":10472,"Ġcasarse":10473,"ĠGuillermo":10474,"Ġcentrales":10475,"Ġrid":10476,"gÃ©n":10477,"ĠfirmÃ³":10478,"Ġiguales":10479,"Ġtramo":10480,"ĠCultura":10481,"Ġpatas":10482,"ĠHas":10483,"ĠidÃ©n":10484,"Ġbrillantes":10485,"Ġ1930":10486,"grÃ¡ficas":10487,"Ġanillo":10488,"emin":10489,"rum":10490,"UR":10491,"Ġsincer":10492,"aje":10493,"ĠescuchÃ³":10494,"Ġnegativa":10495,"Ġremon":10496,"umas":10497,"Ġutilizada":10498,"Ġrealizadas":10499,"Ġinsu":10500,"enz":10501,"ĠpartÃŃcu":10502,"Ġpropuesto":10503,"Ġcompositor":10504,"Ġino":10505,"Â©":10506,"ĠSuecia":10507,"Han":10508,"ds":10509,"Ġcosto":10510,"ĠMargar":10511,"Ġmarin":10512,"Ġestreme":10513,"Ġeduc":10514,"ĠdirigÃŃa":10515,"idaridad":10516,"Ġcorrientes":10517,"enzÃ³":10518,"izadas":10519,"Ġviviendas":10520,"Ġtestimonio":10521,"Ġindign":10522,"bilidad":10523,"Ġmelo":10524,"guna":10525,"Tan":10526,"SO":10527,"boa":10528,"Ġseria":10529,"itri":10530,"Ġindirec":10531,"Ġrepresentar":10532,"Ġave":10533,"acos":10534,"Ġseries":10535,"Ġatractivo":10536,"eda":10537,"ĠcaÃ±Ã³n":10538,"Hemos":10539,"ĠDefensa":10540,"Ã³mez":10541,"Ġdesayuno":10542,"iebre":10543,"Ġgato":10544,"Ġperu":10545,"Imp":10546,"AD":10547,"1996":10548,"quilidad":10549,"Ġsul":10550,"kes":10551,"Ġpelea":10552,"ĠsuponÃŃa":10553,"Ġinc":10554,"Ġreforzar":10555,"ĠveÃŃan":10556,"Ġargumento":10557,"Ġderiva":10558,"ĠplÃ¡stico":10559,"comunicaciones":10560,"Pu":10561,"Pens":10562,"dri":10563,"inan":10564,"Ġconceptos":10565,"ĠJavier":10566,"inte":10567,"ridge":10568,"ĠRock":10569,"Ġ00":10570,"ĠAcciÃ³n":10571,"Ġnaturalmente":10572,"Ġdesempleo":10573,"idurÃŃa":10574,"Ġpromesa":10575,"Ġpropuso":10576,"Ġcostas":10577,"Ġdevolver":10578,"ĠFede":10579,"Ġexige":10580,"Ã©ndome":10581,"ĠGracias":10582,"ĠFab":10583,"Ġabar":10584,"TV":10585,"2008":10586,"igual":10587,"ĠBlack":10588,"tÃ¡nico":10589,"Ġestima":10590,"Ġnombra":10591,"Ġreligiosas":10592,"Ġahog":10593,"Ġtemblor":10594,"ĠFri":10595,"ĠHarry":10596,"ĠDol":10597,"Ġadministrativa":10598,"gaban":10599,"onados":10600,"ĠUl":10601,"Ġclubes":10602,"iese":10603,"Ġdivertido":10604,"Ġbrillo":10605,"Ġsentidos":10606,"ĠAlto":10607,"Ġconferencias":10608,"hr":10609,"Ġmierda":10610,"Ġvestidos":10611,"Ġdecirlo":10612,"Ġprede":10613,"bran":10614,"Ġparticipa":10615,"Ġconfiar":10616,"gÃ¼edad":10617,"comentÃ³":10618,"tea":10619,"Ġ93":10620,"Ġinvis":10621,"ĠCin":10622,"Ġmatado":10623,"Ġaparatos":10624,"Sab":10625,"Ġseparado":10626,"ĠincorporÃ³":10627,"Ġdivor":10628,"Ġestrategias":10629,"Ġcalific":10630,"Ġgrabado":10631,"ĠQuerÃŃa":10632,"Ġocultar":10633,"Ġeng":10634,"Ġleyenda":10635,"Ġvencer":10636,"Ġobservaba":10637,"ĠbesÃ³":10638,"ĠEnerg":10639,"Ġpreocupado":10640,"Ġmedias":10641,"ĸł":10642,"Ġconocen":10643,"Ġresidiendo":10644,"Ġcontroles":10645,"ĠZara":10646,"Nuestra":10647,"Ġ150":10648,"ĠNoruega":10649,"guen":10650,"eres":10651,"Ġadmitir":10652,"ĠDie":10653,"inarias":10654,"ĠEjecu":10655,"Ġusan":10656,"thur":10657,"Ġvaci":10658,"Ġquedando":10659,"ence":10660,"Puedo":10661,"ĠRog":10662,"ÃŃz":10663,"ĠpaÃ±":10664,"Ġexhib":10665,"Ġnotar":10666,"Ġcomedor":10667,"ĠCastro":10668,"ĠLle":10669,"locu":10670,"Ġjardines":10671,"hua":10672,"ĠdoÃ±a":10673,"Ġfemenina":10674,"Ġtestigo":10675,"Ġbuscaba":10676,"icago":10677,"ader":10678,"Ġcancel":10679,"ĠUsted":10680,"Ġturb":10681,"ĠbotÃ³n":10682,"ĠAtlÃ¡ntico":10683,"nologÃŃa":10684,"Ġpecados":10685,"Ġbomba":10686,"ĠoÃŃ":10687,"Ante":10688,"Ġpuertos":10689,"Ġhaberlo":10690,"Ġpreviamente":10691,"Ġisrael":10692,"ĠBlanca":10693,"Mad":10694,"ĠpenÃŃnsula":10695,"Ġsoledad":10696,"Ġsatisfacer":10697,"Ġdecreto":10698,"Ġeva":10699,"Ġmediev":10700,"2009":10701,"Ġcanto":10702,"Ġpuntu":10703,"Ġespar":10704,"lamiento":10705,"trans":10706,"ĠÂ»":10707,"Ġochenta":10708,"itivas":10709,"Ġrodeado":10710,"Ġperdida":10711,"Ġprestar":10712,"Ġexca":10713,"Ġexteriores":10714,"ĠLaura":10715,"ĠMauri":10716,"ĠForm":10717,"Ġiglesias":10718,"ĠocupÃ³":10719,"ĠNavidad":10720,"Ġrurales":10721,"Ġaveriguar":10722,"Ġsubsi":10723,"ĠPRO":10724,"Ġ65":10725,"ĠOriental":10726,"ĠVo":10727,"icioso":10728,"Ġcomenzado":10729,"Ġdispositivos":10730,"Ġescuad":10731,"Ġfirmado":10732,"Ġcontrar":10733,"ĠSw":10734,"ĠDistrito":10735,"Incluso":10736,"Ġprolong":10737,"Ġvenganza":10738,"Ġaplicable":10739,"Ġsusp":10740,"ĠlingÃ¼":10741,"Ã©cord":10742,"Ġafron":10743,"Ġfemenino":10744,"isla":10745,"Ġfur":10746,"olos":10747,"VD":10748,"Ġemis":10749,"ĠdesesperaciÃ³n":10750,"Ġcolina":10751,"Ġaudio":10752,"vimiento":10753,"ĠidentificaciÃ³n":10754,"ĠRol":10755,"Ġeno":10756,"Ġjuzgar":10757,"Ġcoher":10758,"ĠBiblia":10759,"Ġlider":10760,"Ġseca":10761,"abora":10762,"Ġsigno":10763,"Ġalcanza":10764,"Ġartill":10765,"Ġexistir":10766,"ĠNick":10767,"ĠjaponÃ©s":10768,"Ġrepercu":10769,"Ġcable":10770,"repuso":10771,"Ġvuestros":10772,"rillos":10773,"CIA":10774,"Ã³st":10775,"ĠSegÃºn":10776,"Ã©mica":10777,"Ġpreserv":10778,"ĠpÃ¡nico":10779,"tti":10780,"Ġsuspiro":10781,"Ġfelici":10782,"Ġanuncio":10783,"Ġsetenta":10784,"pados":10785,"Ġ39":10786,"asen":10787,"pula":10788,"Ġlimitado":10789,"Ġfeder":10790,"Ġmovil":10791,"Ġmete":10792,"ĠcÃ³n":10793,"Ġtaza":10794,"Ġrestaur":10795,"Ġreligiosos":10796,"Ġmanz":10797,"QuizÃ¡":10798,"ĠNicaragua":10799,"Ġconm":10800,"Ġagencia":10801,"ĠLOS":10802,"titudes":10803,"Ġaco":10804,"lov":10805,"Ġcil":10806,"Ġintensa":10807,"ĠasiÃ¡ticos":10808,"Ġcongel":10809,"Ġvacil":10810,"peta":10811,"ĠIgn":10812,"Ġefectivo":10813,"Ġintegrado":10814,"Ġvideoj":10815,"Ġpaciencia":10816,"reste":10817,"ĠmÃ©dica":10818,"ĠVII":10819,"ĠMadre":10820,"gosla":10821,"quetes":10822,"ĠPanamÃ¡":10823,"Ġgala":10824,"Ġrastro":10825,"bÃºs":10826,"laba":10827,"entÃŃa":10828,"Ġenfrentarse":10829,"uci":10830,"Ġesqu":10831,"Ġmedioambient":10832,"Ã©rcol":10833,"Ġanticip":10834,"ĠobligÃ³":10835,"amentos":10836,"ĠCompaÃ±ÃŃa":10837,"ĠOlÃŃmpicos":10838,"Ġincrement":10839,"ĠmÃºsicos":10840,"Ġtabaco":10841,"ĠMira":10842,"Ġterrenos":10843,"ternational":10844,"ĠagarrÃ³":10845,"Ġpositivo":10846,"ĠLeo":10847,"ĠsonreÃŃr":10848,"Ġultra":10849,"ĠFis":10850,"Ġaceptado":10851,"Ġurgencia":10852,"Ġsalvaje":10853,"Ġgritar":10854,"ĠfÃ³rmula":10855,"ĠGuer":10856,"ĠBran":10857,"Ġdictadura":10858,"ĠBoy":10859,"Ġdemuestra":10860,"Ġmalos":10861,"Ġcementerio":10862,"Ġhilo":10863,"Ġcontactos":10864,"ĠvestÃŃ":10865,"ĠFC":10866,"ĠOccidental":10867,"dadores":10868,"Ġdestinadas":10869,"ĠhipÃ³tesis":10870,"Ãļ":10871,"Mas":10872,"ĠQuÃ©":10873,"ĠcruzÃ³":10874,"Vaya":10875,"ĠconsiderÃ³":10876,"1997":10877,"Ġdij":10878,"ĠtripulaciÃ³n":10879,"Ġheridos":10880,"Ġacercaba":10881,"fia":10882,"ĠtÃ¡c":10883,"ĠfusiÃ³n":10884,"jados":10885,"2016":10886,"Ġoficio":10887,"Ġimit":10888,"Ġredac":10889,"ĠconstituciÃ³n":10890,"Ġagricul":10891,"ĠpodrÃŃamos":10892,"traba":10893,"ĠHijo":10894,"AÃºn":10895,"porta":10896,"sel":10897,"Ġresponde":10898,"ĠGobern":10899,"ĠYou":10900,"ĠPolicÃŃa":10901,"Ġdirecciones":10902,"Ġreinado":10903,"Ġarb":10904,"estru":10905,"Ġincap":10906,"Ġmalas":10907,"remo":10908,"ĠStreet":10909,"Ġsoporte":10910,"Ġdescansar":10911,"Ġcorreg":10912,"ĠbahÃŃa":10913,"Ġfinalidad":10914,"ĠElena":10915,"Ġdenominada":10916,"Ġparale":10917,"ĠNicolÃ¡s":10918,"Ġasumir":10919,"cidentales":10920,"ĠfilÃ³so":10921,"ĠAgencia":10922,"Ġcontestar":10923,"Ġnad":10924,"Ġpersonalmente":10925,"Ġingeniero":10926,"Ġlector":10927,"quista":10928,"ĠDemocrÃ¡":10929,"itÃ¡n":10930,"Ġadv":10931,"Ġeditorial":10932,"Ġllenos":10933,"Ġroto":10934,"Ġtestigos":10935,"Ġnerviosa":10936,"Ġabaste":10937,"Î±":10938,"Ġresultar":10939,"lim":10940,"paÃ±as":10941,"Ġcaras":10942,"Ġdesastre":10943,"Ġcolonia":10944,"ĠRoberto":10945,"Ġhec":10946,"ĠIsla":10947,"dilla":10948,"Ġfarma":10949,"Ġfuria":10950,"vez":10951,"Ġcicl":10952,"Ġjub":10953,"ronto":10954,"ĠindicÃ³":10955,"dÃ©":10956,"Ġconsejos":10957,"tto":10958,"Ġoscuras":10959,"ĠproporciÃ³n":10960,"endario":10961,"Ġrebo":10962,"ĠpertenecÃŃan":10963,"idal":10964,"Ġevent":10965,"Ġ1964":10966,"ĠInst":10967,"Ġsonidos":10968,"Ġinac":10969,"%,":10970,"mag":10971,"ĠtenÃŃamos":10972,"diz":10973,"Ġpost":10974,"ĠvolverÃŃa":10975,"Ġguitarra":10976,"Ġpagos":10977,"Ġmanus":10978,"tell":10979,"ĠOeste":10980,"Ġ95":10981,"ĠAngel":10982,"Ġfrutos":10983,"Ġhallar":10984,"Ġsupre":10985,"ĠAlgunos":10986,"rumb":10987,"ĠViena":10988,"Ġfresco":10989,"Ġbella":10990,"Ġcuesta":10991,"Ġpregunto":10992,"Ġfuncionar":10993,"ĠJoseph":10994,"Ġcelebrado":10995,"ĠcÃ¡maras":10996,"Ġintenciones":10997,"Ġrestaurantes":10998,"pp":10999,"Ġescritores":11000,"aÃ±os":11001,"Ġdifun":11002,"umbre":11003,"Ġentendido":11004,"Ġfavorable":11005,"Ġazo":11006,"inales":11007,"Ġsaque":11008,"ĠSecretarÃŃa":11009,"Ve":11010,"afirm":11011,"uz":11012,"ĠSistema":11013,"ĠcentÃŃmetros":11014,"ezol":11015,"ĠquedÃ©":11016,"Ġdebil":11017,"Ġprioridad":11018,"Ġconvento":11019,"Ġreson":11020,"Traba":11021,"Ġromana":11022,"Ġinstitucional":11023,"Ġfro":11024,"Ġsolitario":11025,"ĠextendiÃ³":11026,"Ġmadru":11027,"Ġjuntas":11028,"ĠperdÃ³n":11029,"ĠDom":11030,"Ġexclu":11031,"ĠJoe":11032,"John":11033,"Ġlav":11034,"Ġguardar":11035,"Ġnormativa":11036,"ĠcomprendiÃ³":11037,"mirante":11038,"ĠHungrÃŃa":11039,"gentes":11040,"Ġmantenido":11041,"ĠpÃ¡rrafo":11042,"Ġdeliber":11043,"Ambos":11044,"ĠModificado":11045,"Ġmueca":11046,"Ġtranquilidad":11047,"ĠrÃ©cord":11048,"Ġcurva":11049,"drÃ¡n":11050,"Ġcasta":11051,"ĠLatino":11052,"Ġguion":11053,"Ġhoteles":11054,"Ġdesembar":11055,"Ġparal":11056,"Ġentiende":11057,"Ġalmacenamiento":11058,"ĠdesapariciÃ³n":11059,"Ġ#":11060,"ĠpuÃ±":11061,"ĠXIII":11062,"dell":11063,"ĠPin":11064,"Ġsignos":11065,"Esper":11066,"Ġentreten":11067,"Ġ1966":11068,"Nosotros":11069,"Ġvela":11070,"Nuestro":11071,"quito":11072,"ĠbaÃ±":11073,"Ġhorizon":11074,"ĠdarÃ¡":11075,"Ġ1944":11076,"ĠSantos":11077,"sy":11078,"Ġparroquia":11079,"Ġmostrado":11080,"ĠvacÃŃa":11081,"naci":11082,"ĠobstÃ¡culos":11083,"Ġaprovechar":11084,"1995":11085,"IO":11086,"Ġhech":11087,"organ":11088,"Ġreaccion":11089,"ĠprevenciÃ³n":11090,"ĠGlo":11091,"ĠPi":11092,"Ġ48":11093,"Ġconocidas":11094,"Ġatribuy":11095,"Ġsometer":11096,"tornos":11097,"ĠbÃ¡sicos":11098,"Ġinstituto":11099,"ĠquÃŃmica":11100,"alquier":11101,"ĠDipu":11102,"ester":11103,"umb":11104,"Ġhumedad":11105,"ĠRecords":11106,"Bus":11107,"Ġligera":11108,"ĠKing":11109,"Ġrelie":11110,"ĠFacultad":11111,"tito":11112,"Ġprivadas":11113,"ĠCastillo":11114,"ĠmetÃ¡l":11115,",\"":11116,"Ġinsign":11117,"ayo":11118,"ĠmÃŃnima":11119,"tita":11120,"Ġmanejo":11121,"Ġinyec":11122,"Ġconjun":11123,"Ġ1939":11124,"Sh":11125,"ĠRegional":11126,"Ġfusil":11127,"ule":11128,"pista":11129,"Ã³lver":11130,"Ġcuenca":11131,"ĠISBN":11132,"ĠGÃ³mez":11133,"ĠvolvÃŃ":11134,"ĠcrÃŃticos":11135,"Ġchis":11136,"especi":11137,"ĠAll":11138,"tuoso":11139,"Ġtorpe":11140,"Tanto":11141,"ĠsuspirÃ³":11142,"Ġcero":11143,"Ġenlace":11144,"Ġhero":11145,"uera":11146,"Ġmodal":11147,"ĠFinlandia":11148,"Ġafecta":11149,"Nadie":11150,"ĠJoa":11151,"ĠdurÃ³":11152,"ĠexplosiÃ³n":11153,"une":11154,"ĠcorrupciÃ³n":11155,"MEN":11156,"jara":11157,"doc":11158,"ĠsurgiÃ³":11159,"ĠfalleciÃ³":11160,"Ġprivados":11161,"ĠVamos":11162,"tÃºan":11163,"Ġprole":11164,"1992":11165,"Ġvit":11166,"ĠArch":11167,"ĠPes":11168,"ganda":11169,"itores":11170,"ÃŃsmo":11171,"estructuras":11172,"Ġcondujo":11173,"Ġruidos":11174,"Ġamenazas":11175,"Ã©rcitos":11176,"ĠProtocolo":11177,"landes":11178,"Ġhogares":11179,"izabeth":11180,"Ġimpac":11181,"Ġexpresa":11182,"Ġmetido":11183,"Ġarreglar":11184,"Ġtesis":11185,"entre":11186,"Ġlimpieza":11187,"Ġzo":11188,"Ġtejido":11189,"Ġhablan":11190,"Ġhumanas":11191,"Ġruinas":11192,"Ġentraron":11193,"oreste":11194,"ĠnotÃ³":11195,"uj":11196,"eng":11197,"ĠMr":11198,"ĠCir":11199,"ĠjurÃŃdica":11200,"Ġdescribir":11201,"ablos":11202,"Ãĳ":11203,"Ġfrecuentemente":11204,"2006":11205,"andra":11206,"ĠclÃ¡sica":11207,"ĠAlgo":11208,"Ġsobrevivir":11209,"ĠrÃŃg":11210,"2015":11211,"Ġfuertemente":11212,"Ġunirse":11213,"Ġintercambios":11214,"ĠPap":11215,"Ġtern":11216,"Ġapas":11217,"ĠcampaÃ±as":11218,"acimiento":11219,"Junto":11220,"ĠCarta":11221,"ĠrevÃ³lver":11222,"Ġexager":11223,"iblemente":11224,"Ġdescenso":11225,"Ġpatria":11226,"Ġtercio":11227,"Ġestal":11228,"Ġasociados":11229,"incl":11230,"nar":11231,"ĠStalin":11232,"ĠvestÃŃbulo":11233,"Ġintervenciones":11234,"Ġamanecer":11235,"osiciones":11236,"Ġdoctrina":11237,"tibles":11238,"Ġoreja":11239,"ĠmovÃŃa":11240,"Ġagujero":11241,"FE":11242,"urias":11243,"Ġnovio":11244,"Ġprimaria":11245,"ĠCanal":11246,"Ġencuentros":11247,"Ġguerreros":11248,"Ġsimples":11249,"Ġaplicables":11250,"sch":11251,"Ġtoca":11252,"Ġcompromisos":11253,"ĠhÃ¡bita":11254,"ezÃ³":11255,"ĠhistÃ³ricos":11256,"Ġresidentes":11257,"Ġtendencias":11258,"than":11259,"Ġmencionar":11260,"Ġpredomin":11261,"age":11262,"UI":11263,"udio":11264,"grÃ¡ficos":11265,"Ġfila":11266,"Ġret":11267,"Ġtrate":11268,"Ġmentira":11269,"Ġ1965":11270,"Ġambiental":11271,"tecas":11272,"ĠTeresa":11273,"ĠvivÃŃan":11274,"sela":11275,"Ġidio":11276,"Ġdefine":11277,"Ġponen":11278,"Ġcie":11279,"erin":11280,"ĠpolicÃŃas":11281,"ĠÃ©s":11282,"alia":11283,"vina":11284,"Ġgeneraciones":11285,"Ġinmediata":11286,"ĠlegÃŃti":11287,"ĠcaÃŃa":11288,"ĠcÃº":11289,"Parece":11290,"ĠVÃŃ":11291,"cadores":11292,"Ġrecinto":11293,"Ġaustral":11294,"ĠLAS":11295,"ĠCha":11296,"Ġprevio":11297,"Ġepisodios":11298,"Ġmuel":11299,"Ġempa":11300,"ĠAndalucÃŃa":11301,"ĠUnidad":11302,"Ġbotas":11303,"ĠÃ¡cido":11304,"Ġprocedente":11305,"Ġpierde":11306,"Ġefectiva":11307,"Ġculmin":11308,"vÃ©ase":11309,"deÃ³":11310,"ĠScho":11311,"ĠPrimer":11312,"Ġrica":11313,"ĠdecÃŃan":11314,"Ġsupe":11315,"idado":11316,"Ġrepeti":11317,"Ġdejan":11318,"ÃŃnea":11319,"ĠSor":11320,"ĠcorrÃŃa":11321,"ĠErn":11322,"iÃ¡n":11323,"Ġatender":11324,"Ġindispens":11325,"dÃŃb":11326,"Ġentradas":11327,"Ġmuebles":11328,"Ġobservando":11329,"ĠGir":11330,"Ġcristiano":11331,"ĠhuÃ©spedes":11332,"ĠnÃ¡":11333,"Ġocta":11334,"deste":11335,"Ġcondenado":11336,"tambiÃ©n":11337,"ptimo":11338,"Ġpreguntaba":11339,"quera":11340,"Ġperdiendo":11341,"genda":11342,"ĠemisiÃ³n":11343,"Ġaumenta":11344,"ĠTy":11345,"ĠjurÃŃdico":11346,"Ġcansado":11347,"Ġtransmitir":11348,"Ġposeen":11349,"Ġelevada":11350,"apro":11351,"ĠAgust":11352,"Ġhered":11353,"vadas":11354,"rÃ¡s":11355,"Ġnaran":11356,"ĠeliminaciÃ³n":11357,"ĠespecÃŃfica":11358,"Ġcinemato":11359,"Ġgentes":11360,"VA":11361,"Ġmaravilloso":11362,"Ġfutura":11363,"ĠAng":11364,"ĠReina":11365,"Ġcomarca":11366,"ĠmandÃŃb":11367,"ĠsacudiÃ³":11368,"Ġlibras":11369,"Ġanuales":11370,"ductos":11371,"oncesto":11372,"Ġoscuros":11373,"Ġtomaron":11374,"jaron":11375,"Ġsoport":11376,"ĠZel":11377,"ĠTomÃ¡s":11378,"ĠSerg":11379,"ĠIsa":11380,"ĠChicago":11381,"goza":11382,"ebo":11383,"Ġcircular":11384,"CON":11385,"Ġcabecera":11386,"ALES":11387,"ĠplanificaciÃ³n":11388,"Ġexit":11389,"zcan":11390,"Ġpolici":11391,"Ġsargento":11392,"Ġrecorrer":11393,"ĠAndre":11394,"Ġextremadamente":11395,"Ġaparentemente":11396,"tamientos":11397,"Ġcajas":11398,"Ġnecesitamos":11399,"cau":11400,"ĠHoy":11401,"Ġfrases":11402,"mentaciÃ³n":11403,"elli":11404,"Ġespectadores":11405,"Ġtrayectoria":11406,"Ġesperan":11407,"Ġinteresa":11408,"Ġpositiva":11409,"ĠHugo":11410,"Ġperju":11411,"Ġsacrificio":11412,"Ġmantenerse":11413,"Ġfrecuente":11414,"Ġindustrias":11415,"Ġefectivamente":11416,"Ġintentos":11417,"tta":11418,"Ġrug":11419,"ĠKir":11420,"Ġrara":11421,"inaron":11422,"Ġasim":11423,"jaban":11424,"Tres":11425,"ĠRon":11426,"Ġgriega":11427,"ĠReyes":11428,"Ġestatales":11429,"Ġcuidadosamente":11430,"iedades":11431,"Ġpuse":11432,"cionalmente":11433,"Ġexceso":11434,"Ġ1962":11435,"ĠÃºtiles":11436,"Ġsistem":11437,"kar":11438,"Ġbroma":11439,"Ġcaminando":11440,"Ġdesvan":11441,"Ġtratados":11442,"ĠpretendÃŃa":11443,"Ġpulm":11444,"Ġcamiseta":11445,"Ġtasas":11446,"ĠDun":11447,"ĠfantÃ¡":11448,"Ġdibujos":11449,"Ġbarba":11450,"Ġrema":11451,"Ġnecesariamente":11452,"Ġalojamiento":11453,"Ġpescado":11454,"GO":11455,"telo":11456,"ficos":11457,"Ġcobertura":11458,"Ġexigencias":11459,"ĠdiÃ¡metro":11460,"ĠPY":11461,"ionÃ³":11462,"Ġdirigentes":11463,"Ġhuellas":11464,"ĠdarÃŃa":11465,"Ġmanifiesto":11466,"Ġparticipado":11467,"ĠHom":11468,"pulos":11469,"ucristo":11470,"tnam":11471,"ĠQuin":11472,"ĠFuerza":11473,"Ġdeterminada":11474,"Ġpinturas":11475,"Ġconservar":11476,"Ġapellido":11477,"Ġbicic":11478,"Ġavances":11479,"Ġsumerg":11480,"Ġdibujo":11481,"Ġmarcharse":11482,"TodavÃŃa":11483,"ĠAgri":11484,"daba":11485,"Ġdiablo":11486,"Ġinteresados":11487,"Mir":11488,"Ġcusto":11489,"ĠTru":11490,"erales":11491,"Ġpesado":11492,"ĠAlfre":11493,"ĠsabidurÃŃa":11494,"Ġreciben":11495,"PS":11496,"Ġtrozo":11497,"ĠmediodÃŃa":11498,"Ġproviene":11499,"Ġconcil":11500,"garia":11501,"Ġdestacado":11502,"Ġib":11503,"Ġpractic":11504,"Ġdecidieron":11505,"ĠautobÃºs":11506,"Ġtribun":11507,"ĠConstan":11508,"Ġdestinada":11509,"ĠcivilizaciÃ³n":11510,"Ġsalas":11511,"ZA":11512,"ĠDÃŃaz":11513,"Ġ1920":11514,"ĠpÃ©rdidas":11515,"ston":11516,"ĠparÃ¡":11517,"Ġherencia":11518,"Ġperegr":11519,"Ġargentina":11520,"trico":11521,"uca":11522,"Ġit":11523,"ders":11524,"ĠcontinÃº":11525,"ĠTexas":11526,"Ġactuaciones":11527,"ĠMaria":11528,"Ġterraza":11529,"zobispo":11530,"Ġsupervis":11531,"ĠposeÃŃa":11532,"Ġmagnitud":11533,"Ġperspectivas":11534,"ĠtirÃ³":11535,"rededor":11536,"Rob":11537,"Ġtrajo":11538,"Ġcerteza":11539,"ĠdiagnÃ³":11540,"esos":11541,"canos":11542,"ett":11543,"ĠCamb":11544,"Ġmodernos":11545,"ĠdocumentaciÃ³n":11546,"Ġinterpretar":11547,"Ġfinalizar":11548,"Ã©ricas":11549,"Ġic":11550,"Ġtransfer":11551,"Ġavergon":11552,"Ġvano":11553,"itch":11554,"Ġevaluar":11555,"ĠJulia":11556,"tring":11557,"Ġejemplares":11558,"Ġ1963":11559,"Ġtib":11560,"ĠjudÃŃo":11561,"ĪĴ":11562,"Ġvidrio":11563,"ĠSO":11564,"Ġregistros":11565,"Ġperjudi":11566,"ĠÃ©xitos":11567,"Ġcejas":11568,"Ġcausar":11569,"crania":11570,"Ġfrutas":11571,"Ġprolon":11572,"ĠVene":11573,"ianismo":11574,"Ġeficiencia":11575,"1993":11576,"Ġmodalidades":11577,"Ġganador":11578,"ĠActa":11579,".).":11580,"Ð¾":11581,"Ġreto":11582,"Mira":11583,"ĠBir":11584,"dura":11585,"Ġalmo":11586,"ĠcÃ¡lculo":11587,"inc":11588,"Ġbarrios":11589,"ĠDen":11590,"ĠhÃ©roe":11591,"ĠutilizÃ³":11592,"Ġesperado":11593,"Ġsustancia":11594,"Ġvuelva":11595,"ĠSant":11596,"Ġabiertas":11597,"Ġponente":11598,"Ġencom":11599,"Ġvecino":11600,"aliciÃ³n":11601,"ĠOh":11602,"Ġciudadano":11603,"ĠSebastiÃ¡n":11604,"ĠHospital":11605,"abra":11606,"!Â».":11607,"Ġpertur":11608,"ĠmuÃ±eca":11609,"Ja":11610,"Ġverme":11611,"Ġ42":11612,"ĠPort":11613,"ĠJas":11614,"Ġrusos":11615,"Ġoperativo":11616,"Ġfacul":11617,"ĠdejÃ©":11618,"ĠFederico":11619,"Ġalimento":11620,"Ġobtiene":11621,"Ġanalizar":11622,"2003":11623,"SÃ©":11624,"Ã©j":11625,"Ġord":11626,"viÃ©ndose":11627,"Der":11628,"quiÃ©n":11629,"Ġpiscina":11630,"ĠinterpretÃ³":11631,"CuÃ¡ndo":11632,"Ġgasto":11633,"Ġcumplido":11634,"ĠhectÃ¡":11635,"ĠtrÃ¡ns":11636,"Ġole":11637,"ĠdespertÃ³":11638,"Ġrestable":11639,"rab":11640,"Ġequivo":11641,"Ġrusa":11642,"inger":11643,"trocin":11644,"Ġcere":11645,"atÃŃa":11646,"Ġangustia":11647,"Ġllaves":11648,"Ġinfluy":11649,"ruecos":11650,"amar":11651,"Ġtax":11652,"Ġinmigrantes":11653,"Ġevolucion":11654,"Ġvenga":11655,"Ġgriegos":11656,"Ġtemo":11657,"Ġestir":11658,"Ġolvi":11659,"ĠSenado":11660,"Ġasociado":11661,"Ġconduce":11662,"Ġsepa":11663,"Ġejecutivo":11664,"ĠVis":11665,"ĠRosario":11666,"zon":11667,"ĠAyuntamiento":11668,"ĠdomÃ©st":11669,"Ġhil":11670,"Ġpodamos":11671,"Ġpoema":11672,"Ġsexuales":11673,"ata":11674,"Ġminas":11675,"aunque":11676,"ĠcomentÃ³":11677,"Ġembajador":11678,"ĠmÃºsico":11679,"ĠTres":11680,"Ġelog":11681,"ĠCamp":11682,"Ġbail":11683,"eh":11684,"Ġcaracteriza":11685,"Ġgafas":11686,"Ġlegislaciones":11687,"ĠsalvaciÃ³n":11688,"cionada":11689,"zarse":11690,"Ġasombro":11691,"Voy":11692,"Ġdelito":11693,"Ġestuviese":11694,"ĠpertenecÃŃa":11695,"ĠcrÃŃmenes":11696,"2013":11697,"ĠLee":11698,"Ġsaltar":11699,"Ġmesas":11700,"ĠParaguay":11701,"iversario":11702,"ĠUR":11703,"ĠMarcos":11704,"Ã¡stica":11705,"yes":11706,"Gan":11707,"Ġhistoriador":11708,"Ġnobles":11709,"Ġnube":11710,"Ġcontienen":11711,"ĠGreen":11712,"ĠAutor":11713,"ĠCy":11714,"ĠMilitar":11715,"Ã¡ndoles":11716,"ĠconvirtiÃ©ndose":11717,"temp":11718,"Cla":11719,"ĠMujer":11720,"Ġdirigirse":11721,"JosÃ©":11722,"Ġcarn":11723,"ÃŃmenes":11724,"Ġquieras":11725,"inastÃŃa":11726,"mad":11727,"EI":11728,"ĠLO":11729,"ÃŃcula":11730,"Ġcarbono":11731,"Ġinocente":11732,"onso":11733,"ĠBet":11734,"Ġcortar":11735,"key":11736,"Ġburgues":11737,"Ġarroz":11738,"Ġlevanta":11739,"ĠseÃ±alando":11740,"Ġexpecta":11741,"arles":11742,"Ã¡rez":11743,"ĠHumanos":11744,"quesa":11745,"torce":11746,"wen":11747,"cub":11748,"Ġdesnudo":11749,"1990":11750,"ramento":11751,"sor":11752,"ĠEscu":11753,"Ġturno":11754,"ajada":11755,"ture":11756,"Ġsaliendo":11757,"Ġdistribuy":11758,"ĠCarl":11759,"Ġdurm":11760,"Ãºmenes":11761,"Ġcadenas":11762,"Ġgustado":11763,"Ġusos":11764,"cusa":11765,"Ġparejas":11766,"Ġapoyado":11767,"Ġriv":11768,"Ġprosper":11769,"Hizo":11770,"heim":11771,"ĠSir":11772,"ĠÏ":11773,"ĠGri":11774,"boro":11775,"ild":11776,"Ġvestir":11777,"ĠcaÃ±ones":11778,"Î¿":11779,"riosa":11780,"Ġbis":11781,"Ġsatisfecho":11782,"ĠFlorida":11783,"cinco":11784,"ĠreputaciÃ³n":11785,"ĠEmb":11786,"elia":11787,"CuÃ¡nto":11788,"Ġafuera":11789,"cÃŃan":11790,"Ġaroma":11791,"Ġdomici":11792,"Ġfores":11793,"Ġafroamericanos":11794,"iter":11795,"ellÃ³n":11796,"Ġvirus":11797,"diÃ³s":11798,"ustos":11799,"oros":11800,"Ġincidente":11801,"Ġgab":11802,"Ġjurisdi":11803,"cÃ¡ndose":11804,"ricamente":11805,"Ġdescrita":11806,"FR":11807,"Ġconsiderarse":11808,"Ġcalendario":11809,"ĠinvitaciÃ³n":11810,"Ġcomprendido":11811,"Ġasegurarse":11812,"ere":11813,"ĠcontenÃŃa":11814,"ĠautonomÃŃa":11815,"orneo":11816,"Apar":11817,"inosa":11818,"ĠFrente":11819,"ĠGuardia":11820,"Ġflan":11821,"ĠelectrÃ³nica":11822,"biente":11823,"Ġoriginarios":11824,"Ġlocalidades":11825,"Ġamerin":11826,"jones":11827,"ĠdisminuciÃ³n":11828,"ĠdisputÃ³":11829,"ĠXII":11830,"ĠdÃ¡ndole":11831,"Ġcima":11832,"timos":11833,"rigada":11834,"Ġreparto":11835,"az":11836,"ector":11837,"ĠcreyÃ³":11838,"ĠgÃ©neros":11839,"Ġrecomendaciones":11840,"poleÃ³n":11841,"Ġviajeros":11842,"ĠMiss":11843,"Ġ120":11844,"eses":11845,"Ġparada":11846,"Ġrefugiados":11847,"Ġdas":11848,"ÃŃtico":11849,"ĠadquisiciÃ³n":11850,"Ġrebeldes":11851,"bajo":11852,"Ġintrodujo":11853,"Ġ43":11854,"Ġtraspas":11855,"ĠAL":11856,"ĠilusiÃ³n":11857,"Ġescuchado":11858,"ĠabrÃŃa":11859,"Ġlecho":11860,"ĠToledo":11861,"ĠoÃŃa":11862,"Ġesperanzas":11863,"ural":11864,"ĠsillÃ³n":11865,"entu":11866,"Ġlluv":11867,"Ġsolidaridad":11868,"ĠRegiÃ³n":11869,"ĠGin":11870,"uco":11871,"ĠasegurÃ³":11872,"Ġmultiplic":11873,"ĠÃį":11874,"ĠsitÃºa":11875,"Ġsuceder":11876,"Ġjurado":11877,"inea":11878,"Ġservido":11879,"Ġcafe":11880,"udal":11881,"ĠMirÃ³":11882,"Ġturistas":11883,"Ġpecul":11884,"atan":11885,"Ġviuda":11886,"Ġtrabajador":11887,"Ġrival":11888,"Ġtrasera":11889,"Ġlevantarse":11890,"Ġcreando":11891,"gio":11892,"Ġ44":11893,"ĠStan":11894,"ilater":11895,"Ġplas":11896,"Ġecles":11897,"ĠBrown":11898,"Ġdesconcer":11899,"ĠreuniÃ³":11900,"ĠHonduras":11901,"Ġestimada":11902,"Ġcastellano":11903,"ĠTodavÃŃa":11904,"ĠautÃ©ntica":11905,"Ġincendio":11906,"Ġentraba":11907,"Ġaba":11908,"Ġlimitada":11909,"ĠNar":11910,"Ġbande":11911,"ĠautomÃ³viles":11912,"Ġurban":11913,"inaciones":11914,"Ġdesgar":11915,"Ġderrumb":11916,"brada":11917,"Ġsolicitar":11918,"ĠingenierÃŃa":11919,"ĠInternational":11920,"ĠreflexiÃ³n":11921,"Ġinvestigar":11922,"Ġdisfra":11923,"ĠtrÃ¡nsito":11924,"Ġ1941":11925,"ĠgalerÃŃa":11926,"Ġbonita":11927,"ĠSimon":11928,"Ġdescubre":11929,"ĠdiscriminaciÃ³n":11930,"Ġbrutal":11931,"Ġvolviendo":11932,"Ġdeca":11933,"Ġcontinuo":11934,"Ġorganiza":11935,"ĠCra":11936,"ted":11937,"Ġfalso":11938,"Ġimplan":11939,"quita":11940,"Ġensayos":11941,"ĠSiria":11942,"alan":11943,"egu":11944,"Ġafectados":11945,"Ġpil":11946,"Ġensayo":11947,"ĠJesucristo":11948,"Ġlateral":11949,"Ġempie":11950,"eraciÃ³n":11951,"Ġmante":11952,"ĠSI":11953,"ĠLorenzo":11954,"ĠentendÃŃa":11955,"ĠincluÃŃa":11956,"Ã¶n":11957,"mico":11958,"ximas":11959,"Ġlidera":11960,"Ġaca":11961,"SerÃ¡":11962,"clo":11963,"Ġnarra":11964,"Ġhaz":11965,"ĠAlianza":11966,"Ġpertenecen":11967,"Ġmerece":11968,"Ġfestival":11969,"ĠReb":11970,"ĠaparecÃŃa":11971,"Ġblo":11972,"Ġterremo":11973,"Ġprotector":11974,"ĠPhilip":11975,"Ġreferencias":11976,"Äģ":11977,"ridas":11978,"Ġfieles":11979,"Ġdisponibilidad":11980,"2012":11981,"Ġavenida":11982,"ĠSig":11983,"ĠbuscÃ³":11984,"ĠMinistros":11985,"ult":11986,"ĠdirÃ©":11987,"Cuenta":11988,"Ã©rcoles":11989,"drÃ©":11990,"Ġsecuestr":11991,"unt":11992,"Ġgigante":11993,"Ġcaba":11994,"CN":11995,"Ġhechas":11996,"Ġmarcado":11997,"versiÃ³n":11998,"Ġsuple":11999,"Ġcabellos":12000,"2007":12001,"ĠestarÃ¡n":12002,"entalmente":12003,"Ġmanifestaciones":12004,"ĠCaball":12005,"Ã³crata":12006,"Ġsendero":12007,"Bas":12008,"Ġparticiparon":12009,"Ġmachos":12010,"Ġpudiese":12011,"ĠLuz":12012,"polis":12013,"ĠmetÃ¡":12014,"Ġjustific":12015,"wan":12016,"Ġ[âĢ¦":12017,"Ġelaborado":12018,"Medi":12019,"Ġacento":12020,"Ġpanor":12021,"ĠJohan":12022,"ĠMunicipal":12023,"Ġpales":12024,"Ġculturas":12025,"ĠnavegaciÃ³n":12026,"Ġdeterior":12027,"ĠHill":12028,"Recuer":12029,"Ġasalto":12030,"Ġtaxi":12031,"Ġtradiciones":12032,"Bajo":12033,"ĠdepÃ³sito":12034,"MS":12035,"Ġmontar":12036,"ĠadvirtiÃ³":12037,"Ġropas":12038,"Ġinvo":12039,"Ġempresario":12040,"ĠPatri":12041,"ĠperÃŃodos":12042,"Ġnoreste":12043,"ship":12044,"ele":12045,"Ġdecirme":12046,"Ġmexicana":12047,"Ġaparecido":12048,"cones":12049,"Ġ1943":12050,"ĠCru":12051,"Ġempresarios":12052,"Ġutilidad":12053,"Ġchi":12054,"Ġembarazada":12055,"Ġolas":12056,"Ġrestricciones":12057,"ĠejÃ©rcitos":12058,"ĠbÃ¡sica":12059,"Ġdesv":12060,"Ġenamorado":12061,"Ġradical":12062,"ĠrompiÃ³":12063,"Ġarmados":12064,"Ġsubmar":12065,"Ġescasa":12066,"Ġcumbre":12067,"Ġesenciales":12068,"ĠsonÃ³":12069,"Ġaline":12070,"ĠIrÃ¡n":12071,"Ġquinta":12072,"Ġpenal":12073,"Ġentien":12074,"Ġful":12075,"ĠPropuesta":12076,"ulado":12077,"Ġampliar":12078,"Ġpropietarios":12079,"ĠPÃºblica":12080,"ĠSarah":12081,"Ġmisiones":12082,"Ġpreocupaciones":12083,"Ġmusulmanes":12084,"tone":12085,"Ġproceder":12086,"encial":12087,"Ġcueva":12088,"Ġdial":12089,"ĠmarcÃ³":12090,"Ġrenov":12091,"ĠUcrania":12092,"Ġrio":12093,"Ġunido":12094,"Ġrevela":12095,"Ġkg":12096,"Ġcalent":12097,"Ġansiedad":12098,"ĠSupongo":12099,"Ġsedu":12100,"ĠpersecuciÃ³n":12101,"DOS":12102,"Ġinterlocu":12103,"Ġpluma":12104,"Ġestatua":12105,"dula":12106,"ĠClara":12107,"Ġcoopera":12108,"antil":12109,"Ġpatrocin":12110,"Ġadorn":12111,"Ġtoque":12112,"ĠEstudios":12113,"ĠfÃ³s":12114,"Ġmenciona":12115,"Ġprevenir":12116,"Ġdisponer":12117,"Ġcitado":12118,"Ġhagan":12119,"critos":12120,"ĠBiblio":12121,"ĠHace":12122,"continuÃ³":12123,"trica":12124,"Ġline":12125,"ĠCÃ³":12126,"ĠHuman":12127,"Ġamigas":12128,"1991":12129,"fort":12130,"Ġbilletes":12131,"Ġ1948":12132,"Ġnace":12133,"Ġ55":12134,"ĠÃ¡rabes":12135,"trado":12136,"Ġenfrente":12137,"MO":12138,"ĠbaterÃŃa":12139,"Ġ1958":12140,"uch":12141,"Ġcomprado":12142,"Ġmiraron":12143,"Ġcomplementar":12144,"Ġrealizaron":12145,"boc":12146,"Ġobligados":12147,"ĠEscocia":12148,"ĠaceptaciÃ³n":12149,"Ġrecibieron":12150,"ĠKen":12151,"Ġsujetos":12152,"ĠZaragoza":12153,"Ð¸":12154,"ĠartÃŃstico":12155,"hem":12156,"ĠACP":12157,"Conside":12158,"Ġrestring":12159,"ĠprevÃ©":12160,"ĠFilip":12161,"Ġneo":12162,"Ġrechazo":12163,"Ġpoblado":12164,"mÃ¡ticos":12165,"ĠRelaciones":12166,"Ġsentados":12167,"Ġtropical":12168,"ĠNegro":12169,"Ġaprueba":12170,"Ġorillas":12171,"Ġtesoro":12172,"Ġretrato":12173,"Ġgenerar":12174,"Ġaflu":12175,"ĠPÃºbl":12176,"Fal":12177,"Ġnotific":12178,"Ġadjudi":12179,"ĠNie":12180,"ĠVoy":12181,"ĠInformaciÃ³n":12182,"conoci":12183,"ĠCampo":12184,"Ġfaltaba":12185,"dolfo":12186,"Ġsed":12187,"Ġabarca":12188,"ĠestadÃŃsticas":12189,"Ġsacado":12190,"Ġmadrugada":12191,"Ġdimin":12192,"Ġmuere":12193,"ette":12194,"Ã¡neo":12195,"Ġdebilidad":12196,"Ġestuvieran":12197,"incu":12198,"ĠRan":12199,"Ġitalianos":12200,"adro":12201,"ÃŃe":12202,"ĠÃ¡ngulo":12203,"ĠmandÃ³":12204,"Ġsostener":12205,"ĠGor":12206,"Ġseguidores":12207,"Ġetique":12208,"ĠONU":12209,"Ġpesada":12210,"tate":12211,"Ġseas":12212,"Ġsabiendo":12213,"ĠaÃ±adido":12214,"ĉĉĉĉĉĉĉ":12215,"ET":12216,"Ġcorazones":12217,"Ġtemer":12218,"Ġproveedores":12219,"ĠKan":12220,"Ġocupaba":12221,"AV":12222,"ĠConvenciÃ³n":12223,"kh":12224,"Ġrojos":12225,"Ġpreocupes":12226,"ĠMuy":12227,"Ġdeje":12228,"cÃ©u":12229,"Ġentregado":12230,"Ġparpa":12231,"Ġprovoca":12232,"Ġprestaciones":12233,"Ġlimpio":12234,"ĠFel":12235,"lova":12236,"ls":12237,"Dan":12238,"Ġester":12239,"Ġpopularidad":12240,"Ġove":12241,"lago":12242,"oo":12243,"Har":12244,"ĠpÃ¡jaros":12245,"Ġbonito":12246,"Ġfrecuentes":12247,"ĠCasi":12248,"ĠperfecciÃ³n":12249,"Ġfutu":12250,"Ġfelices":12251,"Ġamerindios":12252,"Ġresponsabilidades":12253,"Ġciertamente":12254,"Ġtrenes":12255,"\"\",":12256,"ecos":12257,"Ġorganizada":12258,"tiguo":12259,"Ġurbana":12260,"ecÃ©":12261,"ĠAg":12262,"Ġbebida":12263,"ĠtÃºnel":12264,"ĠdelegaciÃ³n":12265,"lace":12266,"Ġvinos":12267,"zona":12268,"Ġsuponer":12269,"ken":12270,"Ġsienta":12271,"jestad":12272,"ĠestrenÃ³":12273,"Ġrostros":12274,"Ġdocena":12275,"Ġmunicipales":12276,"mel":12277,"Ġinternet":12278,"junto":12279,"Ġcubre":12280,"Ġcron":12281,"Ġrefleja":12282,"ĠreparaciÃ³n":12283,"ciado":12284,"ĠocurrÃŃa":12285,"ciencia":12286,"Ġfero":12287,"laraciÃ³n":12288,"ĠâĤ¬":12289,"Jes":12290,"Ġcultivos":12291,"diar":12292,"ĠartÃŃstica":12293,"ĠalgodÃ³n":12294,"Ġesperaban":12295,"Pregun":12296,"anta":12297,"Ġorquesta":12298,"ĠorÃŃgenes":12299,"iy":12300,"ĠcoleÃ³ptero":12301,"urs":12302,"ĠsÃ³":12303,"Ġmuchachos":12304,"Ġinstancia":12305,"ĠdesafÃŃo":12306,"Ġ1961":12307,"copio":12308,"Ġdisparo":12309,"Ġdisparar":12310,"Ġfiebre":12311,"Ġproxim":12312,"Ġinmensa":12313,"Ġresumen":12314,"Ġverle":12315,"Ġdeter":12316,"Ġargumentos":12317,"Ġrespaldo":12318,"daje":12319,"Ġdisper":12320,"uertos":12321,"ĠtÃŃm":12322,"Ġespecta":12323,"Ġincluidas":12324,"Ġacusado":12325,"ÃŃfer":12326,"Ġextremos":12327,"Ġef":12328,"Ġespacial":12329,"ĠmanifestaciÃ³n":12330,"Ġpistas":12331,"Ġalturas":12332,"tum":12333,"ĠpÃ¡lido":12334,"Ġesclav":12335,"Ġconceder":12336,"Ġmanga":12337,"ĠmirÃ©":12338,"Ġhueco":12339,"tariado":12340,"Ġmedir":12341,"gru":12342,"ĠSteph":12343,"Ġvea":12344,"dismo":12345,"ĠprestaciÃ³n":12346,"Ġber":12347,"ĠParece":12348,"ĠCI":12349,"Puedes":12350,"nm":12351,"ĠvegetaciÃ³n":12352,"Ġganando":12353,"Ġpechos":12354,"ĠMarruecos":12355,"ĠprohibiciÃ³n":12356,"Ġpertenecientes":12357,"Ġcarreteras":12358,"Tam":12359,"ĠSun":12360,"Ġ1942":12361,"ĠgarantÃŃas":12362,"gante":12363,"letÃŃn":12364,"Ġportal":12365,"ĠAtenas":12366,"Ġhacerme":12367,"Ġderivados":12368,"Ġamaba":12369,"Ġpermita":12370,"Ġprecisa":12371,"Ġsupuso":12372,"ĠtardÃ³":12373,"Ġtrage":12374,"Ġlimita":12375,"pitiÃ³":12376,"Ġ1937":12377,"ĠconfirmÃ³":12378,"Ġparado":12379,"preguntÃ©":12380,"Ä±":12381,"Ġsirven":12382,"ĠfÃ©r":12383,"Ġhagas":12384,"ĠFerro":12385,"PodrÃŃa":12386,"ĠScott":12387,"ĠservÃŃa":12388,"ĠgolpeÃ³":12389,"Ġfalsa":12390,"Ġvam":12391,"Ġrol":12392,"Ġpoderosa":12393,"ĠDiario":12394,"Ġbienvenida":12395,"Ġprometido":12396,"Ġempresarial":12397,"ĠemitiÃ³":12398,"Ġperca":12399,"ĠcohesiÃ³n":12400,"ĠHall":12401,"Ġtrasero":12402,"ĠcantÃ³n":12403,"econÃ³m":12404,"ĠAnn":12405,"Ġmonumento":12406,"onald":12407,"Ġmelan":12408,"Ġpreparados":12409,"pada":12410,"ÃŃv":12411,"Ġele":12412,"Ġavanzada":12413,"Ġbancar":12414,"Ġpreciosa":12415,"Ġhondo":12416,"Ġcapitales":12417,"Ġllegaban":12418,"lyn":12419,".),":12420,"Ġaviso":12421,"Ġacepta":12422,"Mis":12423,"Ġmodificar":12424,"Ġprevistos":12425,"Ġdecl":12426,"ladas":12427,"landesa":12428,"Ġarmario":12429,"ulsiÃ³n":12430,"Ġservidor":12431,"ĠBlanco":12432,"?Â»":12433,"Ġgirar":12434,"ĠCB":12435,"Ġaniversario":12436,"Ġmoto":12437,"Ġpermanece":12438,"XX":12439,"Ã¡frica":12440,"ciende":12441,"Ġcomenzaba":12442,"apia":12443,"Ġcomedia":12444,"Hacia":12445,"Algo":12446,"Propuesta":12447,"ĠCatÃ³lica":12448,"rill":12449,"Ġcatorce":12450,"Ġsacrific":12451,"uss":12452,"Ġbebidas":12453,"Ġadquirido":12454,"lac":12455,"Ġmata":12456,"Ġcardenal":12457,"Ġcuestion":12458,"Ġintegrantes":12459,"Ġcurioso":12460,"Ġreflejo":12461,"kins":12462,"ĠRio":12463,"Ã±ando":12464,"Ġcolocado":12465,"ĠPAR":12466,"\":":12467,"Ġdedica":12468,"Ġesbo":12469,"ĠdisponÃŃa":12470,"Ġordenado":12471,"Ġhundi":12472,"ĠalejÃ³":12473,"Ġrutas":12474,"Ġexplicaciones":12475,"Ġdemonio":12476,"Ġresistir":12477,"Ġsangu":12478,"Ġsuro":12479,"Ġtabl":12480,"Ġcomisario":12481,"ĠpartÃŃculas":12482,"ĠNaciÃ³n":12483,"leÃ±os":12484,"urrecciÃ³n":12485,"Ġarist":12486,"Existe":12487,"Ġlimpia":12488,"ĠexplÃŃ":12489,"Ġdesigual":12490,"ĠEURO":12491,"ternos":12492,"edy":12493,"ĠpermanecÃŃa":12494,"Ġhiper":12495,"Ġprecipit":12496,"Ġinicios":12497,"ĠAlb":12498,"Ġdigas":12499,"ĠBat":12500,"inten":12501,"Ġtrascen":12502,"ĠportuguÃ©s":12503,"Ġfilm":12504,"ĠcaballerÃŃa":12505,"Ġcoro":12506,"Ġescuchaba":12507,"ĠAvenida":12508,"blas":12509,"ĠLisboa":12510,"ĠreproducciÃ³n":12511,"Ġascensor":12512,"Ġvenezol":12513,"Ġindican":12514,"ĠaÃ©reo":12515,"Ġacondi":12516,"Ġtemperaturas":12517,"Ġfranco":12518,"Ġ1956":12519,"Ġproducida":12520,"ĠNat":12521,"Ġsugiere":12522,"Ã¡mico":12523,"ĠBil":12524,"ĠespecÃŃficamente":12525,"CRE":12526,"Ġabri":12527,"Ġradi":12528,"Ġinformar":12529,"Ġlectores":12530,"Ġsocialista":12531,"Ġmortal":12532,"Ġsupiera":12533,"ĠnegociaciÃ³n":12534,"Ġbarbilla":12535,"cÃŃ":12536,"urgo":12537,"Ġporte":12538,"ugÃŃa":12539,"Ġestro":12540,"Ġagricultores":12541,"Ġgent":12542,"ets":12543,"cosa":12544,"ĠPYME":12545,"Ġcasualidad":12546,"Ġinsta":12547,"Ġterritorial":12548,"seos":12549,"cedes":12550,"Ġcriterio":12551,"Ġcuentos":12552,"Ġputa":12553,"ervatorio":12554,"Ġdeportes":12555,"ĠLam":12556,"ĠDoctor":12557,"ĠAÃ©":12558,"ĠcÃ©le":12559,"Ġmales":12560,"ĠFan":12561,"Ã¡zar":12562,"lege":12563,"Ġverb":12564,"Ġcriaturas":12565,"gual":12566,"ĠMara":12567,"Pal":12568,"PO":12569,"PI":12570,"Ġrayo":12571,"ĠVirgin":12572,"Ġecos":12573,"NaciÃ³":12574,"Ġenrique":12575,"Ġbauti":12576,"ĠMaestro":12577,"rita":12578,"Ġalejarse":12579,"Ġconstitucional":12580,"Ġpesos":12581,"Ã¡nicos":12582,"Ġviejas":12583,"ĠdebutÃ³":12584,"Ġcomodi":12585,"ÃŃdas":12586,"ĠLlevaba":12587,"Ġ1938":12588,"Ġsureste":12589,"Inter":12590,"Ġvolar":12591,"Ġpublicar":12592,"garo":12593,"more":12594,"Ġcigarrillo":12595,"oni":12596,"pur":12597,"ĠFort":12598,"Ġdisputa":12599,"ĠCle":12600,"Ġiniciado":12601,"Ġtalleres":12602,"Ġpreguntado":12603,"Ġpuls":12604,"uevas":12605,"ĠPR":12606,"ĠSel":12607,"ĠVio":12608,"Ġabrazo":12609,"Ġclav":12610,"Ġepi":12611,"ĠPrÃŃncipe":12612,"Ġmiser":12613,"Ġgrueso":12614,"Ġenre":12615,"chill":12616,"Ġrestantes":12617,"ĠmaÃŃz":12618,"Ã¡ndonos":12619,"ortunadamente":12620,"Ġmediano":12621,"Ġduras":12622,"ĠEjecutivo":12623,"elly":12624,"stro":12625,"ĠJacob":12626,"querÃŃa":12627,"ov":12628,"Ġrazonable":12629,"ĠCur":12630,"gl":12631,"Ġrar":12632,"ĉĉĉĉĉĉ":12633,"Ġprevistas":12634,"ĠLibre":12635,"Ġcontinuamente":12636,"ĠCine":12637,"lagro":12638,"Ġprotesta":12639,"Ġcontraste":12640,"Ġequivocado":12641,"ĠmÃ¡rmol":12642,"pone":12643,"yr":12644,"ĠJord":12645,"ĠMusic":12646,"ĠTimes":12647,"cionamiento":12648,"logos":12649,"cons":12650,"Ġcausado":12651,"Ġcuartos":12652,"Ġtelecomunicaciones":12653,"EM":12654,"Ġflam":12655,"Ġpasaban":12656,"Ġbasura":12657,"!\"":12658,"Ġend":12659,"istÃ³":12660,"Ġpoemas":12661,"ĠComunicaciÃ³n":12662,"Ġretirarse":12663,"ĠSocialista":12664,"Ġaltamente":12665,"Ġgratis":12666,"tÃ¡r":12667,"Ġgiro":12668,"uvo":12669,"Ġame":12670,"Ġrup":12671,"ĠespaÃ±olas":12672,"Ġsillas":12673,"Ġapoya":12674,"ĠCECA":12675,"Ġafecto":12676,"Ġcompetitividad":12677,"ĠmarrÃ³n":12678,"Ġmovilidad":12679,"deas":12680,"ĠDeportivo":12681,"cioso":12682,"Ã³cratas":12683,"cm":12684,"LLA":12685,"Ġaventuras":12686,"Ġsecciones":12687,"Ġformaba":12688,"Ġencarn":12689,"ierten":12690,"Ġlograron":12691,"Ġcica":12692,"Ġacudir":12693,"Ã©rpre":12694,"Ġradic":12695,"Ġdenomina":12696,"Ġtrece":12697,"Ġediciones":12698,"Ġcerrados":12699,"ĠconcepciÃ³n":12700,"VÃįA":12701,"ĠinspiraciÃ³n":12702,"Ġdocumental":12703,"ĠAmbiente":12704,"Ġ72":12705,"Ġdefinitivo":12706,"Ġcompras":12707,"endoza":12708,"Ġempezando":12709,"ĠAÃºn":12710,"Ġsupervivencia":12711,"Ġinfraestructuras":12712,"ĠhectÃ¡reas":12713,"Ġsindicatos":12714,"Ġcubiertos":12715,"ĠesperÃ³":12716,"Ġbolso":12717,"Ġespantos":12718,"ĠElec":12719,"Ġprioridades":12720,"Ġcerro":12721,"fra":12722,"ĠprÃ©stamo":12723,"ĠFron":12724,"Ġense":12725,"strucciÃ³n":12726,"Ġ1959":12727,"ary":12728,"Ġllegara":12729,"ĠpercepciÃ³n":12730,"ĠartillerÃŃa":12731,"ĠVÃŃctor":12732,"Ġterminal":12733,"Ġsantos":12734,"ericor":12735,"ĠconsistÃŃa":12736,"ĠsaltÃ³":12737,"Ġcriti":12738,"ĠâĢĶÂ¿":12739,"Ġdominante":12740,"Ġhueso":12741,"uerte":12742,"Ġcubiertas":12743,"ĠCort":12744,"ĠHolly":12745,"Ġ64":12746,"Ġfacultad":12747,"ĠMike":12748,"ĠofrecÃŃa":12749,"Ġimpi":12750,"iempo":12751,"Ġcondena":12752,"Ġdisparos":12753,"ĠAgustÃŃn":12754,"ĠDor":12755,"ĠTol":12756,"hl":12757,"xia":12758,"Ġseman":12759,"Ġhomos":12760,"ited":12761,"Ġrecaud":12762,"Ġtomaba":12763,"Ġresal":12764,"imenea":12765,"ĠTony":12766,"Ġdefensores":12767,"mplemente":12768,"Ġprevista":12769,"Ġrib":12770,"inu":12771,"alÃ³":12772,"sur":12773,"ĠTrin":12774,"ĠcadÃ¡veres":12775,"Ġenmienda":12776,"ĠÃ©tn":12777,"ĠElizabeth":12778,"ak":12779,"ĠVenecia":12780,"Ġexperimentado":12781,"Ġsever":12782,"Ġ1957":12783,"Ġestablecidos":12784,"Ġabundante":12785,"Ġdesprecio":12786,"Ġrelieve":12787,"Ġmasculino":12788,"ĠteorÃŃas":12789,"Ġdepartamentos":12790,"ĠEva":12791,"Ġextrema":12792,"Ã©ndola":12793,"ĠApar":12794,"ejo":12795,"tens":12796,"Ġgranja":12797,"Espero":12798,"rish":12799,"Ġjuvenil":12800,"Ãīste":12801,"ĠadmiraciÃ³n":12802,"jÃ©":12803,"Ġcolonial":12804,"entÃŃ":12805,"Ġfundamentalmente":12806,"osÃ³":12807,"ĠAlonso":12808,"Directiva":12809,"Ġcapas":12810,"Ġ41":12811,"Ġpisos":12812,"Ġrecogida":12813,"Ġhomosex":12814,"Ġtrampa":12815,"?\"":12816,"media":12817,"ometra":12818,"ĠdepresiÃ³n":12819,"Ġbuscan":12820,"Ġrevolucionario":12821,"Ġniebla":12822,"Ġcorredor":12823,"ĠcÃŃrculos":12824,"Ġoculta":12825,"Casi":12826,"Ġdesnuda":12827,"estra":12828,"ĠmatÃ³":12829,"Ġleyendo":12830,"Ġdele":12831,"ĠbÃ³":12832,"Ġpresentarse":12833,"ĠLil":12834,"Ġpreocupa":12835,"Ġmurieron":12836,"lanos":12837,"ĠMah":12838,"Asunto":12839,"gle":12840,"ĠgruÃ±":12841,"Form":12842,"Ġcorrectamente":12843,"Ġbombas":12844,"Ġparticipan":12845,"ĠConfe":12846,"ĠinscripciÃ³n":12847,"berto":12848,"________________":12849,"ĠFra":12850,"Ġllegamos":12851,"IÃĵN":12852,"ÃŃnas":12853,"Ġexportaciones":12854,"Ġmix":12855,"guiÃ³":12856,"Ġparcialmente":12857,"Ġapartar":12858,"ecimiento":12859,"Ġextraordinaria":12860,"Ġdiarios":12861,"tines":12862,"Ġcircuito":12863,"Ġfuncional":12864,"Ġcanad":12865,"ĠHabana":12866,"cimo":12867,"Ġsustanci":12868,"Ġsemejantes":12869,"DecisiÃ³n":12870,"reos":12871,"iona":12872,"Ġconviene":12873,"ĠRad":12874,"tifica":12875,"Ġtop":12876,"ispos":12877,"ogle":12878,"ComisiÃ³n":12879,"Ġmens":12880,"Ġatar":12881,"ĠFac":12882,"ĠMejor":12883,"cilla":12884,"Ġcontento":12885,"Ġalmoh":12886,"Ġmilit":12887,"Ġ05":12888,"elo":12889,"illado":12890,"ĠdinastÃŃa":12891,"Ġchimenea":12892,"Ã¡ndalo":12893,"Ġterrestre":12894,"Ġdesenca":12895,"yer":12896,"indi":12897,"Ġilegal":12898,"Ġantece":12899,"ecreto":12900,"Ġderram":12901,"Ġfabricante":12902,"enses":12903,"\"\".":12904,"Ġrum":12905,"ĠrestauraciÃ³n":12906,"Ġchocola":12907,"Ġvictorias":12908,"EC":12909,"Ġresbal":12910,"unar":12911,"Ġredi":12912,"Ġcuerdas":12913,"Particip":12914,"Ġenfermos":12915,"Ġaccidentes":12916,"Ġextraordinario":12917,"ĠdiagnÃ³stico":12918,"ĠÃ³pera":12919,"Ġrequieren":12920,"Ġdefec":12921,"Ġevo":12922,"Ol":12923,"Ġnaval":12924,"Hubo":12925,"ĠconversiÃ³n":12926,"Ġvicepresidente":12927,"ĠpermitirÃ¡":12928,"Ġmueve":12929,"ĠmÃŃos":12930,"Ġmedallas":12931,"ĠAlta":12932,"ĠTampoco":12933,"eban":12934,"ĠquÃŃmicos":12935,"ĠLouis":12936,"Ġformaban":12937,"Acuerdo":12938,"Ġinterv":12939,"Ġ1946":12940,"Ġpalma":12941,"tÃ¡nea":12942,"dure":12943,"Ġechado":12944,"Ġrelacionada":12945,"ĶĢ":12946,"Ġdesagradable":12947,"Ġ96":12948,"Ġestuve":12949,"Ġfatal":12950,"NO":12951,"ĠTr":12952,"html":12953,"ĠIgnacio":12954,"ĠIngen":12955,"ĠCooperaciÃ³n":12956,"Ġajuste":12957,"Ġapreciar":12958,"ĠAsh":12959,"Ġdependiendo":12960,"ĠNational":12961,"Ġcuadrados":12962,"Ġcompuestos":12963,"ĠComunista":12964,"Ġrealizando":12965,"Ġsolicitudes":12966,"jidad":12967,"Ġllevo":12968,"encio":12969,"ĠRojo":12970,"tolÃ³g":12971,"Ġpensa":12972,"Ġcargar":12973,"ĠArmada":12974,"Ġcertificado":12975,"Ġquede":12976,"Ġliberal":12977,"Ġsensible":12978,"Ġvuelven":12979,"Ġdia":12980,"tuales":12981,"Ġpromoci":12982,"Ġpaga":12983,"ĠShe":12984,"Ġdelincu":12985,"ĠriÃ³":12986,"gregaciÃ³n":12987,"ĠFord":12988,"Ġnormales":12989,"rimientos":12990,"Ġcomputadora":12991,"Ġmarina":12992,"Ġfases":12993,"!Â»":12994,"ĠArthur":12995,"ĠCheca":12996,"Ġcomunistas":12997,"ĠInstancia":12998,"Ġencarcel":12999,"Ġbote":13000,"Ġprecau":13001,"ĠDVD":13002,"Ġcriado":13003,"yd":13004,"Ġtrayecto":13005,"ĠVerde":13006,"Ġretorno":13007,"Ġvuelos":13008,"ĠPl":13009,"ĠfarmacÃ©u":13010,"ĠsatÃ©lite":13011,"yl":13012,"Ġsuroeste":13013,"Ġcrece":13014,"Ġlenta":13015,"Ġcuartel":13016,"camos":13017,"ĠEstadio":13018,"Ġ49":13019,"ĠJeho":13020,"ĠCanarias":13021,"Ġdivul":13022,"Ġfati":13023,"Ġazar":13024,"Ġbruscamente":13025,"Ġplayas":13026,"Ġconcluir":13027,"Å¡":13028,"Ġabad":13029,"ecida":13030,"Ġvence":13031,"Supongo":13032,"Ġcarcajada":13033,"Ġgubernamentales":13034,"Ã³tico":13035,"ĠdecoraciÃ³n":13036,"Ġ1933":13037,"ĠcÃ¡":13038,"Ġinser":13039,"Ġeclesi":13040,"Ġfantasma":13041,"ĠjurisdicciÃ³n":13042,"Debe":13043,"istemas":13044,"ĠsuspensiÃ³n":13045,"Ġcompor":13046,"Ġintegrada":13047,"Ġfuncionario":13048,"Ġcruj":13049,"Ġ1955":13050,"Ġunir":13051,"tanto":13052,"Ġliqu":13053,"jam":13054,"Ġimprovis":13055,"Ġlabio":13056,"Ġamericanos":13057,"Ġestabas":13058,"Ġfiscales":13059,"Ġ46":13060,"ĠÃģr":13061,"Ġoccidentales":13062,"Ġpreparada":13063,"ĠSk":13064,"Ġconsiderablemente":13065,"Ġlevantado":13066,"ĠtÃŃpico":13067,"Ġvientos":13068,"Ġinteriores":13069,"Ġeman":13070,"Ġimpresionante":13071,"Ġ250":13072,"Ġnucleares":13073,"Ġsecuencia":13074,"ÃŃgeno":13075,"Ġmiel":13076,"ĠYugosla":13077,"Ġducha":13078,"Ġsaliva":13079,"ĠEstre":13080,"ning":13081,"Ġcriminal":13082,"ĠNapoleÃ³n":13083,"Mer":13084,"Ġsumamente":13085,"PU":13086,"ĠTay":13087,"ori":13088,"Ġinevitable":13089,"ĠChris":13090,"1989":13091,"teto":13092,"ĠvolÃºmenes":13093,"Ġtapa":13094,"Ġrean":13095,"ĠCatalina":13096,"Ġfijar":13097,"Ġceb":13098,"Ġchileno":13099,"grados":13100,"Ġcontradic":13101,"renda":13102,"Ġcoleg":13103,"Ġprofundas":13104,"diÃ©ndose":13105,"Ġchas":13106,"ĠKenn":13107,"Ġmanejar":13108,"Ġang":13109,"ĠcapÃŃtulos":13110,"ah":13111,"Ġexperimentar":13112,"gramas":13113,"inamente":13114,"gil":13115,"Ġmeridi":13116,"dices":13117,"Ġdanza":13118,"lah":13119,"ĠmarquÃ©s":13120,"ĠDominic":13121,"Ġayudante":13122,"Ġmaldito":13123,"esis":13124,"Ġfri":13125,"Ġfina":13126,"ĠTown":13127,"Ġretirado":13128,"Ġrenunciar":13129,"llamente":13130,"Ġrespetar":13131,"ons":13132,"Ġtrae":13133,"Ġconvoca":13134,"Estados":13135,"Ġcobre":13136,"Ġatraer":13137,"culas":13138,"ĠComisario":13139,"Ġconsumidor":13140,"tter":13141,"board":13142,"Ġ600":13143,"oce":13144,"Ġutilizadas":13145,"ĠNik":13146,"drÃŃan":13147,"Ġsalen":13148,"Ġsignificativo":13149,"Î½":13150,"Ġtransparencia":13151,"ĠAlcal":13152,"ague":13153,"Ġrecop":13154,"TAN":13155,"Ġeficiente":13156,"ramente":13157,"ĠFuerzas":13158,"Ġshow":13159,"biles":13160,"Ġnoventa":13161,"Ġsecundarios":13162,"ĠADN":13163,"Ġempap":13164,"Ġsobrino":13165,"ternas":13166,"Ġcuidar":13167,"Ġerig":13168,"eto":13169,"ĠnombrÃ³":13170,"ĠAv":13171,"Ġprestigio":13172,"Ġresign":13173,"gran":13174,"Ġmedicamento":13175,"Ġastero":13176,"Ġselva":13177,"Ġurgente":13178,"Â»)":13179,"Ġgenera":13180,"Ġtransf":13181,"Ġinsegu":13182,"iciosa":13183,"ĠincluyÃ³":13184,"Ġbaloncesto":13185,"Ġrechazar":13186,"2004":13187,"Ġexcusa":13188,"Ġfalda":13189,"Ġneer":13190,"xa":13191,"Ġsoltar":13192,"Ġfall":13193,"ĠdestacÃ³":13194,"Ġmadres":13195,"Ġrecomienda":13196,"Ġlist":13197,"Ġhaberle":13198,"Ġpublica":13199,"ĠlleguÃ©":13200,"dulo":13201,"Ġingre":13202,"uropa":13203,"ben":13204,"Ġtribus":13205,"ĠEugen":13206,"Ġorn":13207,"rÃ©s":13208,"Ġacontecimiento":13209,"Ġ97":13210,"Ġvelas":13211,"Ġacercar":13212,"inetes":13213,"GR":13214,"ĠEnergÃŃa":13215,"Ġcopas":13216,"Ãºsica":13217,"Ġcereales":13218,"Crees":13219,"Ġmanteniendo":13220,"Aun":13221,"ĠcubrÃŃa":13222,"ĠafirmaciÃ³n":13223,"phy":13224,"Podemos":13225,"Ġoperadores":13226,"Ġtitulada":13227,"mun":13228,"Ðµ":13229,"Rep":13230,"ĠNO":13231,"Ġtoman":13232,"ificaciones":13233,"ĠJaime":13234,"Ġbando":13235,"Ġinformado":13236,"ĠrebeliÃ³n":13237,"ĠAutÃ³n":13238,"ĠPam":13239,"Ġmantienen":13240,"2014":13241,"Ġelaborar":13242,"Ġtronco":13243,"ĠPrincip":13244,"Ph":13245,"bie":13246,"ĠAÃ±o":13247,"Ġdivide":13248,"ĠreferÃŃa":13249,"ĠTem":13250,"Ġdetective":13251,"Ġconviv":13252,"lÃ©tico":13253,"ï¿":13254,"Ġmonetaria":13255,"Ġtorres":13256,"Ġadolescente":13257,"Ġdecep":13258,"tuosa":13259,"ĠclimÃ¡tico":13260,"ERA":13261,"Ġ1947":13262,"dom":13263,"ĠAN":13264,"ĠconfiguraciÃ³n":13265,"Ġsep":13266,"Ġhones":13267,"Ġcoloq":13268,"eu":13269,"Ġdivisiones":13270,"ĠabrazÃ³":13271,"ĠconcluyÃ³":13272,"Ġapropiado":13273,"ĠTorneo":13274,"rimido":13275,"Ġdroga":13276,"ĠcuÃ¡les":13277,"Ġcomplement":13278,"ĠcÃ¡pita":13279,"cinas":13280,"yac":13281,"Ġaparecieron":13282,"ducto":13283,"Ġdiscap":13284,"ĠJon":13285,"Ġseparados":13286,"Ġimpu":13287,"Ġimb":13288,"Ġcaos":13289,"ĠPerman":13290,"Ġcomunista":13291,"ĠMendoza":13292,"ĠPoder":13293,"Ġorejas":13294,"Ġexpresiones":13295,"DR":13296,"Ġeterna":13297,"Ġmejoras":13298,"ibil":13299,"ĠdistinciÃ³n":13300,"Ġelectr":13301,"Ġcreencias":13302,"ĠÃ©se":13303,"ĠMes":13304,"Ġcolinas":13305,"Ġocupada":13306,"ĠKu":13307,"ĠmÃ³viles":13308,"dial":13309,"laga":13310,"ĠLeague":13311,"Ġluchando":13312,"ipos":13313,"donde":13314,"Ġpop":13315,"Ġperpetu":13316,"illones":13317,"Ġgalard":13318,"Dav":13319,"ĠmÃ³":13320,"Ġversos":13321,"Ġvaliente":13322,"jetivo":13323,"ĠcreÃŃdo":13324,"ĠtraiciÃ³n":13325,"ĠFI":13326,"Ġbode":13327,"inoso":13328,"ĠJar":13329,"istÃŃa":13330,"ĠUniversity":13331,"ĠTenemos":13332,"ĠviolaciÃ³n":13333,"ĠSudÃ¡frica":13334,"Ġofertas":13335,"Ġacredi":13336,"ĠMarie":13337,"Ġliteraria":13338,"ĠinclinaciÃ³n":13339,"Ġmagist":13340,"Ġdivina":13341,"ĠcompaÃ±era":13342,"Ġtrago":13343,"Ġmarino":13344,"Ġlimpiar":13345,"Ġcontinuaba":13346,"Ġrueda":13347,"Ġalternativas":13348,"Ġdeportivo":13349,"Ġcualidades":13350,"Ġqueso":13351,"ĠLenin":13352,"Ġpidiendo":13353,"ierro":13354,"ĠDicho":13355,"ĠlÃ³gico":13356,"Ġrumores":13357,"ensible":13358,"Ġautos":13359,"ĠcamiÃ³n":13360,"Ġejemplar":13361,"Ġviera":13362,"ĠVIII":13363,"Ġsubray":13364,"entados":13365,"Ġexha":13366,"Ġconsiderados":13367,"ĠintÃ©rpre":13368,"Ġ89":13369,"ĠNavarra":13370,"Ġopuesto":13371,"Ġvariedades":13372,"Ġdejo":13373,"Ġexclusiva":13374,"ĠfrunciÃ³":13375,"Ġmostrando":13376,"enio":13377,"Ġmilag":13378,"Ġescasos":13379,"Ġdedicar":13380,"Ġ47":13381,"Ġduer":13382,"Ġbul":13383,"ĠÃ³rbita":13384,"ĠtendrÃŃan":13385,"Ġdeseado":13386,"Ġestacion":13387,"ĠXIV":13388,"Ġalerta":13389,"Ġsepara":13390,"Ġdesorden":13391,"poner":13392,"Ġcomunicado":13393,"Ġclaras":13394,"Ġejecutar":13395,"sterdam":13396,"Ġacostumbrado":13397,"top":13398,"Ã¡stima":13399,"Ġartificial":13400,"ĠmatemÃ¡ticas":13401,"ĠIrak":13402,"Fuer":13403,"Ġreunirse":13404,"Ġsemb":13405,"ĠCollege":13406,"Ġconceb":13407,"Ġsignificativa":13408,"ĠAbra":13409,"Ġabol":13410,"Ġremol":13411,"repitiÃ³":13412,"ĠsÃŃmbolos":13413,"sea":13414,"ĠOx":13415,"ĠPierre":13416,"abal":13417,"Ã²":13418,"ĠRin":13419,"ĠCH":13420,"ĠactÃºa":13421,"ĠOccidente":13422,"Ġinstalado":13423,"Ġ52":13424,"dum":13425,"Ġcortos":13426,"Ġcercanos":13427,"ĠSchool":13428,"Ġ[âĢ¦]":13429,"Ġejercicios":13430,"Ġplaca":13431,"ĠautomÃ¡ticamente":13432,"Ġimponer":13433,"Ġinternos":13434,"Ġsh":13435,"ĠcumpleaÃ±os":13436,"Ġalimentaria":13437,"Ġfijado":13438,"Ġbl":13439,"ĠfenÃ³menos":13440,"Ġsuavidad":13441,"Ġmonitor":13442,"Ġtraslado":13443,"Ġpeculiar":13444,"AB":13445,"sky":13446,"Ġalberg":13447,"Ġportada":13448,"Ġmuertes":13449,"Ġfragmentos":13450,"ĠHÃ©":13451,"ĠAmerican":13452,"elaciÃ³n":13453,"SerÃŃa":13454,"Ġvulgar":13455,"ĠvenÃŃan":13456,"Ġpresentada":13457,"ĠHaci":13458,"ĠInterior":13459,"Ġmonstruo":13460,"Ġrojas":13461,"ĠdÃ©biles":13462,"Ġsucesos":13463,"ocho":13464,"Ġestablecida":13465,"ĠtÃ³":13466,"Ġprotocolo":13467,"ĠrenovaciÃ³n":13468,"Ġ1952":13469,"gena":13470,"biliario":13471,"Ġcompetente":13472,"Ġbesos":13473,"ĠvÃŃnculo":13474,"mamente":13475,"Ġtratan":13476,"laje":13477,"Ġembarazo":13478,"Ġdigno":13479,"teos":13480,"Ġanfitri":13481,"Ġ1949":13482,"Ġrecurrir":13483,"Ġarmado":13484,"ĠsucesiÃ³n":13485,"Ros":13486,"Ġobservado":13487,"dando":13488,"Ġderrotado":13489,"Ġroj":13490,"pensa":13491,"Ġfirmeza":13492,"video":13493,"ĠCuar":13494,"Ġpendientes":13495,"Ġministerio":13496,"Ġmedieval":13497,"Resul":13498,"quias":13499,"ĠÃ¡lbumes":13500,"ĠpensiÃ³n":13501,"ĠrecorriÃ³":13502,"Ġsiga":13503,"Ġembri":13504,"Î¹":13505,"ï¿½":13506,"Ġmandar":13507,"Ġheredero":13508,"ĠbÃ¡sico":13509,"Ġsecreta":13510,"ĠAnexo":13511,"ĠHil":13512,"ĠenergÃŃas":13513,"ĠmandÃŃbula":13514,"Ġcabina":13515,"ĠEres":13516,"Ġ94":13517,"Ġpalp":13518,"Ġms":13519,"Ġemocional":13520,"Ġsucesor":13521,"Ġllamaban":13522,"Ġescucha":13523,"Ġalu":13524,"Ġescuchando":13525,"Ġenve":13526,"roga":13527,"ĠPresidenta":13528,"ĠenvÃŃo":13529,"Ġdebates":13530,"2005":13531,"ĠHouse":13532,"Ġtocado":13533,"Ġplazas":13534,"low":13535,"Ġanciana":13536,"Ġtranscurso":13537,"ĠAgricultura":13538,"Ġvuestras":13539,"Ġamericana":13540,"Ġmanifiesta":13541,"Ġpersu":13542,"ecidos":13543,"Ġtrigo":13544,"ĠMiemb":13545,"ĠaumentÃ³":13546,"Ġexcepcional":13547,"orra":13548,"Ġabandono":13549,"iger":13550,"ĠhÃºmedo":13551,"ĠZelanda":13552,"Ġlobo":13553,"Ġoculto":13554,"ĠmuchÃŃsimo":13555,"Ġgases":13556,"Ġconsiderando":13557,"Ġplanos":13558,"public":13559,"Ġvendido":13560,"Ġmodificada":13561,"Ġrenuncia":13562,"',":13563,"Ġcobar":13564,"pue":13565,"Ġ1954":13566,"Ġfronter":13567,"ptima":13568,"ĠConstantino":13569,"war":13570,"ĠMexic":13571,"Ġbalas":13572,"Ġnacionalidad":13573,"Ġdistritos":13574,"ĠRepres":13575,"Ġvoluntarios":13576,"ĠClaro":13577,"ÏĤ":13578,"pros":13579,"ĠRoyal":13580,"Ġsinies":13581,"ĠJoaquÃŃn":13582,"Ġexperto":13583,"Ġincorrec":13584,"Ġprovincial":13585,"doso":13586,"explicÃ³":13587,"Ġesfera":13588,"sar":13589,"ĠGeo":13590,"ĠarquitectÃ³n":13591,"ĠsusurrÃ³":13592,"ĠJones":13593,"Ġpracticar":13594,"Ġestructural":13595,"Ġhelic":13596,"ĠelÃ©ctrico":13597,"ĠAeropuerto":13598,"Ġadolescentes":13599,"Ġtubo":13600,"ĠEscri":13601,"Ġadentro":13602,"Ġguerrero":13603,"fri":13604,"Ġcreencia":13605,"Ġsois":13606,"Ġinconven":13607,"ĠPRES":13608,"ball":13609,"cle":13610,"Ġdiri":13611,"Ġintervenir":13612,"deza":13613,"tain":13614,"ĠacariciÃ³":13615,"usas":13616,"ĠsoberanÃŃa":13617,"fle":13618,"ĠTodas":13619,"xido":13620,"gase":13621,"Ġexposiciones":13622,"cuer":13623,"ende":13624,"Ġfuturos":13625,"ĠNan":13626,"caciones":13627,"igma":13628,"Ġtendremos":13629,"ĠradiaciÃ³n":13630,"ĠECU":13631,"ĠPaulo":13632,"ng":13633,"Ġpacto":13634,"Ġpresentaba":13635,"Ġgustan":13636,"cto":13637,"dillera":13638,"ĠcreciÃ³":13639,"Ġmatan":13640,"Ġguardi":13641,"Ġdela":13642,"Ġdespierta":13643,"ĠaquÃ©l":13644,"Ġinvas":13645,"ĠtemÃŃa":13646,"Ġ98":13647,"Ġafectado":13648,"Ġcelda":13649,"Ġcontando":13650,"Alex":13651,"Ġmilagro":13652,"Ġjueves":13653,"Ġsexto":13654,"illy":13655,"Ġamantes":13656,"ĠavanzÃ³":13657,"Ġpsico":13658,"Ġmiraban":13659,"ĠTorres":13660,"Ste":13661,"ĠGuinea":13662,"ĠCarolina":13663,"Ġtejidos":13664,"rerÃŃa":13665,"ĠpuÃ±o":13666,"Ġrescate":13667,"Ġrent":13668,"Ġinsectos":13669,"ĠLic":13670,"Ġpublicados":13671,"Ġnobleza":13672,"sobre":13673,"ĠÃ³p":13674,"ĠseÃ±alado":13675,"Ġsostiene":13676,"ĠConse":13677,"Ġcaptura":13678,"Ġlimitar":13679,"Ġvisual":13680,"ĠTw":13681,"Ġmetodo":13682,"Ġtranquiliz":13683,"Ġ1953":13684,"Ġliderazgo":13685,"Ġchal":13686,"Dicho":13687,"Ġalegro":13688,"Ġpozo":13689,"ĠaÃ±ade":13690,"ĠMayo":13691,"Ġplantea":13692,"ĠdesempeÃ±Ã³":13693,"Ġacuer":13694,"Eh":13695,"venido":13696,"Ã³stico":13697,"Ġ86":13698,"eÃ±a":13699,"Ġanaliz":13700,"Ġcomplicado":13701,"ĠProtecciÃ³n":13702,"Ġlaborales":13703,"Ġpresentaron":13704,"Ġabogados":13705,"terapia":13706,"Ġafirmar":13707,"Ġmerca":13708,"ĠantigÃ¼edad":13709,"Ġposeer":13710,"Ġvariable":13711,"Ġzan":13712,"Ġsonar":13713,"Ġpenas":13714,"Ġtemprana":13715,"Ġindispensable":13716,"Ġsubord":13717,"Ġancianos":13718,"Ġlaterales":13719,"gotÃ¡":13720,"jalÃ¡":13721,"ĠcompasiÃ³n":13722,"ĠcirugÃŃa":13723,"ĠCristina":13724,"Ġencuentre":13725,"Ġ1934":13726,"ĠBene":13727,"Ġ1931":13728,"peones":13729,"Ġdelitos":13730,"ĠJoan":13731,"Ġhierbas":13732,"onde":13733,"Ġsierra":13734,"ĠadquiriÃ³":13735,"Ġdemandante":13736,"Ġretom":13737,"Ġsanta":13738,"Ġcolega":13739,"ĠAlbert":13740,"Ġmanual":13741,"ĠoxÃŃgeno":13742,"ÃŃl":13743,"ĠColum":13744,"Ġreunidos":13745,"Ġencargo":13746,"mens":13747,"ĠvÃ©r":13748,"cante":13749,"buses":13750,"ĠacadÃ©mico":13751,"Ġemitir":13752,"olviÃ³":13753,"Ġdeclara":13754,"Ġhablaban":13755,"Ġsurge":13756,"idro":13757,"Ġencargar":13758,"dical":13759,"!...":13760,"Toda":13761,"Ġpedirle":13762,"ĠAS":13763,"mental":13764,"Dado":13765,"Ġayudado":13766,"Ġmonarca":13767,"Ġreacciones":13768,"Ġjaponeses":13769,"ors":13770,"fru":13771,"ĠWalter":13772,"Ġconjunta":13773,"canes":13774,"Ġunidos":13775,"cano":13776,"Ġprevis":13777,"ĠfÃŃsicas":13778,"Ġcharla":13779,"ĠAudi":13780,"urado":13781,"ifer":13782,"ĠtecnolÃ³gico":13783,"Ġcolectivo":13784,"Ġinmenso":13785,"Ġintra":13786,"Ġanar":13787,"Ġinvisible":13788,"herine":13789,"ĠhÃŃ":13790,"Ã¼r":13791,"ĠextraÃ±os":13792,"Ġatravi":13793,"Ġefectuar":13794,"Ġconstrucciones":13795,"Ġadquier":13796,"leos":13797,"Ġguarn":13798,"ĠÅ":13799,"Ġpintores":13800,"ĠAquella":13801,"cuatro":13802,"Ġmisa":13803,"Ġarrodill":13804,"Ġfamosos":13805,"ĠtrÃ¡g":13806,"Ġadministrativo":13807,"ĠcatÃ³licos":13808,"amba":13809,"iarse":13810,"ĠorganizÃ³":13811,"ĠCarol":13812,"ĠMovimiento":13813,"ĠpaÃ±uelo":13814,"Ġree":13815,"Ġdefensor":13816,"Ġ--":13817,"ĠescÃ¡ndalo":13818,"Ġhip":13819,"Ġator":13820,"Ġrepresentado":13821,"Ġprisionero":13822,"Ġsuena":13823,"ĠApo":13824,"ĠdeberÃŃamos":13825,"politana":13826,"rincip":13827,"ĠlÃ¡p":13828,"ĠhÃºn":13829,"may":13830,"Ġinconsciente":13831,"Ġ91":13832,"ĠirÃŃa":13833,"Ġasegura":13834,"Ġrodilla":13835,"dada":13836,"Ġcump":13837,"Ġneutr":13838,"Ġsiglas":13839,"ĠZo":13840,"Ġregresa":13841,"Ġdescarga":13842,"ĠencargÃ³":13843,"ĠEmma":13844,"ĠVida":13845,"Ġexacta":13846,"Ġtragedia":13847,"Ġpido":13848,"Ġagencias":13849,"ĠTok":13850,"ĠIndi":13851,"Ġabrieron":13852,"ĠCÃ³digo":13853,"entarias":13854,"ĠSimÃ³n":13855,"Ġlejano":13856,"ĠvÃ©ase":13857,"Ġagradecer":13858,"ĠlÃ¡mpara":13859,"tega":13860,"Ġinteresantes":13861,"Ġescalo":13862,"Ġdiosa":13863,"Ġfes":13864,"Ġcristianismo":13865,"Ġanex":13866,"Ġexterna":13867,"ĠmenciÃ³n":13868,"Ġtablas":13869,"ĠextraÃ±":13870,"ĠSofÃŃa":13871,"GI":13872,"digos":13873,"Ġadministrativas":13874,"Ġdegrad":13875,"Ġprovocado":13876,"Ġterrorismo":13877,"Ġchinos":13878,"Ġsaco":13879,"ĠPales":13880,"Ġpresos":13881,"Ġamado":13882,"ĠredacciÃ³n":13883,"Ġrelatos":13884,"Ġdeprisa":13885,"ĠIns":13886,"Ġarmada":13887,"Ġimpo":13888,"ĠlimitÃ³":13889,"lÃ©":13890,"ĠarmonÃŃa":13891,"Ġmision":13892,"Ġinquietud":13893,"Ġvener":13894,"Ġrefieren":13895,"sÃ©is":13896,"ĠclÃŃnica":13897,"ĠPress":13898,"ĠenseÃ±Ã³":13899,"Dic":13900,"uo":13901,"Ġlord":13902,"Ġreduce":13903,"gie":13904,"rik":13905,"icul":13906,"fÃŃs":13907,"Ġcanta":13908,"Ġreconocida":13909,"Ġsagrado":13910,"Ã³lico":13911,"Ġpab":13912,"Ġidiota":13913,"Ġ1917":13914,"Ġ99":13915,"puestamente":13916,"Ġcontinuidad":13917,"Ġprofesora":13918,"gicos":13919,"Ġrumor":13920,"Ġdemasiada":13921,"ĠinstrucciÃ³n":13922,"Ġcristales":13923,"Ġsensibilidad":13924,"VILLA":13925,"Ġnacer":13926,"ĠbÃ¡sicas":13927,"Ġabo":13928,"Ġgenio":13929,"jante":13930,"Pr":13931,"Ġdescom":13932,"Ġintelectuales":13933,"Ġserpiente":13934,"Ġaje":13935,"ĠSeguro":13936,
[...]
